<blank>	0
<unk>	0
<s>	0
</s>	0
<p>	0
<sep>	0
<cls>	0
,	-3.41433
.	-3.52554
'	-3.64031
▁de	-3.6546
▁the	-3.77066
s	-4.2357
▁of	-4.2547
▁la	-4.33816
▁and	-4.48452
▁to	-4.51531
▁et	-4.51855
▁l	-4.58664
▁des	-4.59273
▁les	-4.6549
▁a	-4.73358
▁à	-4.75831
▁le	-4.80434
▁d	-4.81277
▁in	-4.83909
▁	-4.8961
-	-5.06418
▁du	-5.13472
▁en	-5.23037
▁que	-5.44634
▁that	-5.4588
▁for	-5.46512
▁is	-5.46575
▁(	-5.50449
▁pour	-5.6102
▁dans	-5.66035
▁on	-5.70462
)	-5.71939
▁un	-5.77953
▁sur	-5.79185
▁au	-5.8072
▁qui	-5.82233
▁une	-5.87559
▁be	-5.88458
▁The	-5.8856
▁par	-6.0008
▁est	-6.04079
▁Canada	-6.09231
▁with	-6.09309
▁are	-6.10019
▁by	-6.17075
▁as	-6.20416
▁aux	-6.25036
e	-6.28669
▁or	-6.34175
▁this	-6.34189
▁pas	-6.34764
▁ou	-6.35547
:	-6.36706
▁ce	-6.37064
▁plus	-6.38421
▁not	-6.39841
▁qu	-6.40909
▁I	-6.45506
▁have	-6.46997
▁Le	-6.48956
▁sont	-6.50061
▁it	-6.52984
▁-	-6.53299
▁will	-6.54888
▁s	-6.56173
▁an	-6.56374
▁ne	-6.58212
▁from	-6.60476
▁Les	-6.62259
▁ont	-6.68806
;	-6.70731
a	-6.70921
un	-6.71096
▁which	-6.71435
▁n	-6.73296
▁was	-6.74294
▁nous	-6.74459
▁has	-6.74776
▁La	-6.75637
▁at	-6.76385
/	-6.77179
est	-6.8248
▁:	-6.83637
une	-6.84103
▁L	-6.84809
il	-6.85751
▁été	-6.86126
▁we	-6.8726
▁se	-6.888
▁avec	-6.88862
▁"	-6.93364
ing	-7.00527
▁il	-7.01292
▁être	-7.01418
▁In	-7.01425
▁their	-7.02865
es	-7.05927
▁A	-7.07303
▁cette	-7.09384
▁Commission	-7.10074
▁all	-7.1185
▁services	-7.12233
▁C	-7.13785
▁Il	-7.13806
▁also	-7.14724
▁ces	-7.16518
▁been	-7.20343
▁would	-7.22578
▁its	-7.22626
▁leur	-7.23129
ed	-7.25793
▁other	-7.26051
?	-7.27765
▁more	-7.29045
▁were	-7.3037
▁should	-7.30587
d	-7.30607
▁comme	-7.30913
▁pays	-7.33215
▁can	-7.34045
▁fait	-7.34858
▁non	-7.35621
).	-7.35766
▁but	-7.36845
▁En	-7.37349
▁This	-7.38668
er	-7.3951
▁European	-7.41104
"	-7.41651
▁son	-7.42966
▁information	-7.44005
▁It	-7.44134
S	-7.44256
▁they	-7.44424
▁1	-7.45477
▁peut	-7.47646
▁santé	-7.47708
▁«	-7.48808
▁Canadian	-7.50426
▁these	-7.51195
t	-7.51915
▁mais	-7.5466
▁one	-7.56063
▁si	-7.56367
▁public	-7.56883
▁M	-7.57049
▁entre	-7.57351
▁our	-7.58113
▁you	-7.58429
▁je	-7.58808
▁new	-7.58919
▁must	-7.61848
▁may	-7.62074
y	-7.6228
r	-7.62695
▁faire	-7.62741
▁y	-7.62925
▁vous	-7.62968
▁who	-7.63686
on	-7.64256
▁c	-7.64569
▁gouvernement	-7.65147
▁such	-7.65856
▁rapport	-7.65969
▁there	-7.67111
▁question	-7.67143
▁important	-7.67653
▁tout	-7.69731
en	-7.7026
▁health	-7.70874
▁aussi	-7.71259
▁tous	-7.71757
▁than	-7.73481
▁même	-7.74142
▁également	-7.74298
▁time	-7.74483
▁Je	-7.74548
▁Mr	-7.74611
▁about	-7.74624
▁D	-7.74821
▁S	-7.75045
▁We	-7.75252
▁leurs	-7.75487
▁2	-7.75529
▁no	-7.75695
▁ses	-7.7597
▁under	-7.76084
▁part	-7.76195
▁membres	-7.76399
▁programme	-7.76547
▁deux	-7.77315
▁cas	-7.77539
),	-7.77606
▁travail	-7.78682
▁any	-7.79676
autres	-7.79731
▁international	-7.79785
▁do	-7.79923
▁government	-7.80632
▁doit	-7.80654
▁sa	-7.81151
▁work	-7.81645
▁Nous	-7.82001
▁recherche	-7.82129
ly	-7.83574
▁ainsi	-7.84506
▁national	-7.8455
▁États	-7.85764
▁into	-7.8621
▁B	-7.86241
▁bien	-7.86522
▁if	-7.86796
▁point	-7.87779
▁3	-7.87813
▁protection	-7.87979
▁développement	-7.88406
▁report	-7.88755
▁only	-7.8876
▁use	-7.88771
▁support	-7.89231
▁people	-7.89667
▁out	-7.90638
▁politique	-7.91347
A	-7.91373
▁%	-7.91748
▁had	-7.9256
▁projet	-7.93309
▁between	-7.93471
▁Conseil	-7.94135
ment	-7.94186
▁On	-7.94216
▁dont	-7.94283
▁development	-7.95503
▁some	-7.96126
C	-7.96563
▁européenne	-7.97926
▁year	-7.9829
▁those	-7.98295
▁service	-7.98968
▁so	-7.99041
▁States	-8.00077
▁soit	-8.00113
▁countries	-8.00496
▁made	-8.00883
▁Dans	-8.00995
▁place	-8.01923
▁questions	-8.02012
nt	-8.02509
▁plan	-8.02839
▁cours	-8.03014
▁when	-8.03754
▁years	-8.04269
▁cadre	-8.04288
▁personnes	-8.04873
▁well	-8.051
▁Council	-8.0528
▁afin	-8.05381
▁autres	-8.05453
▁produits	-8.05648
al	-8.06199
▁sous	-8.06361
▁données	-8.06483
▁need	-8.06734
▁matière	-8.0707
▁possible	-8.07573
▁droits	-8.08129
▁policy	-8.08484
▁situation	-8.08733
n	-8.08927
▁4	-8.09093
▁Health	-8.09406
▁research	-8.0944
▁what	-8.09511
in	-8.09711
▁over	-8.09761
▁nombre	-8.10334
▁two	-8.10515
▁où	-8.10674
▁5	-8.10823
▁through	-8.11008
▁programmes	-8.11654
information	-8.11682
▁re	-8.11779
▁peuvent	-8.11815
▁demande	-8.12181
▁very	-8.12249
▁up	-8.12445
▁J	-8.13522
▁system	-8.13522
▁très	-8.14145
▁number	-8.1443
▁De	-8.14666
▁notre	-8.15036
ils	-8.15163
▁10	-8.15189
▁sans	-8.16156
▁système	-8.16264
à	-8.16922
▁droit	-8.17906
▁Europe	-8.18207
▁gestion	-8.18393
▁Pour	-8.18449
▁contre	-8.18779
▁doivent	-8.18899
▁mesures	-8.19117
▁partie	-8.19348
▁Ce	-8.19634
▁conditions	-8.19774
▁compte	-8.19878
▁Act	-8.19998
▁mise	-8.20335
▁moins	-8.20724
▁first	-8.2085
▁R	-8.21035
▁being	-8.21076
▁Member	-8.21577
▁where	-8.22017
▁them	-8.22065
Union	-8.22345
▁$	-8.22572
▁long	-8.22759
▁For	-8.22841
▁social	-8.23162
▁could	-8.23358
c	-8.2366
▁Union	-8.23766
▁make	-8.23783
▁provide	-8.23816
▁As	-8.2393
▁used	-8.23938
ai	-8.24073
▁President	-8.24629
▁T	-8.24683
i	-8.24969
▁most	-8.25431
▁within	-8.25921
▁like	-8.26188
elle	-8.2626
(	-8.26263
▁activités	-8.26298
▁Committee	-8.277
▁production	-8.27924
b	-8.27955
▁P	-8.28142
▁his	-8.28143
▁Monsieur	-8.28187
▁because	-8.28432
▁Parliament	-8.28665
ont	-8.28756
▁elle	-8.28778
▁your	-8.29327
▁»	-8.29612
▁process	-8.29653
▁many	-8.29707
▁population	-8.29799
▁Parlement	-8.29805
▁Président	-8.30352
▁program	-8.30641
▁G	-8.30816
é	-8.31101
▁respect	-8.31123
ci	-8.31533
▁me	-8.31866
▁Si	-8.31919
▁sécurité	-8.32557
▁avons	-8.32667
▁document	-8.32799
▁processus	-8.33048
▁renseignements	-8.33094
▁temps	-8.33114
▁politiques	-8.3334
▁E	-8.33566
▁6	-8.33574
▁both	-8.33936
D	-8.34521
▁était	-8.34789
▁he	-8.34817
o	-8.35044
g	-8.35225
▁niveau	-8.35343
▁loi	-8.35603
▁façon	-8.3569
▁À	-8.35775
▁base	-8.36389
▁country	-8.36679
B	-8.3698
▁date	-8.37046
▁sera	-8.37068
▁secteur	-8.37419
▁marché	-8.37495
▁résultats	-8.37779
être	-8.38014
2	-8.38443
▁take	-8.38638
▁economic	-8.38974
▁groupe	-8.39011
▁budget	-8.39375
ait	-8.40035
or	-8.4018
▁my	-8.40547
▁Cette	-8.40924
▁[	-8.41167
▁ressources	-8.41305
▁order	-8.41429
▁issues	-8.41443
▁Un	-8.41486
article	-8.415
▁nos	-8.41571
▁concernant	-8.41814
▁us	-8.4196
▁F	-8.41979
▁j	-8.42238
▁each	-8.42265
▁mesure	-8.42285
▁toutes	-8.42897
▁Loi	-8.42918
▁If	-8.43523
▁avoir	-8.43693
m	-8.43796
▁including	-8.4391
1	-8.44024
▁data	-8.44199
▁management	-8.44211
▁rights	-8.44478
▁now	-8.44486
▁shall	-8.44891
▁ans	-8.44916
▁market	-8.45124
▁N	-8.45148
▁EU	-8.45775
▁ensure	-8.46725
▁7	-8.46767
▁selon	-8.46832
ant	-8.47047
l	-8.47296
▁following	-8.47435
▁level	-8.47527
▁avant	-8.47566
▁000	-8.47715
▁cet	-8.47796
▁same	-8.48136
▁autre	-8.48239
▁européen	-8.48323
▁vue	-8.48372
▁total	-8.48398
le	-8.4871
▁certain	-8.4872
▁toute	-8.48853
re	-8.48876
▁p	-8.48897
▁how	-8.49326
▁encore	-8.4973
▁ministre	-8.49804
▁financial	-8.50211
▁entreprises	-8.50246
▁activities	-8.50636
P	-8.5071
ons	-8.50776
▁per	-8.51096
▁années	-8.51331
▁provided	-8.51371
▁Par	-8.51383
▁does	-8.51534
▁institutions	-8.51567
▁Ces	-8.52075
▁après	-8.52221
▁position	-8.52463
▁15	-8.52832
▁Une	-8.53165
▁taux	-8.53298
▁certains	-8.5335
▁case	-8.53666
▁fois	-8.5379
▁tax	-8.538
▁12	-8.5404
▁application	-8.54239
▁There	-8.54545
▁after	-8.54581
▁way	-8.54672
▁efforts	-8.54927
▁faut	-8.54954
▁available	-8.55486
▁chaque	-8.56125
▁20	-8.56617
▁jour	-8.56742
▁devrait	-8.5686
▁donc	-8.5688
▁section	-8.57521
▁trois	-8.57671
E	-8.57672
▁exemple	-8.57922
▁However	-8.57962
▁8	-8.58195
M	-8.58482
▁vie	-8.58659
▁Government	-8.58774
▁during	-8.58913
▁issue	-8.58984
▁votre	-8.59117
▁future	-8.59141
▁community	-8.59401
▁documents	-8.59414
▁lieu	-8.59659
▁cela	-8.59735
▁formation	-8.5976
▁members	-8.59785
▁économique	-8.59814
▁federal	-8.59888
▁change	-8.60081
▁continue	-8.60176
▁site	-8.60237
▁human	-8.60267
▁before	-8.60456
▁Minister	-8.60635
]	-8.60896
▁parties	-8.6113
▁million	-8.61276
▁three	-8.61942
▁période	-8.61964
T	-8.6231
▁ceux	-8.62379
▁period	-8.62494
▁dollars	-8.62665
▁canadienne	-8.6277
z	-8.62997
▁project	-8.63052
▁against	-8.63142
uvre	-8.63308
▁Article	-8.63398
▁personne	-8.63475
▁participation	-8.63736
▁domaine	-8.6375
▁9	-8.63911
▁H	-8.63955
évaluation	-8.64404
▁personnel	-8.64448
▁No	-8.64614
▁areas	-8.65075
▁2006	-8.65201
▁world	-8.65217
▁International	-8.65326
▁business	-8.65468
▁général	-8.65663
▁required	-8.65998
▁femmes	-8.66261
▁action	-8.66521
▁area	-8.66696
▁millions	-8.66798
▁ils	-8.66895
▁These	-8.66908
▁qualité	-8.66973
▁Au	-8.67338
▁fin	-8.67393
▁care	-8.67599
▁lui	-8.67911
▁access	-8.67973
▁products	-8.68083
▁include	-8.68544
▁To	-8.68857
▁example	-8.68939
▁projets	-8.69219
▁publique	-8.69249
▁notamment	-8.69444
▁United	-8.69464
▁30	-8.69642
▁m	-8.70109
▁right	-8.7012
▁measures	-8.70434
▁manière	-8.70706
L	-8.70853
▁car	-8.70998
p	-8.7108
▁monde	-8.71128
▁2005	-8.71149
hui	-8.71253
▁canadien	-8.71339
▁plusieurs	-8.71482
able	-8.71687
3	-8.72058
▁am	-8.72068
▁initiatives	-8.72102
▁société	-8.72553
▁mettre	-8.7258
▁déjà	-8.72692
▁rôle	-8.72974
▁based	-8.73122
▁Services	-8.7343
▁said	-8.73512
▁seront	-8.73559
▁Canadiens	-8.73615
▁women	-8.7366
▁tant	-8.73686
▁avait	-8.73695
▁set	-8.7372
▁programs	-8.73739
▁Canadians	-8.73757
an	-8.7391
▁Program	-8.74158
▁particular	-8.74233
▁industry	-8.74272
▁high	-8.74345
▁help	-8.74415
▁grande	-8.74415
R	-8.74562
F	-8.74574
▁concerne	-8.75042
▁participants	-8.75594
Unis	-8.75617
▁sector	-8.76028
▁financement	-8.76129
▁seulement	-8.76142
▁risk	-8.76255
▁e	-8.76313
▁peu	-8.76386
▁DE	-8.76617
ent	-8.76808
▁pourrait	-8.76808
▁Des	-8.76858
▁National	-8.76909
▁présent	-8.7694
▁large	-8.76958
▁resources	-8.76967
▁premier	-8.76999
▁nouveau	-8.77276
▁18	-8.7736
aide	-8.77439
▁objectifs	-8.77464
▁fact	-8.77746
▁decision	-8.77794
eau	-8.77825
▁sujet	-8.77825
utilisation	-8.78106
▁Centre	-8.78235
▁further	-8.78301
▁décision	-8.7831
N	-8.78675
▁depuis	-8.78879
▁group	-8.79002
H	-8.79096
▁moment	-8.79385
▁11	-8.79549
▁savoir	-8.80255
▁increase	-8.80257
▁even	-8.80283
▁political	-8.8036
▁mois	-8.80643
4	-8.80828
▁agreement	-8.80908
▁role	-8.80932
▁vote	-8.80937
▁problèmes	-8.81135
▁raison	-8.81279
▁Nations	-8.81299
▁law	-8.81411
▁soins	-8.8147
▁results	-8.8159
▁type	-8.81621
▁different	-8.81988
▁prix	-8.8203
▁result	-8.82065
▁needs	-8.82185
▁terme	-8.82189
▁prendre	-8.82219
▁trade	-8.82243
▁provinces	-8.82309
▁nouvelles	-8.82401
▁capital	-8.82541
▁communication	-8.82619
ation	-8.8262
▁organismes	-8.82626
▁whether	-8.82689
▁mis	-8.82882
▁année	-8.83061
▁K	-8.83755
▁enfants	-8.83993
▁local	-8.84171
▁review	-8.84244
▁nouveaux	-8.84257
▁co	-8.84474
▁end	-8.84558
▁points	-8.84632
▁fonction	-8.84691
▁nouvelle	-8.84708
▁specific	-8.84838
▁dit	-8.84842
ur	-8.84929
▁titre	-8.85107
▁première	-8.85136
▁chez	-8.85159
▁pendant	-8.85258
▁cause	-8.85283
▁produit	-8.85338
▁transport	-8.85407
▁basis	-8.85519
▁lors	-8.85567
▁soient	-8.85585
▁own	-8.85809
emploi	-8.85815
▁groupes	-8.85815
▁2004	-8.85906
th	-8.85966
▁They	-8.85989
▁current	-8.861
it	-8.86278
▁besoin	-8.86587
▁fonds	-8.86664
▁25	-8.86722
▁much	-8.86845
▁amount	-8.86875
▁Elle	-8.86883
▁étaient	-8.86904
▁sein	-8.86906
ers	-8.86941
▁2007	-8.8699
▁member	-8.86999
▁directive	-8.87268
▁good	-8.87552
▁laquelle	-8.8763
▁funding	-8.87711
▁without	-8.87862
▁since	-8.88047
▁Research	-8.8805
▁general	-8.88101
▁0	-8.88198
▁soutien	-8.88218
▁règlement	-8.88317
▁training	-8.88419
▁risque	-8.88642
industrie	-8.8873
▁therefore	-8.88761
▁given	-8.88861
▁Comité	-8.89091
▁proposition	-8.89105
▁Department	-8.89189
▁nom	-8.89333
▁beaucoup	-8.8942
▁vertu	-8.89427
▁valeur	-8.89464
▁Programme	-8.89631
▁contribution	-8.89705
▁internationale	-8.89982
▁nature	-8.90054
▁see	-8.90067
Europe	-8.90101
▁water	-8.90139
UE	-8.90145
▁eu	-8.90156
▁Information	-8.90424
▁Bureau	-8.90572
▁paragraphe	-8.90702
▁Service	-8.90879
▁présente	-8.90995
▁Community	-8.91018
▁interest	-8.91173
▁contrôle	-8.91258
▁last	-8.9128
▁just	-8.91459
▁particulier	-8.91673
▁working	-8.91709
▁taken	-8.91747
▁approach	-8.91792
▁O	-8.9191
▁while	-8.92019
▁necessary	-8.92187
▁jusqu	-8.92244
▁19	-8.92248
▁effet	-8.92297
▁impact	-8.92377
▁New	-8.92501
▁14	-8.9264
environnement	-8.92702
▁page	-8.92902
▁traitement	-8.9314
▁means	-8.93221
aient	-8.93417
▁common	-8.93566
▁revenu	-8.93582
▁then	-8.93591
▁certaines	-8.93665
G	-8.93685
▁effective	-8.93975
▁That	-8.93999
▁key	-8.94186
▁100	-8.94411
▁b	-8.94413
▁subject	-8.94564
▁did	-8.94613
▁besoins	-8.9464
ca	-8.94715
▁générale	-8.94732
▁région	-8.94867
▁Development	-8.95245
application	-8.95294
▁relations	-8.95342
."	-8.955
▁requirements	-8.95542
▁second	-8.95587
▁nationale	-8.95666
agit	-8.9606
▁pouvoir	-8.96117
▁problème	-8.96174
▁13	-8.9622
▁Ontario	-8.96263
▁compris	-8.96355
▁visant	-8.96393
▁province	-8.96405
▁cost	-8.9663
▁jeunes	-8.96862
▁parce	-8.9704
▁dire	-8.97045
▁mon	-8.97064
▁House	-8.97097
▁serait	-8.97332
▁related	-8.97597
▁moyen	-8.97952
au	-8.97978
▁want	-8.97998
▁quality	-8.98087
▁dépenses	-8.98117
▁devons	-8.98431
▁know	-8.98573
▁still	-8.98756
▁security	-8.98862
▁groups	-8.98865
▁Public	-8.99278
▁rate	-8.99391
▁appropriate	-8.99465
▁dispositions	-8.99502
▁among	-8.99564
▁terms	-8.99584
▁children	-8.99591
▁form	-8.99633
▁1.	-8.99677
▁nécessaire	-8.99706
▁view	-8.99709
▁income	-8.99792
▁main	-8.99885
▁grand	-8.99903
▁provincial	-9.00331
▁major	-9.00355
▁legislation	-9.00413
▁Board	-9.00436
▁collaboration	-9.00451
▁alors	-9.00617
▁cannot	-9.00632
▁comité	-9.00782
▁proposed	-9.01012
ra	-9.0108
▁plans	-9.01206
▁toujours	-9.01295
▁Convention	-9.01405
▁aujourd	-9.01456
▁suis	-9.01814
▁better	-9.01818
▁donné	-9.01827
▁person	-9.02002
▁already	-9.02016
▁ayant	-9.0202
▁control	-9.02063
▁projects	-9.02067
▁croissance	-9.02117
▁vers	-9.02177
▁Office	-9.02396
▁Québec	-9.02401
▁suite	-9.02417
▁fédéral	-9.02475
▁Date	-9.02559
▁lorsque	-9.02581
f	-9.02604
ensemble	-9.02654
▁16	-9.02917
▁addition	-9.02979
▁importance	-9.03054
5	-9.03066
▁say	-9.03145
▁today	-9.03196
▁montant	-9.03221
▁force	-9.0337
▁culture	-9.0338
▁2003	-9.03431
▁costs	-9.03646
▁celui	-9.03646
to	-9.03819
▁proposal	-9.03896
▁her	-9.0405
▁celle	-9.04087
▁initiative	-9.04216
I	-9.04296
autre	-9.04316
▁individual	-9.04391
▁sommes	-9.0441
▁Santé	-9.04905
▁face	-9.04957
année	-9.05069
▁legal	-9.051
▁education	-9.05174
▁He	-9.05231
▁commerce	-9.05386
▁clear	-9.05548
▁coopération	-9.05603
▁Group	-9.05605
▁21	-9.05813
▁environmental	-9.05846
▁growth	-9.05926
▁changes	-9.05929
▁believe	-9.0593
▁General	-9.06095
▁knowledge	-9.06321
▁organizations	-9.06391
▁2000	-9.06483
action	-9.06664
▁relatives	-9.06685
O	-9.06736
▁small	-9.06858
▁communities	-9.0687
elles	-9.06896
▁devraient	-9.06977
▁think	-9.07059
▁study	-9.07109
▁commission	-9.07177
▁day	-9.07182
accès	-9.07264
▁An	-9.07279
age	-9.07385
▁cases	-9.07434
▁property	-9.0766
▁value	-9.07822
▁able	-9.08079
▁considered	-9.08105
▁six	-9.08145
▁coûts	-9.08301
Ã	-9.08426
▁elles	-9.08444
▁environment	-9.08466
&	-9.08482
▁policies	-9.08486
▁2002	-9.08513
▁provides	-9.08708
▁&	-9.08752
▁ministère	-9.09049
▁present	-9.09091
▁V	-9.0914
▁17	-9.09163
▁food	-9.09376
de	-9.09397
▁technologies	-9.09752
▁promotion	-9.09755
▁propriété	-9.09773
▁systems	-9.0991
▁global	-9.10043
▁What	-9.10274
▁significant	-9.10459
▁implementation	-9.10503
▁however	-9.10511
K	-9.106
▁systèmes	-9.10682
▁levels	-9.11033
▁sources	-9.11068
ce	-9.11429
▁put	-9.11472
és	-9.117
▁direction	-9.12022
▁ré	-9.12179
▁ni	-9.12265
▁Agency	-9.12341
▁problems	-9.12548
▁At	-9.12804
▁Web	-9.12923
▁received	-9.13086
▁product	-9.13101
▁various	-9.13108
▁cent	-9.13161
▁commercial	-9.13172
▁here	-9.13351
▁aspects	-9.1338
examen	-9.1342
▁citoyens	-9.13431
▁mieux	-9.13504
▁WIPO	-9.13561
et	-9.13662
▁consultation	-9.13863
▁50	-9.14005
▁framework	-9.14061
accord	-9.14064
▁2001	-9.14065
▁régime	-9.14144
▁24	-9.14293
h	-9.1435
▁safety	-9.14472
▁using	-9.14498
▁next	-9.14877
▁normes	-9.14901
ic	-9.15189
▁life	-9.1527
▁capacité	-9.15293
▁develop	-9.15315
▁31	-9.15331
▁régions	-9.15348
▁course	-9.15386
▁found	-9.15457
▁regard	-9.1552
▁potential	-9.1557
▁U	-9.15747
ou	-9.15776
▁actions	-9.15845
▁debate	-9.15862
▁another	-9.15933
ions	-9.16066
▁State	-9.1622
▁final	-9.16442
▁benefits	-9.16583
▁surveillance	-9.16614
▁déterminer	-9.1683
▁outre	-9.16838
▁font	-9.16851
▁stratégie	-9.16913
▁increased	-9.17121
J	-9.17143
▁meeting	-9.1727
▁But	-9.17348
▁Cela	-9.17368
▁Comme	-9.17395
▁goods	-9.17443
▁Dr	-9.17521
▁address	-9.17579
▁débat	-9.17582
▁risques	-9.17667
▁Internet	-9.1771
▁demandes	-9.17994
▁full	-9.1803
▁developing	-9.1813
▁performance	-9.18188
▁souvent	-9.18304
▁developed	-9.1833
▁maintenant	-9.18644
▁pay	-9.18809
▁organisations	-9.18917
▁déclaration	-9.19083
▁employment	-9.19223
▁solution	-9.19227
▁particularly	-9.19293
▁nombreux	-9.19314
▁All	-9.19352
▁président	-9.19428
▁Ministère	-9.19805
▁inter	-9.19842
▁First	-9.19857
▁account	-9.19915
▁staff	-9.20057
▁fins	-9.20128
00	-9.20137
▁discussion	-9.20368
▁employés	-9.20414
▁direct	-9.20502
objet	-9.20659
▁problem	-9.20728
▁clients	-9.20747
▁permis	-9.208
▁cooperation	-9.20814
▁ma	-9.20829
ne	-9.20838
▁Re	-9.20855
▁éléments	-9.20969
up	-9.20983
▁Commissioner	-9.2101
▁source	-9.21227
▁frais	-9.21382
▁established	-9.21385
▁rapports	-9.21557
▁création	-9.21791
▁across	-9.21872
▁included	-9.2199
▁progress	-9.22277
▁ci	-9.2228
▁pratiques	-9.22399
▁travaux	-9.22544
W	-9.22563
▁Plan	-9.22693
▁objectives	-9.22912
▁Mais	-9.22912
▁patients	-9.23038
▁effets	-9.231
▁standards	-9.23103
▁structure	-9.2313
▁celles	-9.23161
▁become	-9.23234
us	-9.23543
administration	-9.236
▁quelques	-9.23706
▁give	-9.24063
ity	-9.24121
▁apply	-9.24214
▁étant	-9.24242
État	-9.24252
▁W	-9.2454
▁regional	-9.24576
▁best	-9.24606
▁dernier	-9.24786
▁gens	-9.24803
▁comment	-9.24878
▁forme	-9.25041
▁improve	-9.25074
te	-9.25081
▁22	-9.2523
▁règles	-9.25299
▁Quebec	-9.25379
▁justice	-9.25553
▁involved	-9.25598
▁rules	-9.25603
ée	-9.25847
▁relative	-9.25913
▁exigences	-9.25987
▁décisions	-9.25997
▁fournir	-9.26122
".	-9.26242
▁energy	-9.26453
▁ligne	-9.26529
▁études	-9.26726
▁nécessaires	-9.26772
u	-9.26814
▁lorsqu	-9.26889
▁quatre	-9.27016
▁attention	-9.2703
▁provisions	-9.27099
▁relevant	-9.27274
▁voudrais	-9.27332
aux	-9.27428
▁distribution	-9.27478
▁II	-9.27554
▁Management	-9.27666
▁due	-9.27686
▁technology	-9.27739
▁types	-9.27949
▁making	-9.27972
▁plupart	-9.28001
▁least	-9.28051
▁too	-9.28132
▁Ils	-9.28269
▁techniques	-9.28489
▁effect	-9.28595
▁US	-9.28613
6	-9.28695
élaboration	-9.28787
▁jours	-9.29077
▁several	-9.29096
▁pris	-9.2929
at	-9.29299
▁/	-9.29366
▁mission	-9.29478
▁rapporteur	-9.29593
▁positive	-9.29691
▁matter	-9.29693
▁additional	-9.29772
▁assistance	-9.29808
▁foreign	-9.29914
▁done	-9.30025
▁changements	-9.30097
▁importante	-9.30253
▁Section	-9.3034
▁citizens	-9.30378
▁donner	-9.30383
V	-9.30396
▁March	-9.30506
▁private	-9.30541
▁cinq	-9.30602
▁réduire	-9.3061
▁Aboriginal	-9.30808
▁four	-9.30843
▁bon	-9.30884
k	-9.30906
▁marchés	-9.31013
▁auprès	-9.31049
▁accord	-9.31126
particulièrement	-9.31265
▁companies	-9.3127
▁meet	-9.3127
assurer	-9.31479
▁sens	-9.31485
▁investment	-9.31504
▁assessment	-9.31628
▁Toutefois	-9.31925
▁benefit	-9.31989
▁often	-9.31991
▁treatment	-9.3201
▁greater	-9.32106
▁secteurs	-9.3217
▁Report	-9.32205
▁together	-9.32263
▁Inc	-9.32345
▁tenu	-9.3239
égard	-9.3239
▁mondiale	-9.32403
▁responsible	-9.32443
▁davantage	-9.32502
▁far	-9.32537
intérêt	-9.32553
▁above	-9.32624
the	-9.32643
▁domaines	-9.32677
▁canadiens	-9.3273
▁come	-9.32831
▁five	-9.33122
▁unique	-9.33126
▁ex	-9.33325
▁sociale	-9.33383
▁Agreement	-9.33403
▁committee	-9.33405
impôt	-9.33543
▁permet	-9.33604
▁capacity	-9.33621
▁every	-9.33701
▁state	-9.33924
▁mars	-9.34104
ez	-9.34122
▁liste	-9.34186
▁termes	-9.34213
▁membre	-9.34288
▁opportunity	-9.34329
▁strategy	-9.34477
▁obtenir	-9.34516
▁canadiennes	-9.3461
▁traité	-9.34637
▁vigueur	-9.34734
▁few	-9.34777
▁economy	-9.34894
▁communautaire	-9.34917
▁University	-9.35058
▁go	-9.3528
▁rendement	-9.35289
▁months	-9.35453
▁get	-9.35456
▁permettre	-9.35484
▁Ottawa	-9.35523
▁aucun	-9.3565
▁dé	-9.3575
▁When	-9.35848
▁pense	-9.35977
▁différents	-9.36111
▁third	-9.36233
________________	-9.36529
▁responsabilité	-9.36818
▁met	-9.36855
▁existing	-9.36916
▁down	-9.37342
▁why	-9.3735
▁procédure	-9.37381
▁Policy	-9.37412
▁économiques	-9.37584
▁Speaker	-9.37657
▁financière	-9.37823
▁session	-9.37881
▁adopted	-9.37896
▁avis	-9.37921
▁evidence	-9.37931
▁employees	-9.38032
▁bonne	-9.38117
▁construction	-9.3815
▁1999	-9.38332
▁obligations	-9.38392
▁aucune	-9.38459
▁back	-9.38505
importance	-9.38739
▁response	-9.38741
▁analysis	-9.38781
▁discussions	-9.38832
▁pourraient	-9.38846
▁contact	-9.38935
▁changement	-9.39037
▁réponse	-9.39045
▁Treaty	-9.39045
▁voir	-9.39082
▁efficace	-9.39097
▁disposition	-9.39489
▁held	-9.39685
▁pourquoi	-9.39816
▁note	-9.40019
▁conformément	-9.40054
▁billion	-9.40069
▁principal	-9.40344
▁reports	-9.40377
▁violence	-9.40418
▁region	-9.40442
▁23	-9.40512
▁recent	-9.40604
▁allow	-9.40625
9	-9.40628
▁actuellement	-9.40653
▁identified	-9.40694
▁Mme	-9.40758
▁great	-9.40843
▁past	-9.40912
ées	-9.41342
is	-9.41349
économie	-9.4141
▁40	-9.41623
▁police	-9.41822
▁moyens	-9.41833
▁might	-9.41922
term	-9.41946
▁reported	-9.42033
▁find	-9.42164
▁organization	-9.42189
▁personal	-9.4236
la	-9.42376
▁lutte	-9.42489
▁having	-9.4256
▁post	-9.42568
▁autochtones	-9.42594
assurance	-9.42642
based	-9.42671
▁special	-9.42716
▁Court	-9.42759
▁va	-9.42778
▁technologie	-9.42903
▁Table	-9.42988
▁conséquent	-9.43022
▁dernière	-9.43169
▁evaluation	-9.43181
▁contributions	-9.43492
▁December	-9.43652
▁référence	-9.43684
▁assurer	-9.43712
▁effects	-9.43823
▁activity	-9.4388
▁délégation	-9.43889
▁paid	-9.4396
OMPI	-9.43997
▁charge	-9.44065
▁June	-9.44108
▁opinion	-9.44147
▁coordination	-9.4422
▁dialogue	-9.44289
▁authorities	-9.44294
▁?	-9.44307
▁intellectuelle	-9.44383
▁responsibility	-9.44393
ar	-9.44401
▁centre	-9.44421
▁society	-9.44456
▁line	-9.44484
▁gouvernements	-9.44498
▁French	-9.44516
▁répondre	-9.44567
▁request	-9.44628
▁field	-9.44659
▁début	-9.4478
▁money	-9.44874
▁deuxième	-9.44877
ie	-9.44898
▁language	-9.44911
▁OF	-9.45003
man	-9.45011
▁studies	-9.45071
▁consommateurs	-9.45169
ate	-9.45178
▁milieu	-9.45239
▁paragraph	-9.45242
▁décembre	-9.45415
▁air	-9.45458
▁propositions	-9.45522
0	-9.45654
▁power	-9.4568
▁Nord	-9.457
st	-9.45841
8	-9.46017
▁focus	-9.46071
▁juin	-9.4609
▁publication	-9.46096
▁Code	-9.46114
▁Bien	-9.46122
▁rates	-9.46157
▁cultural	-9.46177
▁eux	-9.46182
▁»,	-9.46195
après	-9.46197
▁améliorer	-9.46231
▁Chambre	-9.46309
▁pêche	-9.4641
▁With	-9.46521
▁partenaires	-9.46543
▁travailleurs	-9.46649
établissement	-9.46705
▁real	-9.46728
▁relation	-9.46809
▁réduction	-9.46828
▁solutions	-9.46932
▁British	-9.46948
▁contexte	-9.47022
▁funds	-9.47035
▁fiscal	-9.47046
▁licence	-9.4705
▁facteurs	-9.47104
▁days	-9.47124
▁One	-9.47125
homme	-9.47126
▁sites	-9.47176
▁progrès	-9.47234
▁Vous	-9.47276
▁applicable	-9.47337
▁députés	-9.47364
▁expected	-9.4737
▁oeuvre	-9.47382
▁communications	-9.47449
▁sorte	-9.47473
▁May	-9.47544
ir	-9.47548
▁forward	-9.47617
▁purpose	-9.47917
▁26	-9.47978
▁priorités	-9.48019
▁avaient	-9.4809
▁opportunities	-9.48174
▁concerned	-9.4819
▁governments	-9.48308
▁principe	-9.48368
▁she	-9.48499
▁experience	-9.48527
▁Cependant	-9.48567
▁court	-9.48605
▁constitue	-9.48612
▁term	-9.48644
▁plutôt	-9.487
▁decisions	-9.48705
▁créer	-9.48745
▁tels	-9.48767
▁ailleurs	-9.49032
▁instruments	-9.49106
Y	-9.49118
▁principes	-9.49135
as	-9.49249
▁Other	-9.49299
▁g	-9.49375
▁durable	-9.49405
▁anti	-9.49411
▁27	-9.49456
▁providing	-9.49552
▁procedures	-9.49584
▁partir	-9.49648
co	-9.49758
▁higher	-9.49781
▁existe	-9.49916
▁applications	-9.4993
▁motion	-9.49971
▁recommandations	-9.4998
▁needed	-9.49984
▁family	-9.50098
▁currently	-9.50297
▁contrat	-9.5036
▁possibilité	-9.50521
▁tel	-9.5055
▁28	-9.50575
éducation	-9.507
▁législation	-9.50926
▁faveur	-9.50987
▁range	-9.50999
▁Association	-9.51057
▁context	-9.51057
▁sociétés	-9.51069
▁test	-9.51105
▁low	-9.51105
»	-9.51107
▁concerns	-9.51236
▁demander	-9.51261
▁St	-9.51266
▁practices	-9.51347
U	-9.5142
7	-9.51516
▁Direction	-9.5153
▁office	-9.51552
▁grâce	-9.51576
▁2008	-9.51615
▁vérification	-9.51678
x	-9.51731
▁single	-9.51789
▁présenter	-9.51857
▁modèle	-9.51988
▁Cour	-9.52033
▁Selon	-9.52036
efficacité	-9.52068
les	-9.52093
ion	-9.52152
▁You	-9.52162
▁Regulations	-9.52501
▁reste	-9.52557
▁Human	-9.52587
▁autorités	-9.52654
▁individuals	-9.52659
▁regarding	-9.52662
▁January	-9.52682
▁substances	-9.52817
▁quant	-9.52895
▁ici	-9.52973
▁coût	-9.52987
▁modifications	-9.52987
▁reçu	-9.53192
▁Tribunal	-9.53201
▁mandat	-9.53326
▁1,	-9.5349
▁al	-9.53559
▁noted	-9.53599
▁And	-9.53601
▁60	-9.53642
▁zone	-9.53659
▁home	-9.53667
▁active	-9.53681
▁amendments	-9.53706
▁associated	-9.53724
▁workers	-9.53729
étude	-9.53839
▁directeur	-9.53871
▁article	-9.53884
▁aliments	-9.53913
isation	-9.53956
▁reduce	-9.54025
▁nationaux	-9.5406
▁divers	-9.54089
EC	-9.54116
ive	-9.54248
avoir	-9.54325
▁phase	-9.54383
▁connaissances	-9.54397
▁voie	-9.54415
▁nécessité	-9.54444
▁réglementation	-9.54489
ordre	-9.54509
exercice	-9.54588
analyse	-9.54626
▁likely	-9.54663
▁promote	-9.54731
▁hope	-9.54793
▁share	-9.54839
▁preuve	-9.54846
▁list	-9.54892
▁compétences	-9.54921
▁April	-9.54937
▁France	-9.54958
▁condition	-9.54977
▁annual	-9.55077
▁semble	-9.55119
▁trouver	-9.55148
▁trop	-9.55185
▁similar	-9.55217
v	-9.55336
▁telle	-9.55356
▁rather	-9.55375
▁janvier	-9.55388
▁affaires	-9.55412
▁financiers	-9.55479
ad	-9.55543
▁pre	-9.55631
▁either	-9.5564
▁valeurs	-9.55708
▁critères	-9.55737
▁nombreuses	-9.5574
▁dernières	-9.55768
▁upon	-9.55787
▁là	-9.55912
▁pratique	-9.56014
▁surtout	-9.56019
▁free	-9.56064
▁devant	-9.56162
énergie	-9.56285
▁procédures	-9.56299
▁suivants	-9.56541
▁rendre	-9.56577
▁technique	-9.56586
avenir	-9.566
▁again	-9.56696
▁suivi	-9.56727
▁communauté	-9.56758
▁chercheurs	-9.5692
▁behalf	-9.56929
▁objective	-9.56974
▁young	-9.57005
▁marchandises	-9.57024
▁principaux	-9.57042
▁consider	-9.5714
▁Co	-9.57282
▁tenir	-9.57355
▁especially	-9.57467
▁Bank	-9.57475
▁September	-9.57501
▁purposes	-9.57505
▁septembre	-9.57625
▁proposals	-9.5765
▁Director	-9.57743
▁priority	-9.5776
▁renforcer	-9.57761
▁whole	-9.5779
▁forces	-9.578
▁approche	-9.5781
▁consultations	-9.57872
▁lequel	-9.57878
▁going	-9.57992
▁réunion	-9.58042
▁etc	-9.58047
▁administrative	-9.5814
▁avantages	-9.58157
▁cancer	-9.58171
▁age	-9.58314
ance	-9.58323
▁taking	-9.58346
▁r	-9.58437
▁Delegation	-9.58461
▁agreements	-9.58477
▁poste	-9.58542
▁1998	-9.58585
▁nations	-9.58641
CE	-9.58702
▁pu	-9.58735
▁articles	-9.58742
▁model	-9.58764
▁technical	-9.58812
activité	-9.58839
▁différentes	-9.58863
▁partners	-9.59138
▁Some	-9.59155
▁PCT	-9.5923
entreprise	-9.59253
▁t	-9.59268
▁».	-9.59286
▁sub	-9.59287
▁élevé	-9.59306
▁euro	-9.59327
▁Trade	-9.5941
▁langue	-9.59422
▁Toronto	-9.5962
▁près	-9.59637
▁f	-9.59662
était	-9.59668
▁require	-9.59746
▁employee	-9.5979
▁central	-9.59992
▁prise	-9.60076
▁recommendations	-9.6023
▁sociaux	-9.60232
▁company	-9.60336
▁concurrence	-9.6036
▁aider	-9.6052
▁niveaux	-9.60584
▁around	-9.60596
▁avez	-9.60597
▁Institute	-9.60612
▁average	-9.6064
▁World	-9.60711
▁intérêts	-9.60726
▁concern	-9.60735
▁pension	-9.60816
▁equipment	-9.60845
▁determine	-9.60881
▁clairement	-9.60905
▁Affairs	-9.60907
▁demandé	-9.61006
▁toutefois	-9.6102
▁includes	-9.61027
▁populations	-9.61037
▁version	-9.61108
▁prises	-9.61272
origine	-9.61293
▁actuelle	-9.61345
▁factors	-9.61465
▁agencies	-9.61527
▁While	-9.61571
▁concerning	-9.61606
▁lead	-9.61644
▁planning	-9.61653
▁name	-9.61708
▁mai	-9.61824
▁difficult	-9.61877
▁ministères	-9.61989
▁open	-9.6219
▁liés	-9.62197
▁milliards	-9.62302
▁Règlement	-9.62315
▁bill	-9.62406
▁strong	-9.62436
▁THE	-9.62469
▁Madame	-9.62502
▁choix	-9.62539
▁official	-9.62546
▁représentants	-9.62556
▁réseau	-9.62579
▁drug	-9.6263
Q	-9.62719
▁29	-9.62751
▁biens	-9.6278
▁Division	-9.62822
abord	-9.62858
▁accordance	-9.62887
▁con	-9.629
ici	-9.62992
▁reporting	-9.6307
▁LA	-9.63193
▁authority	-9.63314
▁China	-9.63328
▁create	-9.63434
▁centres	-9.63487
▁comprendre	-9.63533
▁until	-9.63557
▁député	-9.63617
▁Alberta	-9.63696
▁short	-9.63733
▁return	-9.63816
▁résolution	-9.63841
▁humaines	-9.63875
▁médicaments	-9.64023
▁nationales	-9.64063
▁minimum	-9.64064
▁commitment	-9.6407
el	-9.6407
▁regulations	-9.64084
▁practice	-9.6409
and	-9.64137
▁accès	-9.64168
▁status	-9.64192
▁Manitoba	-9.64332
▁faible	-9.64473
ine	-9.64499
▁méthodes	-9.64508
▁étude	-9.64583
▁competition	-9.64625
▁aid	-9.64635
▁Total	-9.64642
▁towards	-9.64646
▁vise	-9.64681
▁early	-9.64741
▁commune	-9.64771
▁students	-9.64953
▁resolution	-9.64968
ité	-9.64988
▁conclusion	-9.65029
▁2.	-9.6507
▁others	-9.6511
▁Description	-9.65203
▁durant	-9.65258
▁price	-9.65323
ner	-9.65362
▁planification	-9.65378
▁limited	-9.65403
▁quand	-9.6543
▁i	-9.65536
▁achieve	-9.65637
ary	-9.65647
▁provision	-9.65697
▁ensemble	-9.65777
▁relativement	-9.65851
Agence	-9.65933
▁agreed	-9.65933
▁pro	-9.65939
",	-9.66045
▁clearly	-9.66131
▁avril	-9.66192
▁North	-9.66196
▁operations	-9.66226
▁taxes	-9.66302
▁October	-9.66387
▁itself	-9.66416
▁essential	-9.66542
▁(1)	-9.6667
▁quelque	-9.66721
▁HIV	-9.66847
intention	-9.66883
ated	-9.66886
▁agents	-9.66906
▁vos	-9.6693
▁chose	-9.66963
▁modification	-9.67013
▁famille	-9.67023
▁internationales	-9.6704
id	-9.67055
▁négociations	-9.67056
▁priorities	-9.6716
▁opérations	-9.67202
▁permanent	-9.67229
▁presented	-9.67248
▁criteria	-9.6726
▁responsable	-9.67353
▁regions	-9.67403
DE	-9.67445
▁code	-9.67748
▁collectivités	-9.6776
▁dis	-9.67772
▁interests	-9.67776
▁maladies	-9.67823
▁majorité	-9.67917
▁supply	-9.68083
▁principles	-9.68132
▁déclaré	-9.6814
▁heures	-9.6819
▁publics	-9.68248
▁prévoit	-9.68285
▁Party	-9.68371
ia	-9.68393
ter	-9.68444
▁strategic	-9.68456
▁complete	-9.68536
▁suivantes	-9.6858
▁look	-9.68589
▁durée	-9.68602
w	-9.68646
▁consommation	-9.68662
ry	-9.68721
▁vision	-9.68951
▁Saskatchewan	-9.68969
avis	-9.69095
▁media	-9.6912
▁électronique	-9.69181
▁informations	-9.69181
échelle	-9.69205
▁party	-9.69229
▁overall	-9.69236
▁So	-9.69264
▁propre	-9.69274
▁lack	-9.69299
▁aurait	-9.69379
▁receive	-9.69394
▁entreprise	-9.69468
▁internal	-9.69511
▁always	-9.69553
▁majority	-9.69622
▁égard	-9.69741
▁reference	-9.69774
▁maximum	-9.698
▁crédit	-9.69883
▁participer	-9.69913
▁outside	-9.69952
▁states	-9.7
▁aura	-9.70155
ement	-9.70156
▁parents	-9.70195
▁directement	-9.70206
▁natural	-9.70284
▁conclusions	-9.70285
▁1997	-9.703
▁financier	-9.7048
▁jamais	-9.70489
▁hand	-9.70554
▁Et	-9.70603
▁institution	-9.70607
▁simple	-9.7062
É	-9.70687
▁November	-9.70721
état	-9.70816
voir	-9.70822
▁leadership	-9.70846
Ontario	-9.70847
▁agree	-9.70874
▁sustainable	-9.70876
▁telles	-9.71026
▁financières	-9.7108
▁communautés	-9.71083
▁Part	-9.71109
▁écrit	-9.71262
▁understand	-9.71305
▁standard	-9.71336
▁aide	-9.71342
▁ait	-9.71359
▁below	-9.7151
▁protéger	-9.71512
▁stratégique	-9.71577
ist	-9.71578
▁Members	-9.71615
▁effort	-9.71668
ating	-9.71669
▁seul	-9.71747
▁principle	-9.71751
▁values	-9.71837
▁liées	-9.71854
,"	-9.72043
▁langues	-9.72044
▁referred	-9.72056
▁bureau	-9.72156
▁État	-9.72156
▁serious	-9.72244
▁administration	-9.72391
▁discrimination	-9.72506
me	-9.72571
▁novembre	-9.72614
▁revenus	-9.72832
▁UN	-9.72928
▁building	-9.73034
Office	-9.73035
▁act	-9.73179
ies	-9.73192
▁difficile	-9.73198
▁utiliser	-9.73249
rait	-9.7325
▁call	-9.73364
▁commun	-9.73435
▁deal	-9.73462
▁crise	-9.73467
▁persons	-9.73483
▁conservation	-9.73571
▁self	-9.73597
▁protect	-9.73624
▁représente	-9.73637
▁Or	-9.73646
▁objectif	-9.73653
▁fully	-9.73661
▁environ	-9.73693
▁challenges	-9.73697
▁disease	-9.73698
▁once	-9.73746
ED	-9.73758
▁previous	-9.73761
▁domestic	-9.73793
▁departments	-9.73794
▁content	-9.73804
▁importants	-9.73811
▁CIHR	-9.73831
▁juridique	-9.73844
▁reason	-9.7395
▁méthode	-9.73955
▁men	-9.73971
▁subsection	-9.73975
um	-9.73979
▁Environment	-9.74014
▁lignes	-9.74065
▁job	-9.7421
▁school	-9.74475
▁medical	-9.74521
▁demand	-9.74529
auteur	-9.74597
▁intervenants	-9.74652
▁markets	-9.74652
▁child	-9.74679
▁vente	-9.74723
▁procedure	-9.74851
▁monitoring	-9.74899
▁indiqué	-9.74912
▁matériel	-9.74934
▁Chine	-9.74975
▁porte	-9.75011
▁propose	-9.75031
▁infrastructure	-9.75115
am	-9.75237
IC	-9.75266
▁reform	-9.75305
▁tiers	-9.75322
▁land	-9.75333
▁DES	-9.75411
annexe	-9.75542
▁directly	-9.75566
▁labour	-9.75591
▁encourage	-9.7565
▁longer	-9.7576
▁privé	-9.75825
▁ask	-9.76044
▁hommes	-9.76081
▁conseil	-9.76166
▁radio	-9.7619
▁identify	-9.76384
▁promouvoir	-9.76503
▁É	-9.76504
▁X	-9.76578
▁parmi	-9.76598
▁draft	-9.76623
▁things	-9.76666
▁utilisé	-9.76679
▁Number	-9.76772
▁seule	-9.76836
▁approved	-9.7684
▁asked	-9.76955
EN	-9.76981
▁Fund	-9.77024
▁possibilités	-9.77033
ex	-9.77127
objectif	-9.77224
▁propres	-9.77282
▁crisis	-9.77301
▁increasing	-9.77302
▁comprend	-9.77306
▁européens	-9.77383
▁Project	-9.774
▁recours	-9.77417
▁trait	-9.77464
▁multi	-9.77601
▁transfer	-9.77682
▁American	-9.77726
▁off	-9.77739
▁material	-9.77772
▁maladie	-9.77944
▁July	-9.77964
▁start	-9.78023
▁mes	-9.78026
▁donne	-9.78051
▁grandes	-9.7807
▁success	-9.78131
▁file	-9.78256
▁suivant	-9.78272
▁1996	-9.78372
▁science	-9.78518
▁définition	-9.78592
▁moyenne	-9.78602
▁supplémentaires	-9.78609
▁Rights	-9.7861
▁octobre	-9.78675
▁understanding	-9.78692
▁portant	-9.78698
▁credit	-9.78699
▁proportion	-9.78721
▁balance	-9.78855
▁Fonds	-9.78862
▁conducted	-9.78871
ul	-9.78955
▁pré	-9.78967
▁dès	-9.79119
▁Directive	-9.79222
▁pouvons	-9.79267
▁35	-9.7929
▁diverses	-9.79295
exploitation	-9.79376
▁net	-9.79382
▁rural	-9.79411
ront	-9.79424
▁establish	-9.79458
▁table	-9.79581
AC	-9.79621
▁permettant	-9.79625
▁priorité	-9.79744
▁(2)	-9.79809
▁succès	-9.79839
▁Bill	-9.79863
▁communautaires	-9.7996
▁Groupe	-9.79992
▁called	-9.80028
);	-9.80084
▁lois	-9.80097
▁offre	-9.80104
exécution	-9.8013
▁garantir	-9.80151
▁présenté	-9.8018
▁Although	-9.80274
▁yet	-9.80329
▁indicated	-9.8034
▁IRSC	-9.80473
X	-9.80491
▁Federal	-9.80539
organisation	-9.80594
▁délai	-9.80594
▁adopté	-9.80611
▁little	-9.80732
▁Justice	-9.80771
▁wish	-9.80774
▁Non	-9.80804
▁civil	-9.80805
▁Ã	-9.80814
▁Columbia	-9.80829
▁2004,	-9.80846
innovation	-9.8087
▁meilleure	-9.80891
▁prestation	-9.809
▁h	-9.80913
▁Business	-9.80926
▁établi	-9.8093
▁client	-9.81045
▁partnership	-9.81149
▁prévention	-9.81164
if	-9.8117
▁military	-9.81219
▁bring	-9.81247
▁rapidement	-9.81289
▁recherches	-9.81299
ol	-9.81346
▁collègues	-9.81405
▁industries	-9.81439
▁relating	-9.81452
▁lower	-9.81453
▁themselves	-9.81554
▁By	-9.81572
▁guide	-9.81615
▁évaluation	-9.81633
vous	-9.81638
▁former	-9.81689
▁concept	-9.8176
▁proposé	-9.81793
▁série	-9.81813
▁instrument	-9.81858
▁prior	-9.81887
par	-9.81967
investissement	-9.8207
▁known	-9.82085
▁juillet	-9.82214
▁throughout	-9.82287
▁scientifiques	-9.82295
▁joint	-9.82319
▁options	-9.82431
▁responsables	-9.82433
▁juste	-9.82446
air	-9.82467
line	-9.82553
▁2003,	-9.82558
▁negotiations	-9.8257
▁remain	-9.82711
▁regulation	-9.82814
▁applied	-9.82829
▁him	-9.82862
▁travailler	-9.82892
▁stated	-9.82959
▁raisons	-9.82961
▁utilisés	-9.8297
même	-9.82974
▁disponibles	-9.82989
▁situations	-9.83003
▁Since	-9.83067
enquête	-9.8315
▁faisant	-9.83159
▁events	-9.83216
▁Colombie	-9.83236
▁percent	-9.83247
▁submitted	-9.83249
▁words	-9.83368
▁something	-9.83517
occasion	-9.83543
▁rien	-9.8358
▁taxe	-9.8362
▁Air	-9.83691
▁payment	-9.83711
eur	-9.83751
aire	-9.83774
▁regulatory	-9.83818
▁prevent	-9.84
▁;	-9.84193
▁processes	-9.84197
▁youth	-9.84286
▁basic	-9.84286
▁paiement	-9.8431
▁designed	-9.84321
▁trouve	-9.84328
▁delivery	-9.84334
▁patient	-9.84367
▁message	-9.84404
▁supported	-9.84421
▁examen	-9.84425
▁texte	-9.84451
▁ET	-9.84473
▁propos	-9.84478
▁completed	-9.8449
▁crois	-9.84493
▁responsabilités	-9.84497
▁requires	-9.84529
▁February	-9.84586
ier	-9.8459
▁publiques	-9.84627
▁minister	-9.84648
▁consideration	-9.84691
▁reduction	-9.84751
▁VIH	-9.84832
▁Lorsque	-9.84852
▁exchange	-9.84997
▁generally	-9.85102
▁audit	-9.8511
▁Y	-9.85111
▁Sa	-9.85112
▁department	-9.85152
améliorer	-9.85192
▁How	-9.85223
▁analyse	-9.85305
▁réforme	-9.85347
▁extent	-9.85491
▁volume	-9.85529
▁chef	-9.85632
year	-9.85651
▁passé	-9.8568
see	-9.85703
ique	-9.85708
▁février	-9.8571
▁fonctionnement	-9.8578
The	-9.85796
▁fédérale	-9.85816
▁Economic	-9.85892
▁debt	-9.8591
▁Food	-9.85952
▁bio	-9.85988
▁stakeholders	-9.8601
▁numéro	-9.86044
▁prestations	-9.86052
amélioration	-9.86068
▁reasons	-9.86097
▁America	-9.86105
▁claim	-9.86107
▁moi	-9.86188
que	-9.86296
▁design	-9.86305
▁importantes	-9.86355
▁carried	-9.86358
▁show	-9.86393
▁created	-9.86422
▁émissions	-9.86449
▁Rapport	-9.86485
▁species	-9.86514
▁survey	-9.86559
▁contenu	-9.86588
▁patent	-9.86687
Britannique	-9.86701
▁expressed	-9.86732
▁transfert	-9.86739
▁transition	-9.8683
▁Tax	-9.86906
ants	-9.8694
ism	-9.87087
▁follow	-9.87149
▁3.	-9.87238
▁réserve	-9.87262
applique	-9.87264
▁Industry	-9.87521
▁intervention	-9.87544
▁gaz	-9.87583
▁brevets	-9.87666
▁event	-9.87671
▁généralement	-9.87676
▁chacun	-9.87761
▁accords	-9.87813
▁contribute	-9.87891
entre	-9.8793
▁petites	-9.87996
▁guidelines	-9.88024
▁soutenir	-9.88047
▁parti	-9.88069
▁perspective	-9.88108
▁établir	-9.8817
▁prepared	-9.88301
▁guerre	-9.88323
▁90	-9.88392
▁médias	-9.88467
▁description	-9.88469
30	-9.88591
▁présence	-9.88644
▁libre	-9.88653
▁cependant	-9.88655
▁fundamental	-9.88952
▁living	-9.8896
▁amendment	-9.88968
▁mandate	-9.89201
com	-9.89263
▁sectors	-9.89324
▁seen	-9.89366
▁liberté	-9.89462
10	-9.89522
▁step	-9.89628
▁Social	-9.89643
ton	-9.89709
adoption	-9.89727
▁2005,	-9.89748
▁dossier	-9.89821
▁organisation	-9.89844
▁internationaux	-9.8988
▁intended	-9.89905
▁état	-9.89916
▁suit	-9.8993
▁Tout	-9.89935
▁professionnels	-9.89981
ness	-9.90016
▁published	-9.90049
▁travel	-9.90175
▁appel	-9.90183
ized	-9.90209
▁times	-9.90287
▁offer	-9.90362
▁according	-9.90436
50	-9.90514
▁puisse	-9.90766
▁commissaire	-9.90813
):	-9.90955
▁o	-9.90968
▁influence	-9.90987
▁statement	-9.91
▁ability	-9.91098
appui	-9.91216
▁Resources	-9.91241
▁Our	-9.91279
▁creation	-9.91335
▁paix	-9.91439
▁convient	-9.91459
▁Banque	-9.91513
▁provenant	-9.91521
▁Mrs	-9.91603
▁light	-9.91693
▁experts	-9.91705
▁partenariat	-9.91721
▁English	-9.91725
▁payments	-9.91776
▁doing	-9.91821
▁limit	-9.91832
▁2000,	-9.91926
▁conduct	-9.91927
▁record	-9.91933
os	-9.91937
se	-9.91943
▁directrices	-9.92017
▁semaine	-9.92194
▁fish	-9.92208
▁substance	-9.92209
argent	-9.92258
▁AND	-9.92258
dire	-9.92263
ES	-9.92278
▁Conference	-9.92287
▁producteurs	-9.92306
▁favour	-9.92309
▁offices	-9.92428
ous	-9.92513
ty	-9.92528
_	-9.92638
▁sciences	-9.92651
▁www	-9.92689
▁DU	-9.92706
land	-9.92723
▁professional	-9.9274
▁industrial	-9.92772
▁Review	-9.92804
▁assist	-9.9281
▁500	-9.92872
▁règle	-9.92937
▁tableau	-9.92968
▁investissements	-9.92977
▁Guide	-9.9298
▁export	-9.93032
▁although	-9.93098
▁representatives	-9.93166
▁electronic	-9.93179
▁genre	-9.93239
▁mal	-9.93258
▁week	-9.93278
vis	-9.93282
▁initial	-9.9329
▁Under	-9.93303
▁consiste	-9.93347
▁Africa	-9.93394
▁consensus	-9.93446
▁jobs	-9.93478
▁2002,	-9.93538
▁étudiants	-9.9357
▁représentant	-9.93595
▁comments	-9.93626
▁innovation	-9.9363
▁CO	-9.937
▁implement	-9.93733
▁play	-9.93789
▁grands	-9.93822
alinéa	-9.93835
▁80	-9.93837
▁prices	-9.93925
intégration	-9.93933
▁really	-9.9395
▁defined	-9.94006
▁tard	-9.94011
▁français	-9.94054
▁fonctions	-9.94174
enseignement	-9.94182
▁concentrations	-9.94306
▁applicant	-9.94331
▁John	-9.9441
▁veut	-9.94424
▁ensuite	-9.94431
▁relationship	-9.94456
▁essentiel	-9.94533
▁chapitre	-9.94564
▁III	-9.94575
▁formulaire	-9.94589
▁paper	-9.94666
▁2001,	-9.94726
▁ways	-9.94738
▁stratégies	-9.94858
▁thank	-9.9493
▁close	-9.94932
▁conseils	-9.94935
▁présentation	-9.94944
▁hours	-9.94965
▁circumstances	-9.95004
▁eligible	-9.95019
enregistrement	-9.95042
▁war	-9.95094
▁primary	-9.95095
▁Al	-9.95105
▁compliance	-9.9515
▁team	-9.95158
▁described	-9.95172
▁confiance	-9.95246
▁researchers	-9.95281
▁classification	-9.95281
▁agricole	-9.95302
▁climate	-9.95354
▁scientific	-9.95399
20	-9.95413
▁documentation	-9.95469
gc	-9.95472
▁résultat	-9.95486
▁zones	-9.95519
▁later	-9.95531
▁crime	-9.95551
ization	-9.95553
▁issued	-9.95581
▁prévu	-9.95627
▁transmission	-9.9565
▁micro	-9.95736
▁territoire	-9.95835
▁Do	-9.95882
initiative	-9.95953
ure	-9.96013
▁collective	-9.9604
▁strategies	-9.96126
out	-9.9628
▁vu	-9.96303
RE	-9.96458
▁matters	-9.965
▁convention	-9.96542
▁move	-9.96577
▁body	-9.96582
ge	-9.96597
▁took	-9.96601
▁Protection	-9.96607
▁établissements	-9.96656
▁1990	-9.96662
40	-9.96664
▁implemented	-9.96664
▁accept	-9.96687
▁relatifs	-9.96714
▁traditional	-9.96727
▁manque	-9.96803
eurs	-9.96812
expérience	-9.96889
▁concentration	-9.97094
▁2004.	-9.97151
▁centrale	-9.97159
▁candidats	-9.97163
▁reflect	-9.97216
ling	-9.97299
▁uniquement	-9.97304
▁consistent	-9.97352
▁businesses	-9.97414
▁45	-9.97494
▁keep	-9.97502
▁200	-9.97567
▁determined	-9.97594
▁consumer	-9.97652
▁lesquels	-9.97702
▁constituent	-9.97751
▁clés	-9.97756
rs	-9.97773
qui	-9.97824
▁along	-9.97836
▁leave	-9.97863
▁scientifique	-9.97875
▁Commissaire	-9.97877
ac	-9.97877
di	-9.98092
▁agricultural	-9.98163
exportation	-9.98211
▁2006,	-9.98215
▁stage	-9.98283
▁maintain	-9.98323
▁positions	-9.98366
▁risks	-9.98367
ch	-9.98379
▁sport	-9.98384
▁network	-9.98427
▁materials	-9.9844
▁choses	-9.98444
▁resource	-9.98695
▁agenda	-9.98707
▁Sur	-9.98735
▁consumers	-9.98809
▁espèces	-9.98846
▁Prime	-9.99016
▁methods	-9.99031
▁exposure	-9.99107
égalité	-9.99137
▁tools	-9.99158
établir	-9.99172
▁continued	-9.99215
▁Vancouver	-9.99348
▁Q	-9.99367
▁definition	-9.99392
▁augmentation	-9.9942
▁history	-9.99573
▁1995	-9.99598
▁règlements	-9.99606
▁simply	-9.99613
heure	-9.99644
équipe	-9.99703
▁build	-9.99748
▁défis	-9.99757
▁Depuis	-9.99797
▁observations	-9.99867
▁défense	-10.0004
▁pouvez	-10.0012
▁personnels	-10.0012
▁acceptable	-10.0016
ting	-10.0018
▁simplement	-10.002
▁démocratie	-10.0026
ve	-10.0026
▁haut	-10.0031
▁conséquences	-10.0036
▁forms	-10.0036
▁skills	-10.0039
▁Organization	-10.0039
du	-10.0042
▁Madam	-10.0052
▁structures	-10.0056
âge	-10.0058
▁Branch	-10.0059
▁mg	-10.0064
▁paiements	-10.0069
▁servir	-10.0078
▁successful	-10.008
▁2005.	-10.0081
▁facilities	-10.0084
▁measure	-10.0085
▁professionnelle	-10.0085
▁subventions	-10.009
im	-10.0092
▁doute	-10.0105
▁manner	-10.0106
responsibilities	-10.0112
▁kind	-10.0112
▁régional	-10.0112
▁normal	-10.0114
▁engagement	-10.0122
na	-10.0126
▁registration	-10.0134
▁critical	-10.0134
▁catégorie	-10.0138
▁directives	-10.0148
▁Financial	-10.0162
▁Ainsi	-10.0162
▁enough	-10.0176
▁families	-10.0181
▁mondial	-10.0184
▁whose	-10.0186
▁achieved	-10.0189
▁comptes	-10.0195
▁permettra	-10.0199
▁figure	-10.0209
▁commentaires	-10.0212
étranger	-10.0216
▁annuel	-10.0221
▁quelle	-10.0229
▁affected	-10.024
▁lesquelles	-10.0246
▁Regional	-10.0252
▁equal	-10.0257
▁Where	-10.0259
▁meetings	-10.026
▁2003.	-10.0265
▁amendements	-10.0269
▁liens	-10.0273
...	-10.0279
▁Regulation	-10.0279
▁operation	-10.0287
▁Enfin	-10.0292
▁original	-10.0299
▁troisième	-10.0303
▁Après	-10.031
▁South	-10.0311
▁parler	-10.0315
ns	-10.0315
▁approval	-10.0324
▁mentioned	-10.0326
▁text	-10.0344
ro	-10.0348
▁tests	-10.0352
▁Contact	-10.0354
▁election	-10.0354
▁oil	-10.0358
▁reduced	-10.0364
▁respecter	-10.0372
▁officielles	-10.0374
▁aware	-10.0374
▁faciliter	-10.0375
▁comprehensive	-10.0377
▁recently	-10.0383
▁Secretariat	-10.0384
▁hausse	-10.0388
▁réseaux	-10.0406
time	-10.0407
▁thus	-10.041
▁Action	-10.0412
▁cycle	-10.0414
▁pollution	-10.0415
urgence	-10.042
▁size	-10.0421
CC	-10.0421
▁70	-10.0435
▁ministres	-10.0435
▁caractéristique	-10.0436
▁independent	-10.0439
▁dix	-10.044
▁System	-10.044
▁ago	-10.0442
▁elements	-10.0447
entrée	-10.0451
▁half	-10.0455
▁Contract	-10.0461
▁quite	-10.0462
▁live	-10.0465
dessus	-10.0468
ti	-10.0473
▁statut	-10.0484
25	-10.0488
▁$1	-10.0494
▁organisme	-10.0499
▁contract	-10.0505
▁mention	-10.0523
▁provinciaux	-10.0529
▁profit	-10.053
▁trust	-10.0544
▁shown	-10.0545
▁entendu	-10.0548
▁Forces	-10.0549
ise	-10.0549
▁committed	-10.0557
▁scope	-10.0562
▁produire	-10.0564
▁particuliers	-10.0567
▁évaluer	-10.0568
▁signifie	-10.0572
▁familles	-10.0574
Assemblée	-10.0575
▁external	-10.0591
▁fédéraux	-10.0597
▁produced	-10.0601
▁discussed	-10.0618
▁Environmental	-10.0629
obtenir	-10.0633
▁transactions	-10.0639
related	-10.0641
▁added	-10.0646
▁makes	-10.0649
▁Document	-10.065
▁Russie	-10.0657
▁commerciales	-10.0659
▁33	-10.0674
▁commerciaux	-10.0689
ré	-10.0693
▁associations	-10.0696
▁puis	-10.0706
▁board	-10.0708
▁ensuring	-10.071
qu	-10.0711
Organisation	-10.0713
intervention	-10.0717
▁principalement	-10.0719
▁alimentaire	-10.0728
▁participate	-10.0732
▁users	-10.0737
▁mécanismes	-10.0739
▁Force	-10.0739
▁récemment	-10.0746
▁tabac	-10.0748
▁stratégiques	-10.0748
▁never	-10.0755
▁affect	-10.0758
▁gas	-10.0758
▁actuel	-10.0761
▁compter	-10.0762
▁compared	-10.0763
▁improved	-10.0771
▁lot	-10.0776
▁sent	-10.0776
▁almost	-10.0778
▁favoriser	-10.0779
▁atteindre	-10.0779
▁1999,	-10.078
▁requirement	-10.078
▁GST	-10.0783
▁facilitate	-10.0785
▁freedom	-10.0786
▁préparation	-10.0792
▁conférence	-10.0795
▁dossiers	-10.0802
▁excellent	-10.0803
▁Même	-10.0807
IT	-10.081
▁Tous	-10.0813
▁payer	-10.0815
▁suivante	-10.082
ATION	-10.0829
▁maintenir	-10.0837
▁insurance	-10.0845
15	-10.0854
▁intellectual	-10.0854
▁mer	-10.0856
iv	-10.0858
▁2006.	-10.0867
no	-10.0871
▁continuer	-10.0871
▁postes	-10.0874
▁révision	-10.0876
▁rule	-10.0876
▁conformité	-10.0878
▁locaux	-10.0882
▁seraient	-10.0893
▁raised	-10.0896
▁Security	-10.0898
▁veiller	-10.0899
▁présidence	-10.0903
▁fund	-10.091
▁prevention	-10.0926
▁opposition	-10.093
ING	-10.0933
▁Assembly	-10.0934
affaires	-10.094
▁marque	-10.094
▁sales	-10.0942
▁portée	-10.0942
▁1994	-10.0953
▁train	-10.0955
▁dépôt	-10.0957
▁fair	-10.0957
▁quel	-10.0964
▁représentent	-10.0966
▁militaire	-10.0967
▁integration	-10.0968
▁establishment	-10.0969
▁Atlantic	-10.0972
▁installations	-10.0979
agriculture	-10.0996
end	-10.1005
▁cross	-10.1005
▁She	-10.1005
▁capacités	-10.1006
▁interventions	-10.1007
▁Strategy	-10.1007
art	-10.1008
▁prévues	-10.101
▁emissions	-10.1012
▁élections	-10.1027
▁connaissance	-10.1029
j	-10.1031
▁examine	-10.1032
▁nation	-10.1038
▁partage	-10.1044
exposition	-10.1044
▁option	-10.1054
▁Many	-10.1054
▁suivre	-10.106
▁forte	-10.1067
▁restrictions	-10.1069
▁ongoing	-10.1072
▁contribuer	-10.1086
do	-10.1087
▁victimes	-10.1088
ler	-10.1088
▁v	-10.1091
▁stocks	-10.1093
▁vraiment	-10.1094
▁2002.	-10.1097
▁matières	-10.1097
échange	-10.1098
for	-10.1099
▁agricoles	-10.1099
▁collection	-10.1107
▁addressed	-10.111
té	-10.112
▁alternative	-10.1123
organisme	-10.1124
▁answer	-10.1129
▁Sud	-10.1134
▁fall	-10.1135
▁ten	-10.1136
▁representative	-10.1143
▁surface	-10.1145
▁Communauté	-10.1151
▁--	-10.1158
Ouest	-10.1161
▁feel	-10.1168
▁legislative	-10.117
▁learning	-10.1173
▁peace	-10.1184
▁advice	-10.1192
▁mean	-10.1193
▁principales	-10.1195
▁minutes	-10.1199
▁gentlemen	-10.1205
▁eaux	-10.1205
▁awareness	-10.1211
▁IN	-10.1213
▁4.	-10.1216
▁Montréal	-10.1216
▁communiquer	-10.1216
▁permettent	-10.1218
▁conflict	-10.1226
▁remains	-10.1226
▁civile	-10.1226
ak	-10.1226
▁préoccupations	-10.1235
▁stabilité	-10.1236
iser	-10.1239
▁drugs	-10.1243
▁Finally	-10.1249
▁prêts	-10.125
one	-10.1252
▁Constitution	-10.1255
▁challenge	-10.1255
▁32	-10.1278
▁amounts	-10.1279
▁lien	-10.1283
▁method	-10.1286
▁modèles	-10.1288
▁Therefore	-10.129
▁supporting	-10.1293
▁democracy	-10.1297
Institut	-10.1299
▁integrated	-10.1306
▁Budget	-10.1311
absence	-10.1323
▁expenses	-10.1326
pprovisionnement	-10.1329
▁caractère	-10.1333
ais	-10.1335
nous	-10.1336
▁pied	-10.1342
▁sense	-10.1343
▁examiner	-10.1345
▁réalisation	-10.1345
▁rapide	-10.1349
▁though	-10.1351
▁Cet	-10.1356
▁réponses	-10.1362
▁limite	-10.1368
▁Secrétariat	-10.1369
engagement	-10.1371
▁written	-10.1371
ts	-10.1372
ian	-10.1372
▁rémunération	-10.1378
▁communes	-10.1379
▁autant	-10.1379
▁growing	-10.1389
21	-10.139
▁européennes	-10.1391
▁expertise	-10.1398
▁Premières	-10.1399
▁enter	-10.1402
▁Of	-10.1407
▁registered	-10.1407
▁side	-10.1411
05	-10.1415
▁taille	-10.142
▁actually	-10.1424
▁format	-10.1425
▁applies	-10.1427
▁stress	-10.1429
▁sociales	-10.1433
▁arrangements	-10.1435
▁réunions	-10.1435
▁activité	-10.1437
▁emploi	-10.1438
19	-10.1448
▁animaux	-10.1448
▁operating	-10.1452
apprentissage	-10.1475
▁élément	-10.1477
▁derniers	-10.1478
02	-10.148
▁physical	-10.1483
ap	-10.1489
▁banques	-10.1489
-1	-10.1491
▁My	-10.1501
▁transformation	-10.1505
▁After	-10.1509
▁Republic	-10.152
▁Certains	-10.1521
▁brought	-10.1521
▁modifier	-10.1524
▁earlier	-10.1527
01	-10.1528
▁entitled	-10.1529
ite	-10.1532
évolution	-10.1533
▁IP	-10.1533
▁puissent	-10.1533
▁parts	-10.1542
▁passer	-10.1544
▁publications	-10.1549
▁mêmes	-10.1549
▁réaliser	-10.1553
▁efficaces	-10.1572
▁satisfaction	-10.1577
▁Working	-10.1578
▁semaines	-10.1581
▁goals	-10.1595
ted	-10.1598
▁During	-10.1599
▁diversité	-10.1606
▁collectivité	-10.1609
▁democratic	-10.1614
▁développer	-10.1615
▁differences	-10.1616
▁enable	-10.1619
▁goal	-10.1624
▁00	-10.1629
▁conclu	-10.1634
▁34	-10.1635
▁Comment	-10.1636
▁Nouvelle	-10.1639
▁double	-10.164
▁Russia	-10.164
▁réalité	-10.1645
▁assess	-10.1646
▁leaders	-10.1657
▁Etats	-10.166
▁corporation	-10.166
▁difficultés	-10.1667
▁complex	-10.1672
li	-10.1677
appel	-10.1677
Université	-10.1677
▁utile	-10.1682
▁laws	-10.1691
son	-10.1691
13	-10.1695
▁claims	-10.1695
isme	-10.1696
▁admissibles	-10.17
-01	-10.1703
90	-10.1704
▁assez	-10.1713
▁carry	-10.1713
▁outils	-10.1715
▁left	-10.1729
▁clinical	-10.1738
▁2000.	-10.1738
▁beyond	-10.1742
▁marketing	-10.1745
▁conception	-10.1752
▁broad	-10.1756
▁étrangères	-10.176
▁TPS	-10.1761
▁côté	-10.1761
▁producers	-10.1763
▁operational	-10.1764
▁compensation	-10.1767
▁loss	-10.1769
▁intérieur	-10.1771
lo	-10.1772
▁pauvreté	-10.1774
▁strengthen	-10.1775
▁pourra	-10.1792
▁effectively	-10.1792
▁budgétaire	-10.1795
12	-10.1796
▁relatif	-10.1797
▁estimated	-10.1797
▁speak	-10.1798
▁man	-10.18
▁improving	-10.1802
Amérique	-10.1804
▁fournisseurs	-10.1808
▁requested	-10.1809
▁respond	-10.1817
▁Annex	-10.1818
▁jouer	-10.1819
ut	-10.1819
▁traiter	-10.182
ma	-10.1823
▁serve	-10.1825
▁Data	-10.1828
▁décidé	-10.1829
▁commerciale	-10.1831
60	-10.1836
▁Law	-10.1845
▁maintien	-10.1848
▁pourcentage	-10.1849
▁Work	-10.185
▁August	-10.1854
▁connaître	-10.1856
▁puisque	-10.1857
▁aim	-10.1858
▁agent	-10.1865
▁mode	-10.1866
▁Mission	-10.1873
ard	-10.1877
11	-10.188
▁spécifiques	-10.1884
▁investigation	-10.1895
▁Women	-10.1895
augmentation	-10.1896
▁Présidente	-10.1901
▁welcome	-10.1903
▁announced	-10.1904
per	-10.1909
ins	-10.191
▁allowed	-10.191
Uni	-10.1911
▁sûr	-10.1919
▁retraite	-10.1919
▁fonctionnaires	-10.1919
▁répercussions	-10.1922
▁fabrication	-10.1924
▁Plus	-10.1927
▁enhance	-10.1935
▁introduced	-10.1938
▁EUR	-10.1938
ta	-10.194
▁West	-10.1956
urs	-10.1959
▁reasonable	-10.1959
▁chance	-10.1964
▁languages	-10.1966
▁agriculture	-10.1983
▁limites	-10.1988
▁fort	-10.1991
▁approximately	-10.1993
▁officials	-10.1996
▁dose	-10.1998
▁duty	-10.2
▁prend	-10.2015
▁compétence	-10.2018
▁impossible	-10.2019
espère	-10.2028
▁aspect	-10.2029
▁venir	-10.2029
▁Numéro	-10.2038
▁transparence	-10.2044
▁suggested	-10.2045
▁é	-10.2051
▁36	-10.2052
▁waste	-10.2053
▁fond	-10.2056
▁rest	-10.2065
▁adoption	-10.2067
▁tandis	-10.2069
▁sujets	-10.2072
▁location	-10.2073
▁utilisateurs	-10.2076
▁recognized	-10.208
▁remboursement	-10.2083
▁Qu	-10.2084
▁death	-10.2092
▁Initiative	-10.2094
▁degree	-10.2103
▁publié	-10.2105
▁...	-10.2107
▁renforcement	-10.2111
▁signed	-10.2113
▁augmenté	-10.2114
▁informed	-10.2116
▁Con	-10.2118
▁dû	-10.2122
▁dette	-10.2125
▁juridiques	-10.2126
▁poverty	-10.2137
▁detailed	-10.2137
▁writing	-10.2139
▁produce	-10.2143
▁decided	-10.2144
▁sélection	-10.2147
▁terres	-10.2148
ize	-10.2149
▁says	-10.215
▁useful	-10.2152
▁obtain	-10.2154
▁Du	-10.2155
▁engagements	-10.2156
▁tenue	-10.216
▁efficient	-10.2161
▁occasion	-10.2168
▁travers	-10.2172
▁poursuivre	-10.2177
▁spécial	-10.2177
-2	-10.2178
▁drogues	-10.2191
▁Technology	-10.2196
▁recommended	-10.2203
▁prévue	-10.2207
▁fishing	-10.2211
▁lettre	-10.2212
▁via	-10.2214
▁Heritage	-10.2214
▁estime	-10.2222
▁souligner	-10.2223
▁covered	-10.2225
▁sufficient	-10.2231
▁haute	-10.2231
▁Corporation	-10.2235
▁campagne	-10.2237
▁souhaite	-10.2247
▁devra	-10.2248
▁tobacco	-10.2257
▁diffusion	-10.226
▁interne	-10.2267
▁unit	-10.227
▁calcul	-10.227
▁comprennent	-10.2273
▁idea	-10.2273
▁Unies	-10.2274
▁incidence	-10.2278
▁works	-10.2278
▁obstacles	-10.2283
▁beginning	-10.2283
0,000	-10.2284
▁obligation	-10.2287
▁2001.	-10.2289
▁specified	-10.2299
▁41	-10.23
$	-10.2305
▁territorial	-10.2306
▁leading	-10.2306
▁humaine	-10.2315
▁represent	-10.2316
▁effectiveness	-10.2319
▁indicate	-10.2321
▁target	-10.2321
▁old	-10.2322
▁Trésor	-10.2324
con	-10.233
▁gains	-10.234
▁contained	-10.2342
▁notes	-10.2343
▁gouvernementale	-10.2343
▁testing	-10.2347
▁trans	-10.235
▁bas	-10.236
▁month	-10.2361
dessous	-10.2365
▁true	-10.2366
▁came	-10.2369
▁steps	-10.237
▁étrangers	-10.2375
▁More	-10.2382
▁contraire	-10.2386
▁Central	-10.2395
▁Ltd	-10.2401
▁turn	-10.2402
▁series	-10.2402
utiliser	-10.241
▁mechanisms	-10.2413
▁Foreign	-10.2426
▁départ	-10.2432
▁supplémentaire	-10.2434
▁impacts	-10.2439
▁search	-10.2461
intérieur	-10.247
▁nord	-10.2471
études	-10.2475
Accord	-10.2481
vi	-10.2483
▁crucial	-10.2485
▁brevet	-10.2488
▁utilisées	-10.2489
use	-10.2494
▁Senate	-10.2498
▁criminal	-10.2501
14	-10.2501
▁wide	-10.2502
▁hard	-10.2504
imposition	-10.2507
▁variety	-10.2508
way	-10.2512
▁separate	-10.2515
▁read	-10.2516
▁amended	-10.2522
making	-10.2524
▁souligné	-10.2526
ence	-10.2528
▁cover	-10.2529
▁item	-10.2535
▁prochaine	-10.2537
▁crédits	-10.254
98	-10.254
▁offrir	-10.2542
▁processing	-10.2544
▁cultures	-10.2545
▁LE	-10.2545
▁République	-10.2565
▁implementing	-10.2566
▁clair	-10.2567
▁enquête	-10.2571
▁assets	-10.2572
▁perspectives	-10.2575
▁highly	-10.2577
▁component	-10.258
▁combat	-10.2582
▁Special	-10.2582
▁From	-10.2594
▁pressure	-10.2597
▁meilleur	-10.2597
▁sure	-10.2598
▁ville	-10.2612
04	-10.2612
70	-10.2614
▁Appendix	-10.2619
▁weeks	-10.2621
▁presque	-10.2625
▁farmers	-10.2625
▁continues	-10.263
-10	-10.2632
▁Administration	-10.2633
ue	-10.2634
▁élevés	-10.2637
mer	-10.264
▁specifically	-10.2641
▁letter	-10.2641
▁démocratique	-10.2643
▁notice	-10.2644
▁pouvoirs	-10.2647
▁37	-10.265
▁indique	-10.2651
▁Safety	-10.2659
▁créé	-10.2662
▁bank	-10.267
▁medium	-10.2671
▁vol	-10.2675
▁enforcement	-10.2677
03	-10.2685
▁follows	-10.2691
▁privée	-10.2691
▁partner	-10.2695
be	-10.2697
▁locales	-10.2697
▁humains	-10.2698
▁reach	-10.2703
▁regular	-10.2709
▁accepted	-10.2715
▁financing	-10.2718
80	-10.272
▁Education	-10.2725
▁tendance	-10.2728
▁exportations	-10.2733
▁visit	-10.2738
▁1998,	-10.2738
▁remercier	-10.2738
.1	-10.2747
▁conséquence	-10.2748
▁Control	-10.2752
▁missions	-10.2752
▁route	-10.2756
▁shared	-10.2772
▁exercise	-10.2772
▁comes	-10.2772
adhésion	-10.2772
▁sections	-10.2772
▁Agriculture	-10.2774
▁coming	-10.2778
▁outcomes	-10.2781
▁Support	-10.2784
▁Pro	-10.2788
▁payable	-10.2789
▁partenariats	-10.279
em	-10.2796
▁atteint	-10.2802
16	-10.2805
▁soumis	-10.2809
▁importe	-10.2809
▁function	-10.2812
▁principale	-10.2812
▁circonstances	-10.2813
▁Ré	-10.2815
▁Framework	-10.2819
▁shows	-10.2823
▁mises	-10.2827
▁Can	-10.2829
▁thing	-10.2836
ig	-10.2839
effet	-10.284
▁obtenu	-10.284
▁contient	-10.2843
▁consulter	-10.2846
▁monétaire	-10.2858
▁competitive	-10.2863
▁envers	-10.2865
▁pose	-10.2866
▁voulons	-10.2866
▁circulation	-10.287
TM	-10.2876
extérieur	-10.2877
▁exige	-10.2878
▁militaires	-10.2882
op	-10.2885
▁volonté	-10.2885
▁baisse	-10.2888
.3	-10.2888
▁records	-10.2888
approche	-10.2899
▁44	-10.2901
▁adopt	-10.2906
▁soon	-10.2908
▁détail	-10.2912
▁Honourable	-10.2915
▁art	-10.292
▁vaste	-10.2921
▁Royaume	-10.2921
▁submit	-10.2923
▁utilisée	-10.2925
▁Treasury	-10.2927
▁Amendment	-10.2929
▁spending	-10.2929
▁répondants	-10.2935
▁causes	-10.294
ER	-10.2945
▁mécanisme	-10.2951
▁ladies	-10.2954
▁avoid	-10.2954
▁discuss	-10.2954
▁exist	-10.2959
US	-10.2959
▁procéder	-10.296
▁fournit	-10.296
ial	-10.2962
▁dispose	-10.2963
▁Elles	-10.2965
▁Statistics	-10.2978
▁quantité	-10.2984
▁passe	-10.2986
▁followed	-10.2991
▁gain	-10.2996
OMC	-10.2997
▁territoires	-10.2999
▁fight	-10.3
▁susceptibles	-10.3
▁East	-10.3002
expression	-10.3003
▁formal	-10.3011
▁parfois	-10.3013
▁leader	-10.3016
▁Journal	-10.3016
▁Name	-10.302
▁Products	-10.3021
▁disponible	-10.3021
IP	-10.3024
▁statistiques	-10.3026
▁recevoir	-10.3039
▁Parties	-10.3041
▁suffisamment	-10.3041
▁Evaluation	-10.3048
▁faite	-10.305
-02	-10.3054
▁dimension	-10.3062
▁perte	-10.3068
▁granted	-10.307
▁duties	-10.3072
▁Ne	-10.3073
▁rise	-10.3073
accent	-10.3077
17	-10.3077
(1)	-10.3081
▁(3)	-10.3082
▁obtained	-10.3084
▁stock	-10.3086
▁Ma	-10.3087
▁Finance	-10.309
adresse	-10.3093
▁Fisheries	-10.3094
▁clause	-10.3098
▁régionaux	-10.31
▁actual	-10.3101
▁task	-10.3103
▁origin	-10.3107
▁Most	-10.3108
▁Scotia	-10.3109
▁considération	-10.3122
▁virus	-10.3125
▁véhicules	-10.3128
▁certainly	-10.313
▁traditionnels	-10.313
▁Officer	-10.3134
▁transports	-10.3137
▁Not	-10.3141
▁regime	-10.3141
▁catégories	-10.3141
▁Official	-10.3142
▁reconnaissance	-10.3145
▁événements	-10.3147
AL	-10.315
▁associés	-10.3152
▁%)	-10.3154
▁devenir	-10.3154
ri	-10.3155
▁complète	-10.3155
▁exercice	-10.3157
▁factor	-10.3159
▁traités	-10.316
▁establishing	-10.3161
▁connexes	-10.3165
▁parlementaire	-10.3165
▁1)	-10.3166
▁hon	-10.3166
▁Notre	-10.3179
▁accessible	-10.3193
▁montre	-10.3194
▁tient	-10.3198
ors	-10.3198
AIDS	-10.3202
▁Société	-10.3202
▁efficiency	-10.3217
▁fees	-10.3218
▁probablement	-10.3218
▁release	-10.3218
▁seems	-10.3221
▁stability	-10.3221
▁EN	-10.3224
▁particulière	-10.3224
mo	-10.3229
▁globale	-10.323
▁différences	-10.3232
▁potentiel	-10.3233
18	-10.3236
▁Property	-10.3239
▁participant	-10.324
▁intérêt	-10.324
▁taxation	-10.3241
▁conference	-10.3244
▁utilisation	-10.3247
▁top	-10.3255
attention	-10.3256
▁1997,	-10.3261
▁corporate	-10.3262
▁loin	-10.3265
▁Nova	-10.3271
▁People	-10.3273
▁Partie	-10.3277
22	-10.3284
▁certaine	-10.3293
▁firms	-10.3294
▁générales	-10.3301
▁38	-10.3307
▁longtemps	-10.3308
▁stable	-10.3311
▁dealing	-10.3314
▁quoi	-10.3315
▁charges	-10.3318
▁setting	-10.3319
26	-10.332
▁Saint	-10.332
▁premiers	-10.3323
▁takes	-10.3323
▁details	-10.3329
▁association	-10.3331
▁Assessment	-10.3334
▁Ministers	-10.3335
▁movement	-10.3336
ux	-10.3338
/00	-10.3339
▁Forum	-10.334
▁peine	-10.3346
▁Authority	-10.3352
▁EC	-10.3353
▁away	-10.3353
▁interested	-10.3362
▁African	-10.3362
▁défi	-10.3369
▁ever	-10.3374
▁please	-10.3375
▁negative	-10.338
▁fondée	-10.3382
▁voted	-10.3382
▁recettes	-10.3386
▁animal	-10.3388
▁Est	-10.3392
▁agency	-10.3393
▁plant	-10.3395
impact	-10.3397
45	-10.3398
▁offered	-10.3399
▁designated	-10.34
▁pursuant	-10.34
▁reached	-10.3405
▁Care	-10.3408
PA	-10.3411
▁sound	-10.3413
▁officers	-10.3415
▁marques	-10.3417
▁lives	-10.3418
▁Network	-10.3421
▁mort	-10.3422
▁Terre	-10.3428
▁appeal	-10.3438
▁promoting	-10.3442
▁film	-10.3443
▁otherwise	-10.3444
▁creating	-10.3445
▁août	-10.3447
▁importations	-10.3447
▁significantly	-10.3454
▁According	-10.3456
▁mener	-10.3457
achat	-10.3461
▁correspond	-10.3465
avons	-10.3468
▁officielle	-10.3472
eux	-10.3473
▁danger	-10.3474
23	-10.3474
▁views	-10.3476
▁alimentaires	-10.3477
▁findings	-10.348
▁voté	-10.3482
▁analyses	-10.3486
▁bureaux	-10.3487
▁tirer	-10.3491
▁approaches	-10.3494
▁Mar	-10.3497
▁Chief	-10.3505
▁undertaken	-10.3507
▁déchets	-10.3517
▁worked	-10.3518
▁Affaires	-10.3521
-12	-10.3521
▁LES	-10.3524
▁sanctions	-10.3524
▁usage	-10.3526
▁CF	-10.3532
IN	-10.3537
▁tell	-10.354
06	-10.3543
-03	-10.3543
▁supérieur	-10.3543
▁percentage	-10.3544
▁75	-10.3552
▁PE	-10.3553
▁poids	-10.3553
▁Over	-10.3557
employé	-10.3557
▁Western	-10.3558
▁conflit	-10.3559
▁42	-10.3559
▁Chair	-10.3569
▁emplois	-10.357
▁65	-10.3572
▁39	-10.3581
07	-10.3582
▁di	-10.3584
pe	-10.3587
▁transparency	-10.3589
▁fourni	-10.359
▁Yukon	-10.3592
▁consent	-10.3598
▁déclarations	-10.3599
▁Communications	-10.3601
▁CANADA	-10.3606
ha	-10.3606
▁gestionnaires	-10.3612
▁Se	-10.3614
▁fisheries	-10.3616
▁Car	-10.3617
▁longue	-10.3619
▁plein	-10.362
of	-10.3626
▁don	-10.3632
▁parvenir	-10.3633
▁]	-10.3637
▁banks	-10.3637
▁48	-10.3638
▁Nom	-10.3646
▁poor	-10.3646
▁blood	-10.3649
▁immigrants	-10.365
▁Que	-10.3651
35	-10.3652
▁Global	-10.3653
▁maintenance	-10.3656
▁extremely	-10.3662
▁examination	-10.3674
des	-10.3675
▁mot	-10.3675
▁sol	-10.3677
▁vont	-10.3688
▁montants	-10.3696
▁division	-10.3697
▁refer	-10.37
▁ground	-10.3701
▁physique	-10.3701
ère	-10.3702
▁définir	-10.3703
▁veulent	-10.3707
immigration	-10.3707
▁nothing	-10.3717
ign	-10.3718
▁Region	-10.3721
▁somme	-10.3728
▁pourront	-10.373
▁tiens	-10.3741
▁gender	-10.3742
▁presence	-10.3743
▁aimed	-10.3747
▁appear	-10.375
▁faits	-10.375
▁vital	-10.3754
▁WTO	-10.3754
▁recognition	-10.3758
▁terrain	-10.3768
approbation	-10.3768
▁effectué	-10.3769
▁adopter	-10.3778
▁contains	-10.3779
▁governance	-10.3787
▁bodies	-10.3788
▁listed	-10.3794
▁commitments	-10.3799
▁Revenue	-10.38
che	-10.3802
▁intention	-10.3808
▁introduction	-10.3808
▁dollar	-10.381
▁Sénat	-10.3811
▁facteur	-10.3813
▁éviter	-10.3814
orientation	-10.3815
▁recommandation	-10.3816
▁nuclear	-10.3816
▁lecture	-10.3818
▁norme	-10.3821
▁instance	-10.3826
▁300	-10.3826
▁Executive	-10.3833
▁naturelles	-10.3834
environnementale	-10.3838
▁space	-10.3839
29	-10.384
▁reviewed	-10.3842
▁Results	-10.3844
▁Autres	-10.3846
▁diversity	-10.3849
▁juge	-10.3849
▁safe	-10.3849
ach	-10.3852
activités	-10.3855
▁2007.	-10.3863
▁Such	-10.3868
▁commencé	-10.3869
usage	-10.3871
▁totale	-10.3872
▁élaborer	-10.3875
▁resulting	-10.3875
ii	-10.3876
iques	-10.3877
histoire	-10.3879
▁chargé	-10.3881
▁Furthermore	-10.3894
▁annoncé	-10.3897
▁practical	-10.3897
▁Note	-10.3899
▁fondamentaux	-10.3901
▁mark	-10.3902
led	-10.3902
all	-10.3906
▁composition	-10.3906
▁Indian	-10.3907
ang	-10.3912
▁vient	-10.3913
▁sample	-10.392
▁fournis	-10.392
▁involvement	-10.3931
▁essais	-10.3931
▁Lorsqu	-10.3933
▁dumping	-10.3935
▁scale	-10.3936
▁destinés	-10.3944
▁web	-10.3944
▁rendu	-10.3946
▁extrêmement	-10.3947
CA	-10.3948
▁1999.	-10.3948
▁petits	-10.3949
by	-10.3959
▁portion	-10.396
▁increasingly	-10.3962
▁finance	-10.3964
▁IV	-10.3965
▁licences	-10.3969
▁presse	-10.3971
▁filed	-10.3972
▁Employment	-10.3975
▁prêt	-10.3977
▁confidence	-10.3977
▁présentée	-10.3979
▁premières	-10.3981
▁largest	-10.3984
▁absence	-10.3984
▁reducing	-10.399
▁garde	-10.3994
▁remplir	-10.4
▁Water	-10.4
24	-10.4005
▁nor	-10.4009
▁Access	-10.4011
IM	-10.4012
28	-10.4022
▁Figure	-10.4025
ables	-10.4038
▁perhaps	-10.4044
▁1993	-10.4046
▁fee	-10.4047
▁entry	-10.405
▁supports	-10.4052
▁w	-10.4069
▁consultatif	-10.4074
▁statements	-10.4078
▁devront	-10.4079
▁possibility	-10.4081
▁43	-10.4082
75	-10.4084
▁RE	-10.4085
▁weight	-10.4087
▁grave	-10.4089
▁sud	-10.4095
incidence	-10.4098
▁pleased	-10.4099
▁Kosovo	-10.4099
▁commencer	-10.4101
▁Parti	-10.4104
▁environnement	-10.4105
▁employer	-10.4108
-4	-10.411
ase	-10.4119
▁aient	-10.4122
▁Germany	-10.4122
▁port	-10.4137
▁consequences	-10.414
▁advance	-10.414
▁copy	-10.414
▁marine	-10.414
▁Japan	-10.4141
ful	-10.4146
▁apporter	-10.4149
▁components	-10.4152
▁Contracting	-10.4154
tre	-10.4159
▁faites	-10.4159
▁voyage	-10.4162
▁raisonnable	-10.4165
▁Messieurs	-10.4173
▁maritime	-10.4174
▁closely	-10.4174
▁inform	-10.4176
▁précise	-10.4176
▁candidates	-10.4179
▁considère	-10.4181
ally	-10.4181
▁networks	-10.4186
▁Let	-10.4187
essai	-10.4192
▁selection	-10.4195
▁hold	-10.4199
▁classe	-10.4201
▁adequate	-10.4201
-3	-10.4202
▁2,	-10.4203
less	-10.4212
▁participé	-10.4213
▁usually	-10.4216
▁Annexe	-10.4218
▁involving	-10.4218
▁économies	-10.4219
▁Pre	-10.4219
▁contenant	-10.4222
▁Inter	-10.4224
▁réserves	-10.4226
▁pages	-10.4226
nes	-10.4233
▁universités	-10.4237
▁outcome	-10.4237
autorisation	-10.4238
▁sept	-10.4239
▁Page	-10.424
▁items	-10.4246
▁improvement	-10.4247
▁Science	-10.4248
▁seek	-10.4249
▁officer	-10.4254
▁candidate	-10.4256
▁Conférence	-10.4261
▁Nombre	-10.4263
▁River	-10.4264
▁receiving	-10.4265
▁partout	-10.4266
min	-10.4267
▁5.	-10.4268
▁étape	-10.4273
amp	-10.4273
▁Rule	-10.4274
▁sénateurs	-10.4281
▁2007,	-10.4281
▁Standing	-10.4284
ven	-10.4295
▁mind	-10.4297
▁El	-10.4297
▁ventes	-10.4298
▁correct	-10.4298
ab	-10.4299
iste	-10.4304
▁finances	-10.4304
▁considéré	-10.4306
▁Traité	-10.4308
▁primarily	-10.4308
▁Inuit	-10.4309
▁passage	-10.431
go	-10.4311
▁moitié	-10.4316
ose	-10.4317
ay	-10.4318
▁expenditures	-10.4318
▁capable	-10.4318
▁pleinement	-10.432
▁sauf	-10.432
▁begin	-10.4322
▁gérer	-10.4323
▁Form	-10.4325
▁regards	-10.4331
▁Use	-10.4331
appliquent	-10.4333
▁difference	-10.4337
▁road	-10.4341
▁Nouveau	-10.4342
▁mental	-10.4343
▁ch	-10.4345
▁Turkey	-10.4349
▁précis	-10.4354
27	-10.4356
▁tour	-10.4359
▁funded	-10.4362
▁add	-10.4366
▁accrue	-10.4369
▁grant	-10.4371
▁managers	-10.4373
▁failure	-10.4377
▁Decision	-10.4384
▁petite	-10.4385
▁agriculteurs	-10.4385
▁represents	-10.4386
▁Reform	-10.439
▁résoudre	-10.4391
ante	-10.4397
▁auquel	-10.4399
▁médicaux	-10.4402
▁exception	-10.4408
▁régimes	-10.441
▁2)	-10.4411
▁auxquels	-10.4413
▁Mesdames	-10.4413
▁budgets	-10.4416
▁Canadiennes	-10.442
▁investments	-10.442
▁colleagues	-10.4436
▁Survey	-10.4436
▁fer	-10.4436
▁innovative	-10.4441
▁contrats	-10.4446
EL	-10.4446
idée	-10.4447
▁sale	-10.445
▁comités	-10.445
▁animals	-10.4458
▁Home	-10.4458
▁entire	-10.446
▁Be	-10.4462
▁Directorate	-10.4464
avait	-10.4467
▁website	-10.4467
▁Chapter	-10.447
▁accroître	-10.4471
▁consumption	-10.4472
▁ON	-10.4472
▁biais	-10.4476
▁Afin	-10.4481
.4	-10.4486
▁tonnes	-10.4486
▁parole	-10.4487
▁Nunavut	-10.4488
▁quickly	-10.4489
lin	-10.449
▁Each	-10.4491
▁pression	-10.4491
▁choice	-10.4493
▁Parmi	-10.4496
▁rend	-10.4503
▁unless	-10.4505
▁urban	-10.4506
opposition	-10.4508
Alberta	-10.451
▁nouvel	-10.4523
▁observed	-10.4523
▁connu	-10.4524
▁class	-10.4526
▁expenditure	-10.4532
▁terre	-10.4537
▁anglais	-10.4541
ouverture	-10.4541
▁mechanism	-10.4547
day	-10.4547
▁régionale	-10.4552
▁fuel	-10.456
▁conflits	-10.4565
tic	-10.4566
▁York	-10.4568
▁mentionné	-10.4568
▁(1	-10.4572
▁Presidency	-10.4572
▁NRC	-10.4574
▁siècle	-10.4576
HST	-10.458
existence	-10.458
res	-10.4589
▁immediately	-10.459
▁selected	-10.459
men	-10.4597
▁campaign	-10.4598
tin	-10.4598
▁Chaque	-10.4607
▁expérience	-10.4609
▁pouvant	-10.4612
▁degré	-10.4612
ger	-10.4613
▁relatively	-10.4614
▁distance	-10.4622
▁guidance	-10.4624
▁certification	-10.4626
▁culturelles	-10.464
▁partnerships	-10.4641
▁collègue	-10.4641
▁détermination	-10.4645
▁approuvé	-10.4645
▁1996,	-10.4646
istes	-10.4647
▁Moreover	-10.4652
▁accountability	-10.4652
ale	-10.4654
▁front	-10.4657
▁frontières	-10.4659
DA	-10.4667
▁Day	-10.4669
▁55	-10.4674
▁généraux	-10.4676
▁comportement	-10.4679
-11	-10.4681
▁bases	-10.4682
▁limits	-10.4683
ities	-10.4685
▁publicité	-10.4687
▁lumière	-10.4692
▁union	-10.4693
▁senior	-10.4693
▁IT	-10.4693
▁Charter	-10.4695
▁heard	-10.4702
▁INC	-10.4706
▁draw	-10.4707
▁minority	-10.4708
▁manage	-10.4709
▁faudrait	-10.471
▁tribunal	-10.4712
▁k	-10.4714
▁package	-10.4716
▁reconnu	-10.472
31	-10.4721
▁indeed	-10.4723
▁cliniques	-10.4724
▁discours	-10.4725
▁devait	-10.4725
▁codes	-10.4725
▁véritable	-10.4726
▁peuples	-10.4727
▁increases	-10.4728
▁Island	-10.4728
▁constitution	-10.4728
entente	-10.4734
mêmes	-10.4737
appliquer	-10.4741
▁conforme	-10.4742
tra	-10.4747
▁highest	-10.4754
▁donnée	-10.4754
▁arts	-10.4755
▁appuyer	-10.4758
▁tool	-10.4761
▁concluded	-10.4762
▁Finances	-10.4764
▁implications	-10.4767
▁chimiques	-10.4771
▁saying	-10.4772
▁étapes	-10.4772
▁économie	-10.4773
▁vis	-10.4778
▁discuter	-10.4782
▁Training	-10.4784
▁décrit	-10.4785
▁advantage	-10.4786
▁determination	-10.4793
▁notification	-10.4804
▁powers	-10.4807
tant	-10.4807
▁gouvernementaux	-10.4814
SC	-10.4823
▁auront	-10.4825
raient	-10.4828
Association	-10.4828
▁caused	-10.483
▁diseases	-10.4831
.2	-10.4833
hi	-10.4834
▁exports	-10.4834
▁bois	-10.4835
▁déposé	-10.4837
▁Autochtones	-10.4838
▁conduite	-10.4838
▁échanges	-10.484
gi	-10.4843
SE	-10.4846
▁Northern	-10.485
ga	-10.4852
▁everyone	-10.4859
▁offerts	-10.4861
▁différence	-10.4862
▁formes	-10.4864
▁TO	-10.4864
▁Newfoundland	-10.4865
▁fil	-10.487
AD	-10.4873
▁suggest	-10.4874
▁demeure	-10.4876
▁elections	-10.4882
ailleurs	-10.4887
sida	-10.4887
▁petit	-10.489
mar	-10.4891
évaluer	-10.4894
▁Performance	-10.4894
delà	-10.4899
▁constaté	-10.49
Afrique	-10.4904
▁Schedule	-10.4908
▁pensions	-10.4908
▁giving	-10.4911
08	-10.4913
▁Application	-10.4914
▁lines	-10.4915
▁allows	-10.4918
▁High	-10.4918
ations	-10.492
▁numbers	-10.4922
▁1992	-10.4923
▁signature	-10.4923
▁menace	-10.4924
▁56	-10.4925
▁messages	-10.493
▁run	-10.4933
▁Market	-10.494
environ	-10.494
▁devez	-10.4941
▁let	-10.4944
▁indicators	-10.4946
▁input	-10.4949
▁instructions	-10.495
off	-10.4951
▁titulaire	-10.4952
▁réformes	-10.4954
▁Society	-10.4956
▁territory	-10.4957
▁victims	-10.4962
aider	-10.4972
▁adoptée	-10.4988
▁sensibilisation	-10.4989
▁Royal	-10.4993
ten	-10.4996
▁Assemblée	-10.4998
▁senators	-10.5
▁Turquie	-10.5003
▁Japon	-10.5006
ni	-10.5006
▁Patrimoine	-10.5008
▁Transport	-10.501
▁industrielle	-10.5014
▁Sous	-10.5015
.6	-10.5017
▁imports	-10.5019
▁core	-10.502
▁chômage	-10.5027
▁collecte	-10.5027
▁courant	-10.503
Écosse	-10.5032
▁reconnaître	-10.5035
da	-10.504
▁educational	-10.5045
▁Defence	-10.5046
▁occur	-10.5057
ong	-10.5074
▁border	-10.5076
▁tâche	-10.5077
▁Company	-10.5078
▁Medical	-10.508
▁sign	-10.5081
AP	-10.5091
▁daily	-10.5093
▁participating	-10.5097
▁séance	-10.51
▁chiffres	-10.5102
▁Brunswick	-10.5103
▁became	-10.511
▁transportation	-10.511
Re	-10.5112
▁opinions	-10.5121
▁located	-10.5122
▁PME	-10.5128
tro	-10.5129
▁Advisory	-10.5134
▁See	-10.5137
▁Any	-10.514
▁85	-10.5142
tes	-10.5148
▁substantial	-10.515
équipement	-10.515
▁burden	-10.5151
▁deliver	-10.5158
▁head	-10.5158
▁médecins	-10.5159
▁whom	-10.5163
▁filing	-10.5164
OR	-10.5164
39	-10.5164
offre	-10.5167
▁learn	-10.5172
▁revenue	-10.5174
▁entier	-10.5176
ible	-10.5178
▁CE	-10.5182
▁prochaines	-10.5183
▁Stratégie	-10.5184
▁Paris	-10.5185
▁pilot	-10.5186
▁aller	-10.5189
▁hospital	-10.5189
▁ad	-10.519
esprit	-10.5191
▁répartition	-10.5196
ET	-10.5198
▁décès	-10.5202
▁graves	-10.5206
infrastructure	-10.5207
▁continuing	-10.5207
▁applicables	-10.5212
▁send	-10.5222
▁emergency	-10.5226
▁appears	-10.5227
▁Mon	-10.5228
▁Deputy	-10.5232
▁late	-10.5233
▁modifié	-10.5234
▁acquis	-10.5234
▁flow	-10.5236
▁proper	-10.5236
▁gouvernance	-10.5238
▁schools	-10.5239
▁dirigeants	-10.524
▁porter	-10.5246
▁changed	-10.5247
▁institutional	-10.5251
▁Premier	-10.5251
▁signal	-10.5256
▁considerable	-10.5258
In	-10.5261
▁préparer	-10.5262
▁permit	-10.5262
▁augmenter	-10.5271
▁recommendation	-10.5275
▁forum	-10.5275
▁réduit	-10.5276
ical	-10.5284
experts	-10.5285
nd	-10.5292
▁reading	-10.5295
▁poisson	-10.5296
amendement	-10.5297
▁Compte	-10.5297
▁contribué	-10.5303
▁conclure	-10.5304
▁Russian	-10.5305
▁Summary	-10.5306
IA	-10.5306
▁express	-10.5312
▁sommet	-10.5313
▁réalisés	-10.5313
importation	-10.5319
ley	-10.532
pre	-10.5321
▁Asia	-10.5323
her	-10.5324
▁facility	-10.5337
▁India	-10.534
▁looking	-10.5342
▁modalités	-10.5344
▁04	-10.5346
▁guarantee	-10.5351
▁vrai	-10.5353
▁talk	-10.5356
▁defence	-10.5356
honorable	-10.5358
▁began	-10.5358
▁previously	-10.536
▁respondents	-10.5363
▁femme	-10.5366
33	-10.5367
▁encourager	-10.5368
▁seven	-10.537
moi	-10.5371
▁$2	-10.5372
▁Income	-10.5384
▁dépend	-10.5386
▁stop	-10.5386
▁comporte	-10.5388
Canada	-10.5388
▁circonscription	-10.5393
▁collected	-10.5394
▁protocole	-10.5397
▁try	-10.5399
▁délais	-10.5401
▁Introduction	-10.5405
▁grain	-10.541
▁larger	-10.5413
▁énergétique	-10.5415
tion	-10.5416
non	-10.5421
▁suggestions	-10.5422
▁questionnaire	-10.5428
▁Sport	-10.5429
▁sénateur	-10.5434
▁estimates	-10.5435
37	-10.5436
/2	-10.5437
▁Bay	-10.5446
ah	-10.5446
▁socio	-10.5449
▁heart	-10.5451
▁expression	-10.5453
▁felt	-10.5454
ability	-10.5457
▁crimes	-10.5457
▁coll	-10.546
▁pêches	-10.5461
▁contain	-10.5462
▁Winnipeg	-10.5469
▁jurisdiction	-10.547
▁employé	-10.5484
▁x	-10.5486
opinion	-10.5499
▁protected	-10.5501
38	-10.5502
▁immédiatement	-10.5503
AM	-10.5508
je	-10.551
accueil	-10.5511
▁présentées	-10.5511
▁distinction	-10.5511
▁écoles	-10.5514
▁released	-10.552
▁prepare	-10.5526
▁press	-10.5542
▁indicateurs	-10.5548
▁précisément	-10.5549
▁FOR	-10.5551
PC	-10.5558
▁surplus	-10.5563
▁chacune	-10.5565
▁possibles	-10.5566
ag	-10.5569
▁copyright	-10.5576
▁02	-10.5577
▁admissible	-10.5577
▁online	-10.5577
▁compromis	-10.5579
▁tâches	-10.5579
▁électroniques	-10.558
▁hors	-10.5582
▁culturelle	-10.5584
yl	-10.5587
▁requests	-10.5588
▁cash	-10.5591
autorité	-10.5591
▁image	-10.5595
▁near	-10.5609
▁Reference	-10.5609
▁immigration	-10.561
▁mentale	-10.5614
avant	-10.5616
▁behind	-10.5624
▁calls	-10.5625
▁healthy	-10.5626
▁operate	-10.5631
▁retour	-10.5633
▁prévus	-10.5636
97	-10.5642
▁sait	-10.5644
▁smoking	-10.5644
▁traite	-10.5644
▁budgétaires	-10.5645
▁user	-10.5651
▁occasions	-10.5652
▁thought	-10.5655
32	-10.5658
▁transparent	-10.5659
▁except	-10.5666
▁vehicles	-10.5667
▁Post	-10.5667
▁réussite	-10.5672
▁congé	-10.5672
▁Commerce	-10.5672
▁détails	-10.5674
▁Risk	-10.5681
ative	-10.5681
▁planned	-10.5681
».	-10.5682
obligation	-10.5687
▁Paper	-10.5692
▁31,	-10.5695
▁stand	-10.5697
▁element	-10.5699
▁Drug	-10.5699
▁toward	-10.5705
▁plants	-10.5708
▁domicile	-10.5708
▁Avant	-10.5714
▁vice	-10.5718
▁assure	-10.5719
existe	-10.5719
ka	-10.5719
▁led	-10.572
▁monetary	-10.5724
▁coup	-10.5724
▁actuelles	-10.5725
▁téléphone	-10.5727
-05	-10.5727
▁Case	-10.573
▁95	-10.573
▁ST	-10.5731
▁fera	-10.5739
▁expect	-10.5741
▁indiquer	-10.5744
ME	-10.5747
▁Patent	-10.575
▁unemployment	-10.5752
▁Audit	-10.5755
AS	-10.5756
▁largement	-10.5758
alcool	-10.576
▁Aux	-10.5761
▁proposée	-10.5764
▁évaluations	-10.577
▁providers	-10.5771
▁annuelle	-10.5772
▁Lisbon	-10.5777
▁indication	-10.578
▁voix	-10.578
▁alone	-10.5785
▁recovery	-10.5792
ARC	-10.5795
▁3,	-10.5799
▁Lisbonne	-10.5807
▁devrions	-10.5808
▁David	-10.5809
▁Sector	-10.581
▁maison	-10.5811
▁01	-10.5816
▁clinique	-10.5818
euros	-10.582
▁régionales	-10.5827
▁étrangère	-10.5831
▁voter	-10.5839
44	-10.584
cadre	-10.5844
▁started	-10.5844
▁requis	-10.5852
oc	-10.5856
IR	-10.5856
▁reproduction	-10.5857
▁contracts	-10.5859
dé	-10.5861
▁copies	-10.5863
▁relever	-10.5864
▁models	-10.5866
▁Lake	-10.5868
RO	-10.587
▁accession	-10.5874
▁monitor	-10.5876
▁Ch	-10.5879
▁extra	-10.5879
▁perform	-10.5879
▁lancé	-10.588
Neuve	-10.5885
▁transaction	-10.5885
▁revised	-10.5888
SI	-10.589
▁compétitivité	-10.5893
▁présentent	-10.5893
IS	-10.5893
▁régler	-10.5894
▁placed	-10.5894
▁accounts	-10.5894
▁Calgary	-10.5895
▁Key	-10.5896
▁champ	-10.5896
▁cap	-10.5903
▁fourniture	-10.5904
▁Also	-10.5905
▁managed	-10.5912
▁négociation	-10.5914
▁bi	-10.5917
▁Dé	-10.5917
▁trying	-10.5927
▁lost	-10.593
▁connection	-10.5933
▁Avec	-10.5934
CO	-10.5934
▁decline	-10.5938
▁revenues	-10.5938
▁decide	-10.5939
mail	-10.594
▁mots	-10.5941
▁habituellement	-10.5941
▁1991	-10.5946
▁présentés	-10.5951
▁actifs	-10.5951
▁deemed	-10.5951
41	-10.5953
examiner	-10.5953
▁ideas	-10.5954
FA	-10.5956
▁targets	-10.596
▁400	-10.5963
▁fut	-10.5963
▁compréhension	-10.5964
▁gamme	-10.5965
▁link	-10.5965
▁effectuer	-10.5967
▁Chinese	-10.5971
▁clé	-10.5971
▁entente	-10.5976
▁nomination	-10.5978
TVH	-10.598
▁administratives	-10.5981
▁complet	-10.5984
▁essentiellement	-10.5984
▁Please	-10.5986
▁Senator	-10.5987
▁professionals	-10.5987
▁Foundation	-10.5991
▁Prince	-10.5994
▁vehicle	-10.5997
▁actuels	-10.5999
-06	-10.5999
▁élevée	-10.6
▁savons	-10.6002
▁cut	-10.6007
▁raise	-10.6007
▁prochain	-10.6007
▁terrorisme	-10.6012
tr	-10.6013
▁PIB	-10.6013
▁Jean	-10.6013
▁Kingdom	-10.6015
▁fiscale	-10.6015
▁instead	-10.6016
▁computer	-10.6016
▁vérifier	-10.6017
▁sharing	-10.6018
▁subsequent	-10.6021
▁comply	-10.6023
va	-10.6024
▁departmental	-10.6031
▁modern	-10.6034
▁universities	-10.6035
36	-10.6038
▁sort	-10.604
▁papier	-10.6041
▁Sub	-10.605
▁Customs	-10.6053
▁bonnes	-10.6053
▁villes	-10.6055
▁allocation	-10.6058
▁pièces	-10.6061
▁urgent	-10.6061
▁entièrement	-10.6064
▁garantie	-10.6064
étaient	-10.6064
ud	-10.6066
▁Type	-10.6066
▁corruption	-10.6071
▁recognize	-10.6073
▁word	-10.6074
▁copie	-10.6078
47	-10.608
TA	-10.6084
LE	-10.6088
▁Labrador	-10.6092
izing	-10.6101
▁linked	-10.6102
▁Étant	-10.6108
▁structural	-10.6108
▁focused	-10.6116
▁genetic	-10.6117
▁49	-10.6117
▁pouvait	-10.6117
▁Port	-10.6123
▁Commons	-10.6127
▁examiné	-10.6135
▁blog	-10.6139
▁improvements	-10.614
▁territories	-10.614
▁effectuées	-10.6141
▁ratio	-10.6152
▁treaty	-10.6152
▁multiple	-10.6153
Brunswick	-10.6154
▁units	-10.6154
▁compromise	-10.6155
▁cotisations	-10.6159
▁War	-10.6164
▁1980	-10.6173
▁convenu	-10.6175
▁trouvent	-10.6176
▁Protocol	-10.6178
office	-10.6179
▁sessions	-10.618
▁professionnel	-10.6181
▁functions	-10.6182
▁abuse	-10.6183
SA	-10.6186
▁Secretary	-10.6187
▁relève	-10.619
▁contacts	-10.619
▁Source	-10.619
école	-10.6192
▁climatique	-10.6194
▁interpretation	-10.6196
▁accepter	-10.6198
09	-10.6202
▁technological	-10.6203
▁concours	-10.6205
▁culturel	-10.6205
ill	-10.6211
▁damage	-10.6215
perfectionnement	-10.6217
▁secure	-10.6219
▁malgré	-10.6223
▁City	-10.6226
▁identification	-10.6227
▁diminution	-10.6231
▁Me	-10.6232
▁parlementaires	-10.6235
▁GDP	-10.6236
▁partis	-10.6238
.7	-10.6238
La	-10.6238
▁bénéficier	-10.6241
Est	-10.6245
ph	-10.6246
▁attend	-10.625
▁university	-10.6257
66	-10.6258
▁reality	-10.626
tent	-10.6262
ville	-10.6262
▁tourisme	-10.6264
▁habitat	-10.6265
▁Strategic	-10.6267
▁soi	-10.6282
▁signé	-10.6284
ages	-10.6286
▁spent	-10.6286
▁voting	-10.6289
▁Sea	-10.6294
▁Annual	-10.6295
▁établis	-10.6296
▁neuf	-10.6298
▁poser	-10.6304
▁FC	-10.6305
▁farm	-10.6311
ification	-10.6321
▁reconnaît	-10.6323
ish	-10.6325
▁enjeux	-10.6332
▁indications	-10.6332
▁peux	-10.6336
▁involve	-10.6336
▁tôt	-10.6337
▁treated	-10.6338
▁Politique	-10.6342
ator	-10.6343
▁désormais	-10.6343
▁mainly	-10.6344
▁Afghanistan	-10.6344
▁sexe	-10.6355
▁characteristics	-10.6355
▁invite	-10.6359
▁recommandé	-10.6359
▁gives	-10.6361
▁Son	-10.6363
▁milliers	-10.6364
▁déterminé	-10.6364
▁parliamentary	-10.6365
▁Youth	-10.6368
▁inclure	-10.6368
▁administrations	-10.6376
ments	-10.638
▁exemples	-10.6383
▁1998.	-10.6385
▁diagnostic	-10.6385
▁achieving	-10.6387
▁behaviour	-10.639
▁sais	-10.6392
46	-10.6399
▁efficacement	-10.6403
▁housing	-10.6413
▁rappeler	-10.6414
pos	-10.642
▁veuillez	-10.6421
CI	-10.6421
▁élèves	-10.6423
▁Why	-10.6427
▁peuple	-10.6429
▁determining	-10.643
pro	-10.6432
▁customs	-10.6432
-19	-10.6434
▁fédérales	-10.6437
/4	-10.6438
▁Two	-10.644
▁destruction	-10.6443
96	-10.6443
rie	-10.6445
ot	-10.6446
interprétation	-10.6446
▁Another	-10.6446
▁patrimoine	-10.6447
▁committees	-10.6451
▁BCE	-10.6452
▁subvention	-10.6454
▁city	-10.6455
▁travaillent	-10.646
▁armes	-10.646
po	-10.6461
▁Di	-10.6462
▁judiciaire	-10.6469
io	-10.6472
▁Liberal	-10.6473
▁changing	-10.6473
▁consentement	-10.6478
▁station	-10.6479
▁Even	-10.6483
▁sometimes	-10.6488
▁idées	-10.6489
▁sea	-10.649
▁favorable	-10.649
élargissement	-10.6491
Le	-10.6494
environnementaux	-10.6496
ding	-10.6502
▁décider	-10.6504
▁seconde	-10.6512
▁effectuée	-10.6516
48	-10.6517
den	-10.652
▁utilisant	-10.652
équité	-10.6522
▁touchant	-10.6522
▁privacy	-10.6526
▁52	-10.6527
▁firm	-10.6528
▁bénéficiaires	-10.6531
▁47	-10.6535
▁submission	-10.6539
▁preparation	-10.654
▁adverse	-10.6543
▁répond	-10.6552
▁bienfaisance	-10.6552
acquisition	-10.6552
▁78	-10.6553
▁exceptions	-10.6558
uc	-10.6562
▁continu	-10.6562
▁figures	-10.6565
▁prévoir	-10.6565
▁Voici	-10.657
▁certainement	-10.6571
▁continent	-10.6575
▁reforms	-10.658
▁summary	-10.6585
▁cellules	-10.6591
▁Toutes	-10.6595
▁élaboré	-10.6595
over	-10.6596
▁proceedings	-10.6598
▁prévenir	-10.6599
▁categories	-10.66
ient	-10.66
ver	-10.6608
▁CD	-10.6609
▁excessive	-10.6609
▁Today	-10.6609
▁offers	-10.6613
lu	-10.6616
▁remercie	-10.6617
▁becoming	-10.6618
▁despite	-10.6618
▁enterprises	-10.6621
▁navires	-10.6623
▁appropriée	-10.6626
▁ECB	-10.6627
▁tendances	-10.6628
▁réfugiés	-10.6628
▁réussi	-10.6629
▁Second	-10.6629
▁emerging	-10.6635
▁NO	-10.6637
accroître	-10.6639
▁Because	-10.664
▁considérée	-10.6642
▁visés	-10.6646
▁dispute	-10.6649
cent	-10.6652
pt	-10.6655
inspection	-10.6662
▁figurant	-10.6664
▁sold	-10.6664
▁strengthening	-10.6667
▁represented	-10.6672
▁book	-10.6674
▁pertes	-10.6674
▁visent	-10.6675
▁française	-10.6677
▁climat	-10.6678
▁appointed	-10.6679
▁developments	-10.6681
lé	-10.6683
ateur	-10.6684
▁barriers	-10.6688
▁Sch	-10.6688
▁enfin	-10.6692
▁examples	-10.6692
▁équitable	-10.6693
▁Dis	-10.6695
aimerais	-10.6696
▁arguments	-10.6696
espace	-10.6698
▁demonstrate	-10.6699
▁arrive	-10.6701
▁douanes	-10.6702
port	-10.6705
▁impose	-10.6705
▁liée	-10.6713
▁finding	-10.6714
IE	-10.6715
▁essentiels	-10.6716
34	-10.6719
▁visite	-10.672
▁Ministry	-10.6722
▁photo	-10.6724
▁threat	-10.6725
ba	-10.6727
▁choisir	-10.6727
▁category	-10.6729
▁currency	-10.6732
▁constater	-10.6734
▁Ressources	-10.6742
▁difficulties	-10.6746
▁prison	-10.6746
▁immediate	-10.6747
▁spécifique	-10.6751
▁officiel	-10.6751
▁organized	-10.6752
42	-10.6753
mes	-10.6754
▁database	-10.6755
.8	-10.6756
ice	-10.6759
▁faudra	-10.676
▁chefs	-10.6761
▁Rules	-10.6761
▁réaction	-10.6762
▁1986	-10.6763
▁Développement	-10.6764
▁souligne	-10.6771
▁logement	-10.6771
agent	-10.6773
▁supervision	-10.6774
élimination	-10.6774
▁membership	-10.6778
▁tri	-10.6779
entreprises	-10.678
▁formule	-10.6781
▁menées	-10.6781
▁financer	-10.6784
▁flexibility	-10.6786
▁préalable	-10.6797
SP	-10.6804
▁pauvres	-10.6805
PI	-10.6807
▁examined	-10.6807
q	-10.6809
▁po	-10.6811
assistance	-10.6813
MC	-10.6815
▁46	-10.6821
▁organisé	-10.6824
▁facile	-10.6826
▁Communication	-10.6826
▁américain	-10.6826
▁properly	-10.6827
▁elected	-10.6828
▁German	-10.6829
▁collect	-10.6842
65	-10.6845
▁coverage	-10.6846
▁Guidelines	-10.6848
▁limiter	-10.685
▁Capital	-10.685
▁Quel	-10.6856
▁meilleurs	-10.6857
▁variables	-10.686
ateurs	-10.6861
▁appelle	-10.6863
▁enquêtes	-10.6867
▁Robert	-10.6869
▁devices	-10.6875
▁aircraft	-10.6875
▁closed	-10.6879
▁chemical	-10.6881
▁Iran	-10.6882
iens	-10.6882
▁réalisé	-10.6884
▁procès	-10.6884
▁told	-10.6885
▁notion	-10.6888
net	-10.6888
aires	-10.6893
▁préciser	-10.6893
▁établies	-10.6895
-20	-10.6897
▁relationships	-10.6898
▁Bo	-10.6899
▁télévision	-10.6904
▁digital	-10.6906
▁settlement	-10.6907
▁doubt	-10.691
▁destination	-10.6912
▁Nos	-10.6912
der	-10.6914
▁critique	-10.6919
▁naturel	-10.6921
▁dés	-10.6922
▁précédent	-10.6922
▁précédente	-10.6922
▁internes	-10.6923
ber	-10.6925
▁considérable	-10.6926
▁advertising	-10.6927
ID	-10.6928
tal	-10.693
▁réel	-10.6932
FR	-10.6936
▁namely	-10.6937
▁economies	-10.6941
▁titres	-10.6942
▁engage	-10.6942
▁telephone	-10.6947
▁lieux	-10.6956
▁residents	-10.6959
▁Site	-10.6963
▁Plusieurs	-10.6966
▁savoirs	-10.6969
▁background	-10.6969
▁controls	-10.6971
▁budgetary	-10.6972
PE	-10.6975
ft	-10.6975
▁approprié	-10.6976
▁century	-10.6978
▁appliquer	-10.6983
▁competitiveness	-10.6983
▁carte	-10.6984
uk	-10.6985
▁qualified	-10.6989
▁noter	-10.6991
▁import	-10.6991
▁Per	-10.6992
▁4,	-10.6992
ans	-10.6994
▁Investment	-10.6997
▁links	-10.6998
▁infrastructures	-10.7001
▁corps	-10.7002
int	-10.7002
▁probably	-10.7005
ina	-10.7009
▁banque	-10.7011
▁6.	-10.7015
▁Class	-10.7016
▁DFO	-10.7019
▁speech	-10.7022
▁launched	-10.7023
▁length	-10.7023
▁mouvement	-10.7027
▁fiducie	-10.7031
▁Innovation	-10.7032
▁payé	-10.7032
▁sexual	-10.7032
▁km	-10.7035
▁software	-10.7038
▁intégrée	-10.7045
▁voyages	-10.7046
▁laboratoire	-10.7047
▁helping	-10.7048
99	-10.7048
▁containing	-10.705
▁bande	-10.705
éthique	-10.7051
▁sert	-10.7052
▁locale	-10.7053
▁adultes	-10.7055
▁summer	-10.7058
EM	-10.7058
▁Once	-10.7061
ell	-10.7062
▁Quand	-10.7065
▁emphasis	-10.7069
▁Mexico	-10.7072
▁interview	-10.7073
▁authorized	-10.7076
▁auraient	-10.7077
TC	-10.7078
we	-10.7081
▁voluntary	-10.7083
▁montré	-10.7084
▁tend	-10.7087
▁resulted	-10.7091
▁150	-10.7094
▁auteurs	-10.7096
▁extended	-10.7099
»,	-10.7105
▁(613)	-10.7106
▁trial	-10.7106
▁volet	-10.7107
né	-10.7107
▁heureux	-10.7109
▁Euro	-10.7111
▁utilise	-10.7114
▁CH	-10.7115
▁injury	-10.7115
▁candidat	-10.7117
▁historique	-10.7117
▁proposées	-10.7118
▁sang	-10.712
▁consult	-10.7122
▁School	-10.7123
▁manufacturing	-10.713
▁télécommunicat	-10.7132
▁presentation	-10.7136
▁outlined	-10.7136
▁meilleures	-10.7137
â	-10.7137
▁journée	-10.7138
ps	-10.7145
▁cohésion	-10.7145
▁soumettre	-10.7147
85	-10.715
▁pan	-10.715
▁Ad	-10.7151
ke	-10.7159
▁Man	-10.716
▁actes	-10.7161
▁huit	-10.7163
▁accordé	-10.7166
ques	-10.7166
▁appui	-10.717
▁conjoint	-10.7174
▁utiles	-10.7181
▁1995,	-10.7182
dis	-10.7183
▁disclosure	-10.7183
▁enlargement	-10.7191
▁supplies	-10.7193
▁accounting	-10.7193
▁imported	-10.7193
▁obtenus	-10.7193
▁conserver	-10.7195
▁Now	-10.7198
▁heritage	-10.7198
▁Grâce	-10.7203
▁nucléaire	-10.7203
▁demonstrated	-10.7204
▁CN	-10.7204
là	-10.7207
ised	-10.721
Internet	-10.7211
▁purchase	-10.7214
▁considérer	-10.7225
▁devoir	-10.7228
▁Thus	-10.7229
▁List	-10.7231
▁51	-10.7232
▁Charte	-10.7236
▁puisqu	-10.7236
▁Statistique	-10.7237
▁maintained	-10.7237
▁delegation	-10.7237
▁Pourquoi	-10.7238
▁Energy	-10.7239
▁equivalent	-10.7242
sis	-10.7245
▁infection	-10.7245
affaire	-10.7246
▁évident	-10.725
].	-10.725
▁performed	-10.7251
▁seeking	-10.7255
▁feu	-10.7257
▁municipal	-10.7261
▁soil	-10.7264
▁prescribed	-10.7269
isé	-10.7271
▁Programs	-10.7275
pa	-10.728
▁obligatoire	-10.7284
▁américains	-10.7287
▁cell	-10.729
▁Order	-10.7291
▁mé	-10.7292
▁Given	-10.7292
▁affaire	-10.7293
▁Photo	-10.7293
▁completely	-10.7296
élaborer	-10.7297
▁Relations	-10.7299
▁eight	-10.7299
▁BC	-10.73
considérablement	-10.73
▁hearing	-10.731
▁everything	-10.7312
▁carrière	-10.7313
▁motifs	-10.7313
▁laisser	-10.7315
▁UK	-10.7319
▁extension	-10.732
▁occurred	-10.7321
▁Land	-10.7322
Atlantique	-10.7324
▁accordée	-10.7325
▁stations	-10.7326
mon	-10.7328
ll	-10.7328
▁changer	-10.7333
▁découlant	-10.7336
▁multiples	-10.7341
▁programming	-10.7343
observation	-10.7348
▁Nation	-10.7349
▁corporations	-10.7353
▁inclus	-10.7357
▁99	-10.7357
▁st	-10.7364
euro	-10.7365
▁régulièrement	-10.7367
emplois	-10.7368
▁entrepreneurs	-10.7368
▁démarche	-10.7371
▁introduce	-10.7373
TS	-10.7375
▁exprimé	-10.7379
▁combined	-10.7381
exemple	-10.7382
▁1989	-10.7382
▁perdu	-10.7386
▁involves	-10.7387
▁Indeed	-10.7389
été	-10.7392
▁detail	-10.7393
▁ratification	-10.7393
▁Vice	-10.7398
▁concert	-10.74
▁minorités	-10.74
▁humain	-10.7401
▁(2	-10.7401
▁monnaie	-10.7403
▁choose	-10.7404
▁gros	-10.741
▁travaille	-10.7415
▁statistics	-10.7415
▁Paul	-10.7418
▁établie	-10.7419
▁parle	-10.7423
▁illegal	-10.7428
▁sondage	-10.7438
cre	-10.7441
▁gave	-10.7444
▁join	-10.7446
▁réception	-10.7454
▁student	-10.7457
▁panel	-10.746
▁fields	-10.7463
▁Green	-10.7471
▁indiquent	-10.7474
▁migration	-10.7479
▁MPO	-10.748
▁acts	-10.748
ists	-10.7482
▁effectivement	-10.7492
▁réellement	-10.7492
▁Value	-10.7493
▁round	-10.7493
%	-10.7495
introduction	-10.7496
▁poly	-10.7498
▁préliminaire	-10.7499
▁Panel	-10.7503
▁complexe	-10.7504
▁aims	-10.7504
exception	-10.7505
FI	-10.7508
uff	-10.7517
▁equality	-10.7521
ung	-10.7524
▁Région	-10.7526
▁talking	-10.7531
▁mérite	-10.7533
ko	-10.7534
▁tourism	-10.7536
▁établissement	-10.7539
▁fixed	-10.754
rons	-10.7541
▁Toute	-10.7545
▁terrorism	-10.7546
▁contributed	-10.7547
▁decrease	-10.755
▁expansion	-10.7558
▁visée	-10.7561
▁inspection	-10.7562
PL	-10.7565
▁getting	-10.7566
▁lutter	-10.7567
▁Only	-10.7567
▁7.	-10.7568
▁VI	-10.7568
▁votes	-10.7569
let	-10.7572
iff	-10.7573
/3	-10.7574
HS	-10.7576
▁sensitive	-10.7577
▁Province	-10.758
▁ouvert	-10.758
▁plaintes	-10.7584
▁formulation	-10.7586
▁résidence	-10.7586
▁demands	-10.7587
▁déficit	-10.759
▁flexible	-10.7592
▁législative	-10.7595
AT	-10.7598
▁ententes	-10.7603
▁remaining	-10.7604
▁joue	-10.7607
▁1997.	-10.7608
offrir	-10.7609
act	-10.7612
▁déposant	-10.7615
▁Your	-10.7615
▁extensive	-10.7617
▁inclusion	-10.7618
▁Classification	-10.7618
▁Culture	-10.7618
▁hear	-10.7622
▁grants	-10.7623
UR	-10.7623
NA	-10.7624
▁livre	-10.7627
▁chances	-10.7628
entretien	-10.7631
▁Phase	-10.7632
▁Year	-10.7633
▁ban	-10.7636
▁traitements	-10.7636
▁2010	-10.7638
▁assume	-10.764
▁chemin	-10.764
▁êtes	-10.764
▁confirmed	-10.7641
▁tenant	-10.7643
▁liaison	-10.7645
law	-10.7652
▁Aujourd	-10.7653
▁particulières	-10.7654
▁législatives	-10.7655
CS	-10.7656
enfant	-10.7656
▁Both	-10.7657
▁exempt	-10.7663
▁timely	-10.7668
▁Portugal	-10.7672
▁Voir	-10.7673
49	-10.7673
RC	-10.7675
▁semblent	-10.768
ana	-10.7681
ette	-10.7683
▁attitude	-10.7684
▁Funding	-10.7686
▁goes	-10.769
électricité	-10.769
▁mi	-10.7697
▁preliminary	-10.7697
▁abroad	-10.7697
EP	-10.7699
▁wanted	-10.7699
▁radiodiffusion	-10.7701
PS	-10.7708
▁(3	-10.7709
▁profiter	-10.7711
PT	-10.7712
▁médecine	-10.7714
▁productivité	-10.7718
▁Tableau	-10.7721
▁accorder	-10.7724
▁entered	-10.7727
▁Children	-10.7728
▁visible	-10.773
▁Madrid	-10.773
▁auxquelles	-10.7732
▁strongly	-10.7733
▁bénéficiaire	-10.7736
▁electoral	-10.7736
▁enhanced	-10.7738
▁numérique	-10.7741
▁meaning	-10.7744
▁Insurance	-10.7746
▁pointed	-10.7749
alimentation	-10.775
▁Unit	-10.7757
employeur	-10.7768
43	-10.778
▁moyennes	-10.7789
▁addressing	-10.779
▁delivered	-10.7792
▁moindre	-10.7793
▁absolument	-10.7793
▁maintaining	-10.7795
éviter	-10.7797
ON	-10.7797
▁expressions	-10.7797
▁solidarité	-10.78
▁names	-10.7802
▁relief	-10.7804
UM	-10.7806
▁procédé	-10.7807
▁constant	-10.7809
▁tribunaux	-10.7812
▁Natural	-10.7812
▁Organisation	-10.7817
▁3)	-10.7824
▁continuera	-10.7827
▁Further	-10.7827
▁largely	-10.783
▁moving	-10.7832
▁alcohol	-10.7833
▁identity	-10.7835
identification	-10.7836
▁compagnie	-10.7837
▁Industrial	-10.784
▁contribue	-10.7841
▁claire	-10.7843
▁essentielle	-10.7845
▁expectations	-10.7853
▁faibles	-10.7854
▁64	-10.7854
▁PA	-10.7855
▁seem	-10.7857
▁Task	-10.7857
▁attempt	-10.7858
/1	-10.7862
▁servi	-10.7863
▁parent	-10.7864
▁Change	-10.7865
▁Ko	-10.7865
▁trends	-10.7867
▁Ra	-10.787
▁taxpayer	-10.7872
▁Com	-10.7879
▁positif	-10.7879
▁moral	-10.7879
▁facing	-10.7879
▁Standards	-10.7886
▁représentation	-10.7887
▁parlé	-10.7887
ide	-10.789
OC	-10.7891
▁mutual	-10.7891
▁DG	-10.7892
▁responses	-10.7892
▁inflation	-10.7892
-7	-10.7893
▁colleague	-10.7893
▁Ukraine	-10.7896
▁television	-10.7896
▁fournisseur	-10.7896
ning	-10.7897
67	-10.7909
▁échéant	-10.7909
TE	-10.7912
kg	-10.7914
▁remplacement	-10.7918
▁violation	-10.7919
operation	-10.7922
vironnementales	-10.7924
▁53	-10.7928
▁video	-10.7929
61	-10.7932
▁poissons	-10.7933
▁employed	-10.7937
▁(4)	-10.794
▁jeu	-10.7947
▁estimations	-10.7948
▁auto	-10.795
ct	-10.7951
▁Haut	-10.7952
95	-10.7954
▁vivent	-10.7954
▁1987	-10.7956
▁Pakistan	-10.7957
▁mass	-10.7957
▁milieux	-10.7958
ru	-10.7959
▁applicants	-10.7959
ck	-10.7961
▁Those	-10.7963
▁technologique	-10.7964
ob	-10.7965
▁explain	-10.797
▁constituer	-10.7972
▁assessed	-10.7974
ienne	-10.7974
▁Bloc	-10.7978
▁Press	-10.7979
wide	-10.798
▁wrong	-10.7983
▁Her	-10.7986
▁récente	-10.7989
▁francophones	-10.7998
▁failed	-10.8007
▁Meeting	-10.8013
▁estimé	-10.8021
▁recorded	-10.8023
▁conscience	-10.8023
▁Version	-10.8025
▁experienced	-10.8026
2)	-10.8028
▁generation	-10.8032
▁constructive	-10.8032
▁supérieure	-10.8033
▁tabled	-10.8034
▁fortement	-10.8035
▁amend	-10.8036
▁secrétaire	-10.8037
▁fondé	-10.8038
▁easy	-10.804
59	-10.8041
vo	-10.8042
▁served	-10.8047
88	-10.8051
▁prennent	-10.8056
▁améliorations	-10.8056
SS	-10.8057
ov	-10.8057
▁screening	-10.8062
▁track	-10.8064
unité	-10.8066
vent	-10.8067
▁Israel	-10.8071
▁Joint	-10.8078
▁chargée	-10.8079
-04	-10.8082
▁remise	-10.8087
RA	-10.809
▁rester	-10.8094
▁existants	-10.8095
▁ordre	-10.8095
gen	-10.8096
▁directe	-10.8102
▁Labour	-10.8103
▁communs	-10.8104
▁starting	-10.8104
▁accompli	-10.8109
▁équipe	-10.8114
▁availability	-10.8117
▁plainte	-10.8118
▁enregistré	-10.8122
▁solide	-10.8123
▁facilement	-10.8125
▁Crown	-10.8127
▁IPC	-10.8134
▁Amendement	-10.8134
▁Process	-10.8134
▁Ar	-10.8134
lic	-10.8138
▁livraison	-10.8138
▁devient	-10.8139
▁âgées	-10.8141
▁Pacific	-10.8141
▁encouraged	-10.8141
▁trouvé	-10.8144
▁Alors	-10.8145
fer	-10.8146
▁lié	-10.8147
▁appointment	-10.8148
▁parc	-10.815
ip	-10.8153
▁penser	-10.8154
▁maximale	-10.8155
▁offrent	-10.8159
▁big	-10.816
ham	-10.8161
▁respective	-10.8164
▁expert	-10.8165
94	-10.8166
ray	-10.817
▁pertinents	-10.8171
HR	-10.8172
▁Afrique	-10.8179
▁bo	-10.8181
56	-10.8182
▁Ex	-10.8182
▁habitants	-10.8183
▁courts	-10.8184
▁portent	-10.8185
▁satellite	-10.8186
▁Australia	-10.8186
▁Déclaration	-10.8187
▁spécialistes	-10.8191
▁existence	-10.8193
ST	-10.8197
▁soutenu	-10.82
▁autour	-10.8202
▁Privacy	-10.8204
▁proposer	-10.8207
▁taxable	-10.8215
▁demain	-10.8216
▁retard	-10.8217
▁Through	-10.8221
▁probable	-10.8226
▁compagnies	-10.8228
AR	-10.8231
▁rurales	-10.8233
79	-10.8239
▁numerous	-10.8241
▁agir	-10.8241
MA	-10.8242
▁allocated	-10.8244
IF	-10.8245
▁Cabinet	-10.8246
IL	-10.8247
▁shares	-10.825
▁SCT	-10.8252
92	-10.8256
▁pertinentes	-10.8259
▁went	-10.826
[	-10.8262
▁intitulé	-10.8263
▁combination	-10.8266
side	-10.8273
▁certificat	-10.8276
▁yeux	-10.828
▁productivity	-10.8282
▁résumé	-10.8287
▁autochtone	-10.8292
▁sex	-10.8292
he	-10.8295
▁pétrole	-10.8297
▁fixe	-10.8298
▁capitaux	-10.8301
▁offert	-10.8303
▁employeurs	-10.8303
▁naturels	-10.8306
▁workplace	-10.8306
▁Analysis	-10.8306
▁Pendant	-10.8306
▁libéral	-10.8309
▁satisfaire	-10.8312
▁conventions	-10.8312
▁vivant	-10.8314
▁choisi	-10.8314
including	-10.8316
▁veux	-10.8319
▁targeted	-10.8319
▁débats	-10.8321
▁Publications	-10.8322
▁croire	-10.8322
ASFC	-10.8323
76	-10.8323
entremise	-10.8326
▁Copyright	-10.8328
▁thousands	-10.833
▁Veuillez	-10.833
▁br	-10.833
▁district	-10.8331
▁entend	-10.8334
▁places	-10.8335
▁Team	-10.8338
▁54	-10.8339
FC	-10.8341
▁sets	-10.8342
▁academic	-10.8342
▁explique	-10.8343
▁évidence	-10.8346
▁passed	-10.8348
ONU	-10.8349
▁Défense	-10.8352
▁figurent	-10.8355
COM	-10.8359
▁contrôles	-10.836
▁representation	-10.8361
▁cities	-10.8363
▁outil	-10.8366
▁ports	-10.837
▁Production	-10.837
▁preuves	-10.8371
▁cigarettes	-10.8371
▁unités	-10.8374
▁argument	-10.8376
▁fire	-10.8377
▁Ministre	-10.8377
-9	-10.838
▁futures	-10.8381
▁industriels	-10.8383
▁perception	-10.8386
▁Is	-10.8387
ring	-10.8387
aujourd	-10.8387
▁built	-10.839
▁mid	-10.8391
▁Go	-10.8392
▁files	-10.8392
▁Lors	-10.8392
TI	-10.8393
▁equity	-10.84
▁Response	-10.8402
▁provenance	-10.8402
72	-10.8405
▁traffic	-10.8407
▁médicament	-10.841
▁anything	-10.8413
▁mené	-10.8414
iers	-10.8414
▁touche	-10.8416
▁bord	-10.8418
▁59	-10.8423
▁thème	-10.8425
tan	-10.8427
▁traditionnelles	-10.8429
▁Limited	-10.8429
▁limitée	-10.8432
nel	-10.8433
élection	-10.8438
▁entrepris	-10.8438
▁Radio	-10.8439
▁périodes	-10.8439
br	-10.844
▁avantage	-10.844
▁concepts	-10.8443
▁smaller	-10.8443
▁invited	-10.8444
▁About	-10.8444
▁trafic	-10.8446
▁accepté	-10.8447
▁tête	-10.8449
▁room	-10.845
▁impôts	-10.8457
▁nutrition	-10.8461
▁Montreal	-10.8463
▁advanced	-10.8467
era	-10.8467
(1)(	-10.847
▁extend	-10.8473
▁unies	-10.8479
▁evaluate	-10.8483
▁carbon	-10.8485
▁Free	-10.8485
64	-10.8487
▁calendrier	-10.8493
▁disposer	-10.8493
▁reserve	-10.8495
▁uses	-10.8497
▁environnemental	-10.8499
▁Ceci	-10.85
▁translation	-10.8501
identité	-10.8501
▁title	-10.8501
▁rue	-10.8502
▁resident	-10.8504
▁exposés	-10.8507
69	-10.8508
car	-10.8512
ology	-10.8515
informations	-10.8515
▁SUR	-10.8516
▁complexes	-10.8516
tergovernmental	-10.8518
▁undertake	-10.8518
▁bénéfices	-10.8519
▁helped	-10.8521
58	-10.8526
▁imposed	-10.8532
▁continuent	-10.8536
▁oral	-10.854
▁2006-2007	-10.8541
▁étroite	-10.8544
▁Ka	-10.8545
▁orientation	-10.8547
▁Time	-10.855
▁possède	-10.8551
▁siège	-10.8554
adopter	-10.8555
▁modes	-10.8555
▁observer	-10.8555
▁poursuite	-10.8556
▁Qui	-10.8556
CR	-10.8558
▁Vi	-10.8558
▁exploitation	-10.8559
étape	-10.8561
▁older	-10.8562
▁noms	-10.8564
▁trend	-10.8565
▁bilateral	-10.8567
▁Halifax	-10.8574
▁58	-10.8574
▁Tel	-10.8575
▁stade	-10.8578
▁distinct	-10.8579
▁Bar	-10.8579
▁appropriées	-10.8581
▁concernés	-10.8581
▁enfant	-10.8584
▁contribuent	-10.8587
▁Évaluation	-10.8588
▁Intellectual	-10.8588
▁red	-10.8591
▁allowing	-10.8592
▁constitutionnel	-10.8597
▁provinciales	-10.86
▁indicates	-10.86
▁Pays	-10.86
▁Système	-10.8601
▁northern	-10.8605
▁américaine	-10.8606
attend	-10.8608
▁significative	-10.8609
▁SMEs	-10.8611
▁Media	-10.8611
▁concrete	-10.8611
▁dois	-10.8611
▁stages	-10.8613
dy	-10.8613
▁Area	-10.8617
................	-10.8619
old	-10.862
▁explained	-10.8622
▁Ha	-10.863
51	-10.8633
▁médecin	-10.8634
▁Top	-10.8635
▁1988	-10.8642
ries	-10.8645
inter	-10.8648
agir	-10.8649
-09	-10.865
▁orientations	-10.865
▁effectués	-10.865
▁5,	-10.8652
▁laid	-10.8653
▁music	-10.8655
▁Notice	-10.8659
.10	-10.8669
émission	-10.8669
55	-10.8674
▁Product	-10.8675
▁Sp	-10.8677
▁similaires	-10.8677
▁fruit	-10.8683
▁Ms	-10.8684
)(	-10.8684
▁happen	-10.8686
▁exists	-10.8687
▁employers	-10.8687
mé	-10.869
▁rapid	-10.8691
▁Quality	-10.8691
ep	-10.8691
ane	-10.8692
▁chaîne	-10.8694
habitat	-10.8695
▁bourses	-10.8698
▁Following	-10.8698
▁classes	-10.8701
▁latter	-10.8703
▁800	-10.8705
▁existantes	-10.8707
▁permettront	-10.8708
▁grounds	-10.871
▁bout	-10.871
▁host	-10.8713
bi	-10.8715
▁ready	-10.8721
▁recommande	-10.8724
▁Certaines	-10.8725
▁250	-10.8726
-6	-10.8726
▁Ta	-10.8726
▁attentes	-10.8727
▁mesurer	-10.8729
association	-10.8733
▁drawn	-10.8734
▁sérieux	-10.8734
tu	-10.8736
▁indépendant	-10.8743
▁Are	-10.8746
▁convergence	-10.8748
.5	-10.8748
▁Directeur	-10.8752
▁accidents	-10.8753
can	-10.8754
▁participent	-10.8755
▁Na	-10.8758
▁livres	-10.8759
▁CA	-10.8762
▁ahead	-10.8766
63	-10.877
▁totalement	-10.8771
▁finale	-10.8772
▁rappelle	-10.8773
NE	-10.8777
▁finally	-10.8777
▁ha	-10.8779
▁Martin	-10.8779
▁Main	-10.878
ert	-10.8781
▁bulletin	-10.8781
▁COM	-10.8782
vé	-10.8783
▁complaint	-10.8785
▁montrent	-10.8789
▁bringing	-10.8789
▁recrutement	-10.8796
▁procurement	-10.8798
▁imp	-10.8799
▁grow	-10.8799
▁massive	-10.8802
▁solidarity	-10.8803
▁50%	-10.8804
▁opening	-10.8804
▁considérés	-10.8806
▁donnent	-10.8806
▁house	-10.8808
▁initiale	-10.881
▁objet	-10.8811
▁completion	-10.8811
▁Malgré	-10.8813
our	-10.8814
▁réglementaire	-10.8814
▁montrer	-10.8817
▁CBSA	-10.8817
▁provisoire	-10.8818
▁commence	-10.8819
▁entendre	-10.8828
▁fruits	-10.8829
▁démontré	-10.883
ales	-10.8832
▁transferred	-10.8833
ys	-10.8834
EX	-10.8839
▁possession	-10.8839
▁Gestion	-10.8841
▁88	-10.8841
▁indispensable	-10.8842
wa	-10.8843
▁deficit	-10.8843
red	-10.8845
▁peoples	-10.8845
ow	-10.8845
ee	-10.8846
▁retrait	-10.8846
▁biologiques	-10.8847
▁axée	-10.8847
▁College	-10.885
▁utilisent	-10.8851
atteindre	-10.8855
▁67	-10.8857
OS	-10.886
▁directed	-10.8863
▁Standard	-10.8864
▁Summit	-10.8867
▁Environnement	-10.8873
▁culturels	-10.8877
▁CNRC	-10.888
▁unable	-10.8885
▁Mexique	-10.8888
▁féliciter	-10.8889
part	-10.8889
▁musique	-10.8892
▁mobile	-10.8895
▁comparaison	-10.8898
▁destiné	-10.8901
▁complaints	-10.8901
▁Building	-10.8901
org	-10.8902
▁career	-10.8903
▁appelé	-10.8905
▁autorisé	-10.8907
▁travaillé	-10.8907
▁broader	-10.8909
fe	-10.891
▁congratulate	-10.8911
ey	-10.8915
ace	-10.8915
▁periods	-10.8915
▁2.1	-10.8917
▁61	-10.8919
▁temporary	-10.892
▁becomes	-10.8922
AI	-10.8922
▁gross	-10.8926
▁résistance	-10.8926
▁ownership	-10.8927
▁declaration	-10.8928
▁prime	-10.8931
▁permettrait	-10.8933
▁reçoivent	-10.8935
▁Systems	-10.8936
▁Iraq	-10.8936
HA	-10.8936
▁Legal	-10.8942
▁teneur	-10.8943
▁Provincial	-10.8944
estime	-10.8945
DP	-10.8948
ire	-10.895
▁sentiment	-10.895
▁fondamental	-10.8953
UN	-10.8955
▁secondaire	-10.8963
▁Corporate	-10.8965
▁speaking	-10.8966
▁Based	-10.8969
▁répondu	-10.897
pi	-10.897
▁Université	-10.8974
ancien	-10.8979
▁Cooperation	-10.898
ever	-10.8982
▁prévisions	-10.8983
▁ajoutée	-10.8987
▁Deux	-10.8988
▁paragraphes	-10.8989
▁engaged	-10.899
▁instances	-10.8998
free	-10.9
▁ourselves	-10.9001
▁3.1	-10.9003
▁désigné	-10.9003
ship	-10.9005
▁renouvellement	-10.9006
▁Transfer	-10.9007
▁violations	-10.9007
▁Avis	-10.9008
sh	-10.9008
▁anciens	-10.9008
ien	-10.9009
▁bar	-10.9012
▁génétiques	-10.9013
nant	-10.9015
▁protecting	-10.9016
▁Partnership	-10.9017
▁experiences	-10.9021
▁réflexion	-10.9023
▁destinées	-10.9026
▁vidéo	-10.9027
▁législatif	-10.903
▁1970	-10.9036
▁révélé	-10.9037
▁appareils	-10.9037
ois	-10.9039
▁borders	-10.904
▁2004-2005	-10.9041
▁huge	-10.9044
▁parliament	-10.9044
▁inférieur	-10.9045
▁images	-10.9045
rate	-10.9049
▁rencontre	-10.9049
▁confusion	-10.905
▁(19	-10.905
▁modified	-10.905
▁lacunes	-10.905
pr	-10.9052
▁controlled	-10.9052
▁loans	-10.9054
▁Washington	-10.9055
▁84	-10.9055
▁calculated	-10.9056
▁satisfied	-10.9056
▁cells	-10.9056
▁individus	-10.9062
▁masse	-10.9064
▁Position	-10.9065
▁Ireland	-10.9068
▁expériences	-10.9068
▁Br	-10.9069
▁fine	-10.9073
auto	-10.9073
Allemagne	-10.908
▁feed	-10.9081
ér	-10.9082
chi	-10.9083
▁carrying	-10.9084
▁Gu	-10.9087
▁features	-10.909
▁define	-10.9091
intermédiaire	-10.9093
▁requête	-10.9095
▁suspension	-10.9095
▁défaut	-10.9097
▁brief	-10.9099
86	-10.91
▁identifying	-10.91
▁difficulté	-10.9103
▁néanmoins	-10.9104
fa	-10.9104
▁RCMP	-10.9106
▁Languages	-10.9108
inscription	-10.9111
▁PDF	-10.9116
▁empêcher	-10.912
▁contrôler	-10.9123
▁Renseignements	-10.9123
▁66	-10.9126
▁spread	-10.9126
▁managing	-10.9128
▁limitations	-10.9129
▁apportées	-10.9129
▁suggests	-10.9133
▁showed	-10.9137
▁menée	-10.9145
cher	-10.9146
▁Issues	-10.9148
ium	-10.9151
▁supérieurs	-10.9151
▁respectively	-10.9153
▁exclusive	-10.9155
▁award	-10.9156
▁Questions	-10.9157
▁toxic	-10.9162
▁réglementaires	-10.9165
ev	-10.9165
enfants	-10.9167
excellence	-10.9169
▁échantillons	-10.9169
.01	-10.9169
▁roles	-10.9171
▁$3	-10.9172
▁Study	-10.9173
▁activement	-10.9173
▁57	-10.9175
▁speed	-10.9178
RI	-10.9179
▁CRA	-10.9182
▁demandeur	-10.9184
▁tasks	-10.9189
▁Ro	-10.919
▁pêcheurs	-10.9191
han	-10.9195
▁fear	-10.9199
iz	-10.92
▁savings	-10.9201
▁98	-10.9204
▁respectivement	-10.9208
▁GRC	-10.921
▁dealt	-10.9212
▁trimestre	-10.9213
▁Bio	-10.9213
▁Hong	-10.9214
▁comparable	-10.9215
PR	-10.9217
▁($	-10.9219
so	-10.9221
▁acid	-10.9221
▁aérien	-10.9222
LA	-10.9222
▁claimed	-10.9223
▁dynamique	-10.9224
▁Pension	-10.9227
ris	-10.9227
89	-10.9229
▁vivre	-10.923
▁honourable	-10.923
▁Arts	-10.9238
▁semblables	-10.9242
▁disponibilité	-10.9244
▁contamination	-10.9246
▁replaced	-10.9246
▁qualifications	-10.925
▁valuable	-10.9251
▁artistes	-10.9255
91	-10.9256
▁cohesion	-10.9256
▁tabagisme	-10.9258
encontre	-10.926
ox	-10.9266
gar	-10.9267
▁1994,	-10.927
▁repose	-10.9273
68	-10.9274
infection	-10.9275
▁applying	-10.9276
LO	-10.9277
ze	-10.9278
▁storage	-10.9283
ho	-10.9285
lan	-10.9287
▁visé	-10.9288
▁Despite	-10.929
▁Planning	-10.929
▁someone	-10.9292
▁quelles	-10.9293
AE	-10.9293
77	-10.9301
▁clientèle	-10.9306
ologie	-10.9307
▁consommateur	-10.9308
▁électeurs	-10.9312
▁Néanmoins	-10.9314
▁composé	-10.9315
▁Po	-10.9316
▁Am	-10.9317
▁foods	-10.9319
ising	-10.9319
▁kept	-10.932
ami	-10.9326
point	-10.9327
si	-10.933
▁milliard	-10.934
DC	-10.9341
▁diverse	-10.9343
▁spéciaux	-10.9343
▁greatest	-10.9349
▁4.1	-10.9351
ind	-10.9351
sur	-10.9351
▁quotas	-10.9354
ster	-10.9355
▁Common	-10.9356
▁avenir	-10.936
▁discipline	-10.9361
▁puissance	-10.9364
▁Staff	-10.9365
▁Address	-10.9365
")	-10.9368
▁tomorrow	-10.9369
▁updated	-10.9369
jo	-10.937
ja	-10.9377
▁ajouté	-10.9379
▁resolve	-10.9379
intégrité	-10.9379
▁thereby	-10.9381
▁critiques	-10.9381
▁visées	-10.9383
▁asking	-10.939
▁invention	-10.9392
▁receipt	-10.9392
▁Bulletin	-10.9399
▁constitué	-10.9399
▁naissance	-10.9405
▁intéressés	-10.941
▁amendement	-10.9418
▁quarter	-10.9421
▁assurance	-10.9426
▁crises	-10.9428
▁secret	-10.9428
ath	-10.9433
▁600	-10.9433
▁couverture	-10.9435
fin	-10.9435
▁break	-10.9435
▁sought	-10.944
▁modifiée	-10.944
▁reçus	-10.9441
not	-10.9442
ANT	-10.9444
▁félicite	-10.9444
▁étudier	-10.9446
▁remarquer	-10.9448
▁remplacer	-10.9448
▁pairs	-10.945
▁balanced	-10.945
▁CR	-10.945
▁Spain	-10.9451
▁refuse	-10.9453
▁fr	-10.9453
▁fabricants	-10.9454
▁valid	-10.9458
▁Corée	-10.9462
▁San	-10.9462
accise	-10.9463
▁comparison	-10.9465
▁reflected	-10.9471
▁idée	-10.9472
▁Brazil	-10.9473
innocuité	-10.9477
▁enjoy	-10.9477
Initiative	-10.9478
▁populaire	-10.9478
53	-10.9478
▁2008.	-10.9479
▁Their	-10.9483
71	-10.9485
MD	-10.9485
appuyer	-10.9486
▁estimate	-10.9487
▁permission	-10.9488
▁Statement	-10.9489
▁Sciences	-10.9489
▁solid	-10.9491
▁conformes	-10.9492
▁wants	-10.9492
▁rail	-10.9497
▁matériaux	-10.9499
▁samples	-10.9499
▁réelle	-10.9502
▁reconstruction	-10.9503
▁modernisation	-10.9507
▁Facebook	-10.951
▁Mo	-10.951
▁Assistant	-10.9511
▁Comments	-10.9514
admissibilité	-10.9515
▁Honorables	-10.9517
mis	-10.9518
fl	-10.952
▁Aucune	-10.9525
▁Deuxièmement	-10.9526
▁Italy	-10.9528
▁électorale	-10.9528
▁tradition	-10.9532
importe	-10.9533
▁exposed	-10.9535
▁conseiller	-10.9539
▁Brésil	-10.9539
▁expliquer	-10.9543
▁soutient	-10.9545
▁Red	-10.9545
nom	-10.9546
Inde	-10.9551
▁dépistage	-10.9552
▁register	-10.9556
▁titulaires	-10.9556
▁scientists	-10.9557
▁seuls	-10.9558
ira	-10.9559
▁saw	-10.9563
57	-10.9564
WG	-10.9565
▁Studies	-10.9569
▁Child	-10.9571
GA	-10.9572
▁évidemment	-10.9573
▁affairs	-10.9573
▁indigenous	-10.9573
ek	-10.9574
▁profil	-10.9575
▁Valeur	-10.9576
▁replace	-10.9578
▁porté	-10.958
▁widely	-10.9584
▁96	-10.9585
▁mines	-10.9586
▁britannique	-10.9586
▁tariff	-10.9587
▁appuie	-10.9589
-15	-10.9589
84	-10.9593
▁libertés	-10.9594
▁Great	-10.9595
▁Street	-10.9596
▁stay	-10.9604
▁chiffre	-10.9605
eu	-10.9605
▁commissions	-10.9605
▁judicial	-10.9605
tor	-10.9606
ub	-10.9607
We	-10.9607
MO	-10.961
▁Yes	-10.961
▁Will	-10.9611
▁contribuables	-10.9612
▁ferme	-10.9618
▁servent	-10.9618
▁Park	-10.9618
om	-10.9621
▁récentes	-10.9623
▁reflects	-10.9625
ix	-10.9628
▁03	-10.9628
▁arriver	-10.9629
▁états	-10.963
▁TV	-10.9637
▁Population	-10.9639
▁distributed	-10.964
▁measurement	-10.9642
▁63	-10.9644
▁initiated	-10.9644
ière	-10.9644
▁inscrits	-10.9645
▁Régime	-10.9645
▁dates	-10.9648
52	-10.9654
Orient	-10.9654
▁Twitter	-10.9654
▁Voilà	-10.9655
▁placement	-10.9658
vie	-10.9659
▁valoir	-10.9659
▁biologique	-10.9662
▁positifs	-10.9665
▁worth	-10.9672
▁provinciale	-10.9673
▁rang	-10.9673
▁Consumer	-10.9674
▁approches	-10.968
▁susceptible	-10.9682
▁constitute	-10.9682
▁acteurs	-10.9684
▁équilibre	-10.9684
▁acting	-10.9685
▁contribuable	-10.9687
AN	-10.969
ole	-10.9691
pé	-10.9699
▁literature	-10.9699
EU	-10.97
▁2005-2006	-10.97
▁Question	-10.9705
▁préserver	-10.9705
▁loan	-10.9708
▁Kong	-10.9711
▁doses	-10.9711
▁considering	-10.9713
inflation	-10.9714
▁laboratory	-10.9715
level	-10.9719
▁George	-10.9719
ates	-10.9719
val	-10.9724
tain	-10.9725
▁Life	-10.9726
▁constitutional	-10.9731
mat	-10.9736
▁viable	-10.9738
▁variable	-10.9739
▁10%	-10.9739
-07	-10.974
▁assigned	-10.9741
▁Oceans	-10.9749
Environnement	-10.975
73	-10.9751
CH	-10.9753
▁pilote	-10.9757
▁normally	-10.9758
CF	-10.9758
▁SA	-10.9758
▁spéciales	-10.976
▁neuro	-10.9761
1)	-10.9763
▁résidents	-10.9764
▁observé	-10.9768
DS	-10.9768
▁diminué	-10.9773
▁pursue	-10.9774
▁nécessairement	-10.9774
▁surveiller	-10.9775
▁profits	-10.9776
▁signalé	-10.9779
▁ethnic	-10.9779
▁religion	-10.9779
▁infections	-10.9779
▁aides	-10.978
▁limité	-10.9783
▁foster	-10.9784
▁religious	-10.9786
attribution	-10.9787
(2)	-10.9789
▁biological	-10.9799
▁exemption	-10.98
adaptation	-10.9802
▁calling	-10.9803
74	-10.9808
▁AU	-10.9808
▁Pré	-10.981
▁Status	-10.9812
▁détaillée	-10.9814
▁temporaire	-10.9815
▁appellant	-10.9815
▁climatiques	-10.9815
▁arrangement	-10.9816
▁fiscales	-10.9817
▁eau	-10.9818
▁Period	-10.982
▁device	-10.9821
▁scolaire	-10.9822
▁logique	-10.9828
▁news	-10.9829
▁directeurs	-10.983
▁reçoit	-10.9835
▁équipes	-10.9836
▁résident	-10.984
▁sum	-10.9846
▁2020	-10.9846
▁remember	-10.9846
▁passagers	-10.9847
▁quels	-10.9848
▁privés	-10.9851
▁mondialisation	-10.9853
▁marge	-10.9853
▁Recherche	-10.9853
exclusion	-10.9854
▁remind	-10.9854
af	-10.9854
▁1985	-10.9854
▁female	-10.9858
▁learned	-10.9858
▁Marine	-10.9862
▁divulgation	-10.9866
▁latest	-10.9867
▁check	-10.9867
vers	-10.9869
ick	-10.987
▁salaire	-10.9871
▁devenu	-10.9874
▁Gouvernement	-10.9875
organismes	-10.9876
▁technologiques	-10.9876
▁bad	-10.9877
époque	-10.9881
▁certificate	-10.9882
▁expand	-10.9886
▁ministers	-10.9886
▁partager	-10.9889
▁competent	-10.9893
▁cadres	-10.9896
87	-10.9897
▁delay	-10.9898
▁thèmes	-10.9899
▁élevées	-10.9902
▁films	-10.9904
▁manifestations	-10.9904
▁blanc	-10.9904
▁ob	-10.9905
▁understood	-10.9905
▁endroit	-10.9907
▁Kyoto	-10.991
▁62	-10.9911
▁organes	-10.9916
▁mine	-10.992
▁dependent	-10.9924
uvres	-10.9929
▁Edward	-10.9931
▁territoriaux	-10.9932
▁Trans	-10.9932
▁removed	-10.9933
▁refus	-10.9933
▁interesting	-10.9934
▁jugement	-10.9934
▁Line	-10.9936
▁Quant	-10.9937
▁adoptées	-10.9938
▁1.1	-10.9938
▁Col	-10.9942
▁generate	-10.9945
▁His	-10.9946
▁adjoint	-10.9947
▁keeping	-10.9948
effectuer	-10.9948
▁coast	-10.9951
▁géographique	-10.9955
▁drinking	-10.9957
▁EI	-10.996
▁humanitarian	-10.996
▁%.	-10.9966
▁refers	-10.9968
▁Projet	-10.9969
▁clean	-10.997
▁disposal	-10.9971
▁informer	-10.9973
▁vais	-10.9976
▁conçu	-10.9977
62	-10.9979
De	-10.9979
▁PM	-10.998
bis	-10.9981
▁Korea	-10.9981
▁Mesures	-10.9983
▁moved	-10.9988
▁Small	-10.9991
▁Dépenses	-10.9991
ec	-10.9994
▁spirit	-10.9996
▁Transportation	-10.9997
▁trading	-10.9998
▁échelle	-10.9999
▁else	-11
RS	-11
AF	-11.0001
▁quantitative	-11.0004
▁actively	-11.0005
▁Family	-11.0011
isse	-11.0018
▁SC	-11.0021
▁necessarily	-11.0023
▁déc	-11.0027
▁frontière	-11.0028
▁ta	-11.0029
▁courses	-11.003
▁Oui	-11.0032
▁super	-11.0034
▁devaient	-11.0035
▁Internal	-11.0037
form	-11.0038
▁independence	-11.0039
▁7,	-11.004
▁counter	-11.0041
▁Mark	-11.0045
▁engagé	-11.0047
▁Communities	-11.0054
▁attitudes	-11.0058
▁essentielles	-11.0062
▁path	-11.0064
UL	-11.0065
5-0	-11.0072
▁rats	-11.0074
▁Plans	-11.0075
▁défendre	-11.0076
▁NATO	-11.0077
ade	-11.008
▁fondées	-11.008
▁déterminée	-11.0082
ney	-11.0082
écart	-11.0083
▁Latin	-11.0083
▁68	-11.0086
col	-11.0086
100	-11.0086
OP	-11.0087
▁adapt	-11.0087
▁transit	-11.0088
000	-11.009
ich	-11.0094
▁Gazette	-11.0094
▁losses	-11.0099
▁fondamentales	-11.0099
SO	-11.0101
▁PWGSC	-11.0102
▁potable	-11.0103
▁permanente	-11.0104
▁erreur	-11.0107
▁salaires	-11.011
▁USA	-11.0111
▁confirmé	-11.0111
▁Hospital	-11.0113
▁faced	-11.0114
▁Tri	-11.0114
▁sitting	-11.0115
▁mortalité	-11.0117
▁Luxembourg	-11.0118
▁majeure	-11.0122
▁Governor	-11.0124
▁elsewhere	-11.0124
▁établit	-11.0124
▁scène	-11.0125
▁residence	-11.0127
▁nette	-11.0128
euse	-11.0129
▁collaborer	-11.013
▁strength	-11.013
▁POUR	-11.0131
▁Accord	-11.0137
▁terminé	-11.0141
▁thinking	-11.0142
▁fusion	-11.0144
NO	-11.0147
▁constate	-11.0149
▁Mise	-11.0151
ging	-11.0151
▁spend	-11.0151
▁libéraux	-11.0152
▁seriously	-11.0153
▁handicapées	-11.016
▁Middle	-11.0161
▁depend	-11.0161
▁Activities	-11.0163
▁index	-11.0167
▁Peter	-11.0167
▁120	-11.0168
▁opposed	-11.0168
dic	-11.0168
▁drogue	-11.0171
▁futur	-11.0172
2005	-11.0172
▁thanks	-11.0173
OTAN	-11.0175
▁attached	-11.0175
work	-11.0176
▁intégré	-11.018
▁integrity	-11.0181
▁Center	-11.0181
▁fournissent	-11.0181
▁registre	-11.0181
▁liability	-11.0181
▁inscrit	-11.0187
tte	-11.019
▁secondary	-11.0191
-08	-11.0192
▁1996.	-11.0192
▁Contents	-11.0196
▁profession	-11.0196
▁mettant	-11.0196
▁rÃ	-11.0197
▁revue	-11.0198
▁illness	-11.0199
ett	-11.02
▁sports	-11.0201
▁contrary	-11.0207
▁friends	-11.0209
▁matin	-11.0209
▁organic	-11.021
ica	-11.0211
intérêts	-11.0214
▁proceed	-11.0215
▁Réseau	-11.0218
▁nommé	-11.0219
▁Archives	-11.0221
▁sustainability	-11.0221
▁Prevention	-11.0221
antes	-11.0222
▁Immigration	-11.0222
3)	-11.0224
ny	-11.0226
▁annually	-11.0226
▁sell	-11.0228
étiquetage	-11.0229
▁Brussels	-11.023
▁News	-11.0231
▁sexes	-11.0231
▁manufacturers	-11.0234
▁outstanding	-11.0236
▁expliqué	-11.0236
▁attack	-11.0239
▁operators	-11.0243
lement	-11.0247
▁profile	-11.0251
▁measured	-11.0251
▁representing	-11.0253
▁acquired	-11.0257
▁Technical	-11.0262
▁Sustainable	-11.0266
▁allons	-11.027
▁troubles	-11.0272
▁personnelle	-11.0273
▁birth	-11.0273
▁revision	-11.0273
▁dommages	-11.0275
▁nearly	-11.0276
82	-11.0276
▁permitted	-11.0278
▁compare	-11.0279
▁voies	-11.0279
ably	-11.0283
▁Employer	-11.0284
▁AIDS	-11.0285
▁assessments	-11.0289
:00	-11.0289
border	-11.0291
▁historical	-11.0291
▁standing	-11.0292
▁CRTC	-11.0297
▁Knowledge	-11.0297
▁cible	-11.0303
▁Entre	-11.0304
▁prioritaires	-11.0307
▁Assistance	-11.0308
▁ACP	-11.0308
▁books	-11.0315
▁Fondation	-11.0321
▁séances	-11.0322
ille	-11.0323
▁joué	-11.0324
avec	-11.0325
▁president	-11.0326
▁considerations	-11.0327
▁workshop	-11.0328
▁72	-11.0331
ino	-11.0331
▁absolutely	-11.0332
▁associé	-11.0332
▁bons	-11.0337
▁card	-11.0337
▁connaît	-11.0337
▁routes	-11.0338
▁nine	-11.0339
▁internationally	-11.0339
▁chercher	-11.0344
▁conclude	-11.0347
▁harm	-11.0349
▁domain	-11.0349
ib	-11.035
▁ajouter	-11.0351
cha	-11.0352
▁encouraging	-11.0354
▁generated	-11.0354
▁Implementation	-11.0356
▁05	-11.0357
▁reprises	-11.0357
▁schedule	-11.0358
▁Protocole	-11.0358
▁dangereux	-11.0361
▁resistance	-11.0362
OL	-11.0363
▁carbone	-11.0367
78	-11.0368
▁happened	-11.037
▁considers	-11.0373
ik	-11.0374
▁ceci	-11.0376
▁6,	-11.0376
▁Résultats	-11.0378
▁exercer	-11.0379
▁recueillir	-11.0381
BC	-11.0382
▁obstacle	-11.0383
▁vulnerable	-11.0386
éro	-11.0387
▁Related	-11.0388
93	-11.0393
▁vaccin	-11.0394
abilité	-11.0396
▁trials	-11.0397
▁télé	-11.0397
▁Subject	-11.0399
▁surveys	-11.0405
▁conversion	-11.0405
▁incorporated	-11.0406
ory	-11.0408
▁adjustment	-11.0408
▁easily	-11.0408
▁lancer	-11.0409
▁pr	-11.041
▁véhicule	-11.0411
▁Level	-11.0417
www	-11.0417
▁story	-11.0418
▁intent	-11.042
▁acquisition	-11.0421
▁scrutin	-11.0421
▁preparing	-11.0425
tri	-11.0428
▁ouverte	-11.0428
oy	-11.0429
resident	-11.0432
▁Cadre	-11.0433
mark	-11.0434
▁transfers	-11.0435
▁mandatory	-11.0435
▁exceed	-11.0439
▁pressions	-11.0444
▁concentrer	-11.0445
▁intéressées	-11.0445
▁86	-11.0445
nu	-11.0446
▁fondamentale	-11.0448
IG	-11.0449
▁SE	-11.045
▁chers	-11.0453
▁accurate	-11.0453
▁2009	-11.0453
▁suppose	-11.0454
▁investisseurs	-11.0455
▁SO	-11.0456
▁confirm	-11.0457
bo	-11.0458
▁autrement	-11.0459
▁génétique	-11.0464
▁futurs	-11.0466
▁transferts	-11.0467
▁désignation	-11.0467
▁suivent	-11.0467
▁undertaking	-11.0468
▁London	-11.0468
▁remained	-11.047
▁opportun	-11.0471
▁derived	-11.0473
▁apparent	-11.0474
▁libéralisation	-11.0478
tique	-11.0482
▁génération	-11.0482
▁Pacifique	-11.0482
ju	-11.0485
OMS	-11.0486
▁Last	-11.0487
▁variations	-11.0487
▁wishes	-11.0488
▁fellow	-11.0488
▁fishery	-11.0489
ping	-11.0491
AB	-11.0492
▁Edmonton	-11.0492
▁CP	-11.0493
▁défini	-11.0494
▁holding	-11.0496
▁exclusion	-11.0502
▁interdit	-11.0504
▁Participants	-11.0505
Asie	-11.0507
▁actif	-11.0507
market	-11.0508
▁Operations	-11.0516
▁sensible	-11.0517
▁disciplines	-11.0522
▁machines	-11.0523
▁Location	-11.0527
▁Reserve	-11.0527
▁éventail	-11.053
octroi	-11.053
▁serre	-11.0531
sized	-11.0532
▁Museum	-11.0534
▁allant	-11.0536
▁engagés	-11.0536
▁administratif	-11.0542
2000	-11.0544
PM	-11.0548
▁rec	-11.055
▁Bruxelles	-11.0552
▁printemps	-11.0552
ifs	-11.0555
▁1982	-11.056
▁linguistique	-11.0567
▁influenza	-11.0568
provincial	-11.0571
▁amples	-11.0572
▁invest	-11.0573
▁rebate	-11.0573
▁suicide	-11.0577
▁critère	-11.0577
▁fixé	-11.058
tiques	-11.058
nie	-11.0581
▁indépendants	-11.0582
ual	-11.0585
▁accident	-11.0587
▁mettent	-11.0587
▁expense	-11.0588
▁cartes	-11.0588
▁dangerous	-11.0588
▁dépendance	-11.0588
▁morning	-11.0589
▁Revenu	-11.0591
▁sanction	-11.0593
ators	-11.0596
▁Eastern	-11.0597
▁rich	-11.0597
▁customers	-11.0599
54	-11.0599
▁Nevertheless	-11.0601
▁identifier	-11.0603
▁préoccupation	-11.0604
▁universitaire	-11.0606
▁Notes	-11.0606
▁directions	-11.0612
▁YES	-11.0613
institution	-11.0614
van	-11.0616
▁centrales	-11.0617
président	-11.0619
impression	-11.0624
▁gap	-11.0628
▁Fa	-11.0631
▁pi	-11.0632
obtention	-11.0634
▁Point	-11.0635
▁verser	-11.0637
▁bénévoles	-11.0638
▁Agenda	-11.064
▁CT	-11.064
▁évolution	-11.064
ran	-11.0642
▁requises	-11.0643
▁spéciale	-11.0645
▁Cultural	-11.0645
▁consacré	-11.0646
nc	-11.0647
▁1993,	-11.0647
▁Jeux	-11.0649
▁Spanish	-11.065
▁garanties	-11.0652
▁agences	-11.0652
▁externes	-11.0653
▁93	-11.0655
kin	-11.0656
▁visa	-11.0659
ani	-11.066
▁navigation	-11.066
▁administered	-11.0662
▁subi	-11.0662
▁adolescents	-11.0663
ser	-11.0664
▁proposés	-11.0667
▁façons	-11.0668
▁foundation	-11.0668
▁anyone	-11.0669
▁spring	-11.067
▁accru	-11.067
ya	-11.0673
IV	-11.0674
▁organizational	-11.0675
▁exemplaires	-11.0675
▁Among	-11.0679
▁capitale	-11.0681
▁délégations	-11.0681
▁déclarer	-11.0683
▁explore	-11.0687
▁relate	-11.0687
▁Ben	-11.0687
▁partenaire	-11.0688
ministre	-11.0689
▁propriétaire	-11.0689
▁1984	-11.0692
-5	-11.07
▁annuels	-11.0704
▁severe	-11.0704
équilibre	-11.0705
▁8.	-11.0705
▁smoke	-11.0714
▁marks	-11.0715
▁closer	-11.0715
▁HR	-11.0716
▁totalité	-11.0717
83	-11.0718
▁chosen	-11.072
▁rapidly	-11.0721
tern	-11.0721
▁traduction	-11.0721
▁peer	-11.0723
▁pesticides	-11.0727
▁médicale	-11.0728
▁lucratif	-11.0729
▁seuil	-11.0731
▁OR	-11.0734
▁owner	-11.0738
▁77	-11.0739
▁Liste	-11.074
scale	-11.0741
(4)	-11.0742
▁endroits	-11.0742
▁disabilities	-11.0748
▁CON	-11.0749
▁migrants	-11.0752
berg	-11.0753
ash	-11.0758
CEE	-11.0759
▁Recommendation	-11.0762
Ottawa	-11.0764
DR	-11.0765
Bas	-11.0765
▁Travel	-11.0769
nés	-11.0771
▁interviews	-11.0771
▁fiscaux	-11.0772
▁CC	-11.0775
▁formula	-11.0777
▁justification	-11.0778
2007	-11.0779
▁97	-11.0781
▁mauvais	-11.0783
nce	-11.0786
▁describe	-11.0788
▁governing	-11.0789
lit	-11.0789
▁renewal	-11.079
ward	-11.0791
▁73	-11.0791
▁chronic	-11.0795
▁existent	-11.0796
▁correspondant	-11.0797
4%	-11.0797
ki	-11.0801
asile	-11.0802
▁servant	-11.0802
▁SR	-11.0804
▁nuit	-11.0807
▁lire	-11.0808
augmenter	-11.0808
▁précises	-11.0809
▁tenus	-11.0809
▁Administrative	-11.0809
▁desire	-11.081
▁Don	-11.0812
harmonisation	-11.0812
▁signaler	-11.0816
▁stronger	-11.0818
▁played	-11.0821
cip	-11.0822
▁contrast	-11.0824
▁normalement	-11.0826
▁chair	-11.0829
▁forecast	-11.083
▁broadcasting	-11.083
bl	-11.0834
being	-11.0834
▁20%	-11.0835
▁universitaires	-11.0839
▁chain	-11.0842
▁concernées	-11.0842
▁Hu	-11.0843
▁Michael	-11.0844
▁Does	-11.0846
▁motor	-11.0849
▁augmente	-11.085
▁acte	-11.0853
▁Alliance	-11.0857
▁chapter	-11.0857
▁Conformément	-11.086
▁remove	-11.0866
▁difficiles	-11.0867
▁crop	-11.0868
▁âgés	-11.0869
▁multilateral	-11.0871
▁observe	-11.0872
▁successfully	-11.0872
▁incurred	-11.0873
▁producer	-11.0877
▁Medicine	-11.0878
aucun	-11.0881
▁affecting	-11.0882
tom	-11.0882
▁2002-2003	-11.0884
▁Delivery	-11.0885
▁échange	-11.0885
▁jury	-11.0886
▁informal	-11.0888
2.	-11.0895
▁inventory	-11.0896
▁représenter	-11.0896
installation	-11.0901
EST	-11.0903
▁disability	-11.0905
▁Index	-11.0907
▁plantes	-11.0909
▁92	-11.0912
▁pleine	-11.0913
▁mauvaise	-11.0914
EI	-11.0915
▁Pr	-11.092
isant	-11.092
▁buy	-11.0922
▁Police	-11.0924
▁pourtant	-11.0924
▁charged	-11.0927
▁79	-11.0931
▁Sans	-11.0932
avaient	-11.0937
▁changé	-11.0937
▁dispositifs	-11.0938
▁Arab	-11.0941
▁croissante	-11.0941
cer	-11.0946
▁duquel	-11.0949
▁Bon	-11.0949
▁restent	-11.0949
▁tissus	-11.095
▁dimensions	-11.0952
▁différente	-11.0952
▁productive	-11.0955
▁rôles	-11.0956
▁style	-11.0958
▁76	-11.096
▁Ho	-11.0961
▁FI	-11.0963
▁Aucun	-11.0963
▁Scientific	-11.0966
▁quatrième	-11.0968
▁adult	-11.097
▁label	-11.0971
▁formuler	-11.0975
ouest	-11.0976
▁viande	-11.0978
▁Victoria	-11.0978
▁consolidation	-11.0979
▁scheme	-11.0981
▁constante	-11.0983
LT	-11.0984
▁Secondly	-11.0986
▁observation	-11.0987
▁émis	-11.0987
▁Yet	-11.0988
▁refugees	-11.0991
▁NON	-11.0991
▁garder	-11.0997
▁considérables	-11.0999
RR	-11.0999
▁western	-11.1001
▁submissions	-11.1002
matic	-11.1002
▁PR	-11.1004
▁avions	-11.1004
▁hydro	-11.1008
▁(4	-11.1008
SM	-11.1008
▁pouvaient	-11.1008
don	-11.101
▁Federation	-11.101
wan	-11.1011
ave	-11.1013
▁putting	-11.1014
vert	-11.1016
▁race	-11.1017
▁vessels	-11.1018
▁remettre	-11.1018
▁Pêches	-11.1019
▁journal	-11.102
▁blé	-11.1021
▁aînés	-11.1021
comp	-11.1022
▁worldwide	-11.1022
position	-11.1023
▁Ga	-11.1025
-13	-11.1025
▁94	-11.1027
oli	-11.1028
▁classement	-11.1029
▁fabricant	-11.1031
▁fit	-11.1032
▁unité	-11.1034
▁Fédération	-11.1036
▁entirely	-11.1039
ron	-11.1043
▁interactions	-11.1047
▁administratifs	-11.1047
▁amis	-11.1049
▁adults	-11.105
▁Before	-11.1051
2004	-11.1052
▁regret	-11.1054
▁im	-11.1055
▁solde	-11.1055
▁amélioration	-11.1055
-30	-11.1058
▁présentant	-11.1058
▁déposer	-11.1059
▁Pa	-11.1062
automne	-11.1062
▁van	-11.1063
▁Rome	-11.1064
▁PRO	-11.1066
▁duration	-11.1068
ENT	-11.1071
▁viennent	-11.1071
▁indiquant	-11.1071
▁flux	-11.1076
▁médical	-11.1077
▁jurisdictions	-11.1077
▁King	-11.1078
ult	-11.1083
▁incidents	-11.1085
▁Senior	-11.1086
▁reserves	-11.1089
ces	-11.1092
▁vitesse	-11.1093
▁2003-2004	-11.1094
▁Ab	-11.1095
▁floor	-11.1096
▁fréquence	-11.1097
▁installation	-11.1099
lay	-11.1099
▁authorization	-11.1103
▁Fort	-11.1103
▁season	-11.1108
▁propriétaires	-11.1112
▁phénomène	-11.1114
▁solides	-11.1115
▁alternatives	-11.1117
▁somewhat	-11.1117
mit	-11.1121
▁mémoire	-11.1123
▁facts	-11.1124
▁tested	-11.1124
▁Initiatives	-11.1125
▁offering	-11.1128
▁bear	-11.1128
▁recipient	-11.1131
▁Cost	-11.1135
2003	-11.1135
▁forced	-11.1142
▁Jo	-11.1142
uck	-11.1144
▁partiel	-11.1147
gr	-11.1149
▁comparative	-11.1149
▁traditions	-11.1149
▁pointe	-11.115
ute	-11.1151
▁Strasbourg	-11.1151
▁progresser	-11.1156
▁Grand	-11.1158
▁ressort	-11.1158
▁variation	-11.1161
▁scheduled	-11.1162
▁Head	-11.1163
▁complètement	-11.1163
▁diminuer	-11.1165
▁welfare	-11.1174
▁neither	-11.1175
▁Art	-11.1175
▁discharge	-11.1176
▁frequently	-11.1176
▁appropriés	-11.1178
▁citizen	-11.1178
▁reviews	-11.118
ène	-11.1182
▁Procedure	-11.1182
▁financés	-11.1187
▁protest	-11.1187
▁autorisée	-11.1193
▁torture	-11.1197
entend	-11.1197
5,000	-11.1204
-18	-11.1206
▁Reports	-11.1208
▁06	-11.121
▁visiteurs	-11.1212
▁mortality	-11.1215
▁statistical	-11.1215
▁2.2	-11.1216
▁fasse	-11.1218
▁urge	-11.1218
▁hôpitaux	-11.1219
▁Greece	-11.122
▁Comp	-11.122
▁allowance	-11.1221
▁obvious	-11.1223
cal	-11.1224
GE	-11.1224
tÃ	-11.1225
▁exportateurs	-11.1225
▁posted	-11.1227
RES	-11.1228
sign	-11.123
mb	-11.1231
▁Call	-11.1232
▁accorde	-11.1233
▁achievement	-11.1233
▁accessibles	-11.1234
▁Monitoring	-11.1234
▁souhaitent	-11.1235
▁classified	-11.1236
▁photos	-11.1239
▁Several	-11.1241
▁got	-11.1242
▁excess	-11.1247
▁voice	-11.1249
▁vert	-11.1249
▁soir	-11.125
▁familiale	-11.125
▁cour	-11.1253
▁69	-11.1253
▁définis	-11.1254
▁2008,	-11.1255
PH	-11.1255
▁investigations	-11.1256
bes	-11.1256
▁decades	-11.1257
profit	-11.1258
▁proud	-11.126
▁Fonction	-11.1262
ième	-11.1262
▁laisse	-11.1262
ches	-11.1265
▁démontrer	-11.1266
▁easier	-11.1266
▁Commentaires	-11.1273
▁PC	-11.1275
▁north	-11.1277
▁systématique	-11.1278
▁semblable	-11.128
▁Surveillance	-11.1283
▁tu	-11.1283
▁ONG	-11.1284
▁minor	-11.1284
▁intéressant	-11.1285
▁("	-11.1287
▁Anti	-11.1288
▁reaction	-11.129
▁politics	-11.1295
▁Articles	-11.1296
▁potentiels	-11.1297
▁Base	-11.1298
language	-11.1298
▁incombe	-11.1299
▁requiring	-11.1305
▁Ni	-11.1308
▁advise	-11.1309
-14	-11.1313
▁atteints	-11.1317
▁author	-11.1317
▁présents	-11.1319
▁regularly	-11.1321
ug	-11.1322
▁décideurs	-11.1324
▁exactly	-11.1325
▁Bi	-11.1326
▁1990,	-11.1328
▁affirmé	-11.1329
nov	-11.133
ious	-11.133
▁suppliers	-11.133
ame	-11.1336
▁Unfortunately	-11.1337
▁brut	-11.1337
MP	-11.1337
▁désignés	-11.1338
▁prove	-11.1338
▁$4	-11.1339
▁summit	-11.134
▁passant	-11.134
▁2013	-11.134
ommercialisation	-11.134
▁difficulty	-11.1342
▁equally	-11.1342
▁enregistrés	-11.1342
tis	-11.1345
xi	-11.1348
sse	-11.135
▁seniors	-11.1351
▁attirer	-11.1352
▁réalisations	-11.1353
▁étranger	-11.1357
▁waters	-11.1359
▁envisager	-11.1359
▁tiennent	-11.136
▁chinois	-11.1365
▁atteinte	-11.1367
▁Criminal	-11.1369
▁appuyé	-11.137
▁fixer	-11.1374
▁minorities	-11.1377
▁textes	-11.1379
▁Net	-11.138
sion	-11.1381
En	-11.1382
▁biotechnologie	-11.1386
▁autorisation	-11.1388
▁industrie	-11.139
▁carefully	-11.1391
▁Export	-11.1391
▁74	-11.1392
▁paragraphs	-11.1393
▁coordinated	-11.1395
3%	-11.1395
▁température	-11.1396
▁Reporting	-11.1397
▁Gaza	-11.1397
▁Balkans	-11.1398
▁Provide	-11.1398
▁reprise	-11.1405
▁geographical	-11.1406
éd	-11.1406
▁Su	-11.141
▁83	-11.1415
▁Licence	-11.1416
▁mère	-11.1419
SD	-11.1426
2,	-11.1428
▁fournie	-11.1429
▁71	-11.143
▁Parliamentary	-11.1431
▁violent	-11.1433
▁progressive	-11.1435
▁descriptif	-11.1437
aucune	-11.1439
▁TC	-11.1441
▁courage	-11.1442
▁87	-11.1442
▁comparativement	-11.1444
issent	-11.1444
▁contributing	-11.1445
▁moderne	-11.1445
▁inspections	-11.1446
▁criminalité	-11.1446
expansion	-11.1449
▁commis	-11.145
ures	-11.1454
▁KGM	-11.1454
▁hands	-11.1454
▁steel	-11.1454
European	-11.1456
cour	-11.1459
inc	-11.1459
▁homme	-11.1459
▁Gas	-11.1462
▁Malheureusement	-11.1464
▁assessing	-11.1466
▁Premièrement	-11.1466
▁directrice	-11.1467
▁recall	-11.1467
▁quantités	-11.1471
serv	-11.1478
▁écrite	-11.1479
▁Secteur	-11.148
▁artists	-11.148
▁mail	-11.1481
▁penalty	-11.1482
▁update	-11.1486
▁aborder	-11.1486
▁inacceptable	-11.1487
▁retail	-11.1487
▁radiation	-11.1488
▁consists	-11.1489
▁voisins	-11.1489
▁restriction	-11.1493
uel	-11.1493
▁clarification	-11.1499
bre	-11.15
▁rare	-11.1501
▁concernent	-11.1502
▁demandent	-11.1503
▁fonctionne	-11.1504
avez	-11.1505
▁déclare	-11.1507
▁présentations	-11.1508
▁fraction	-11.1508
ampleur	-11.1511
▁vingt	-11.1514
▁Thank	-11.1514
▁82	-11.1515
▁personnelles	-11.1516
▁lettres	-11.1517
sponsabilisation	-11.1517
▁Jusqu	-11.1518
▁suprême	-11.152
table	-11.1525
▁voire	-11.1528
▁depending	-11.1528
▁Mac	-11.153
▁reflète	-11.153
▁heavy	-11.1532
▁collaborative	-11.1535
▁refund	-11.1542
▁suitable	-11.1544
▁continuous	-11.1545
back	-11.155
▁cabinet	-11.1551
oeuvre	-11.1551
GRTKF	-11.1554
▁heading	-11.1555
DI	-11.1555
▁deposit	-11.1555
▁clarify	-11.1556
.»	-11.1557
▁eliminate	-11.1558
▁étroitement	-11.1559
▁entraîner	-11.156
▁bilan	-11.1561
▁decade	-11.1562
▁réactions	-11.1563
▁shift	-11.1564
81	-11.1565
▁entraîné	-11.1567
cul	-11.1568
espèce	-11.1568
▁transmettre	-11.1574
image	-11.1578
▁ultimately	-11.1579
▁th	-11.158
▁launch	-11.1583
▁Ca	-11.1586
fr	-11.1587
▁faisait	-11.1587
▁Océans	-11.1588
HU	-11.1588
▁depends	-11.1589
▁2007-2008	-11.159
▁jeune	-11.1592
▁retirement	-11.1593
▁fichier	-11.1598
▁returns	-11.1598
▁dehors	-11.1599
▁paramètres	-11.1601
▁Motion	-11.1601
▁erreurs	-11.1603
▁fardeau	-11.1606
▁auparavant	-11.1606
▁revendications	-11.1607
▁calculer	-11.1608
▁différends	-11.161
▁faisons	-11.1611
▁ethical	-11.1613
▁désir	-11.1614
ped	-11.1615
▁Here	-11.1615
apporter	-11.1616
▁Info	-11.1616
▁underlying	-11.162
▁subsidies	-11.1621
▁moteur	-11.1622
▁proposes	-11.1622
MENT	-11.1623
▁royale	-11.1624
▁buildings	-11.1627
▁manufacturer	-11.1628
▁Cancer	-11.1628
▁Amérique	-11.163
▁Appeal	-11.1632
▁envisage	-11.1635
▁EX	-11.1637
uit	-11.1641
/6	-11.1641
rin	-11.1642
▁Grèce	-11.1643
▁suppression	-11.1645
▁potentially	-11.1645
▁vary	-11.1646
▁patterns	-11.1647
▁appels	-11.1649
▁rechange	-11.165
▁compatible	-11.165
▁dangers	-11.1651
▁Long	-11.1654
▁participated	-11.1658
▁marginal	-11.1658
▁2000-2001	-11.1662
▁Model	-11.1666
▁binding	-11.1666
▁exiger	-11.1672
▁Tourism	-11.1676
called	-11.1677
▁signe	-11.1677
▁89	-11.1677
▁associées	-11.1678
▁excluded	-11.168
▁village	-11.1684
▁weapons	-11.1686
▁Personal	-11.1687
▁strict	-11.1689
▁Netherlands	-11.169
▁yesterday	-11.1691
▁Grande	-11.1691
▁relates	-11.1696
▁disaster	-11.1698
▁recommend	-11.1699
▁(5	-11.17
▁entity	-11.1701
ew	-11.1702
▁Additional	-11.1704
▁popular	-11.1706
▁Pe	-11.1707
NC	-11.1707
▁requise	-11.1713
▁unacceptable	-11.1713
vol	-11.1717
▁ii	-11.1718
specific	-11.172
▁salary	-11.1723
▁addresses	-11.1724
▁Moyen	-11.1727
▁whereas	-11.1732
▁Representative	-11.1733
▁TPSGC	-11.1736
▁Chamber	-11.1738
▁eligibility	-11.1742
▁suggéré	-11.1742
▁White	-11.1742
UT	-11.1744
▁restricted	-11.1745
▁telecommunicat	-11.1749
▁aperçu	-11.1752
▁libération	-11.1755
▁conducting	-11.1757
▁intégrer	-11.1757
▁wait	-11.1757
apport	-11.1758
▁corresponding	-11.1759
▁believed	-11.1765
▁Queen	-11.1767
▁voyageurs	-11.1769
my	-11.177
Etat	-11.1771
▁réalisées	-11.1773
▁dedicated	-11.1774
▁Future	-11.1775
▁appliquée	-11.1775
▁présentes	-11.1779
://	-11.1782
▁OUI	-11.1785
▁honour	-11.1786
ified	-11.1788
▁retain	-11.1789
▁slow	-11.1789
▁believes	-11.1792
▁Première	-11.1794
▁euros	-11.1794
▁régissant	-11.1794
▁Van	-11.1796
▁menaces	-11.1797
▁ca	-11.1797
▁Cuba	-11.1798
hal	-11.18
▁correction	-11.1801
▁affirme	-11.1803
▁cesse	-11.1804
▁salmon	-11.1806
▁MC	-11.1807
▁ça	-11.1809
▁voulu	-11.1811
▁complémentaires	-11.1812
▁incentives	-11.1819
▁humanitaire	-11.182
▁quelqu	-11.182
og	-11.182
▁âge	-11.1821
▁Egypt	-11.1824
▁apporté	-11.1825
▁vulnérables	-11.1827
nage	-11.1827
influence	-11.1828
2002	-11.1829
agissant	-11.183
▁producing	-11.1831
gé	-11.1831
▁combinaison	-11.1833
ama	-11.1834
▁primaires	-11.184
▁welcomed	-11.1841
▁conduit	-11.1843
▁intervenir	-11.1843
ème	-11.1846
▁finalement	-11.1847
governmental	-11.1851
▁saison	-11.1852
▁minimal	-11.1853
▁jeunesse	-11.1853
▁Industrie	-11.1858
▁Agri	-11.1858
▁clauses	-11.186
▁truly	-11.1865
▁pertinence	-11.1865
▁familiar	-11.1866
▁AM	-11.1866
▁blessures	-11.1867
▁teaching	-11.1871
élève	-11.1873
▁mobilité	-11.1873
▁rejet	-11.1874
▁lists	-11.1875
▁résultant	-11.1879
▁Consequently	-11.1881
▁electricity	-11.1882
General	-11.1882
▁Bell	-11.1883
▁physiques	-11.1884
▁Schengen	-11.1885
▁incidences	-11.1887
▁Return	-11.1889
▁lancement	-11.189
▁SP	-11.1893
▁innovations	-11.1895
▁convaincu	-11.1896
mm	-11.1897
▁sûreté	-11.1898
▁helps	-11.1898
▁municipalités	-11.1903
mi	-11.1903
▁portefeuille	-11.1905
PP	-11.191
▁industriel	-11.191
vin	-11.191
▁considérées	-11.191
▁error	-11.1911
▁vaccine	-11.1911
▁(5)	-11.1912
▁fournies	-11.1913
▁physicians	-11.1914
TION	-11.1914
OCDE	-11.1915
▁secondaires	-11.1918
engager	-11.1919
▁supplement	-11.1921
▁investors	-11.1922
▁labelling	-11.1927
▁Institution	-11.1929
▁credits	-11.193
▁Subsection	-11.1934
are	-11.1937
II	-11.1938
▁regardless	-11.1939
7%	-11.1939
▁définitive	-11.1939
▁rejected	-11.194
▁Resource	-11.1943
Con	-11.1946
▁retirer	-11.1951
▁Réponse	-11.1951
▁exposé	-11.1953
▁Leader	-11.1956
▁offrant	-11.1959
trans	-11.196
▁folklore	-11.1961
▁CL	-11.1961
▁aboriginal	-11.1962
▁PS	-11.1963
▁communicate	-11.1963
▁substantially	-11.1964
▁$5	-11.1965
▁indépendante	-11.1965
▁legitimate	-11.1965
doc	-11.1965
▁Transports	-11.1966
▁informé	-11.1973
▁PAR	-11.1976
▁composantes	-11.1976
▁plaisir	-11.1977
▁reliable	-11.1978
.9	-11.1979
nch	-11.1979
▁semi	-11.1982
▁programmation	-11.1983
▁Language	-11.1984
oma	-11.1985
▁Mor	-11.1988
▁séjour	-11.1988
attente	-11.1993
yer	-11.1995
▁night	-11.1999
▁pur	-11.2
▁covers	-11.2001
arrêt	-11.2002
▁workforce	-11.2003
plan	-11.2007
▁remis	-11.2007
/5	-11.2008
▁incident	-11.2012
interdiction	-11.2013
▁discuté	-11.2014
▁Title	-11.2015
▁capture	-11.2019
▁u	-11.202
ction	-11.202
▁Mc	-11.2032
▁Electronic	-11.2032
▁differ	-11.2033
▁phrase	-11.2033
▁témoins	-11.2033
▁1981	-11.2036
MR	-11.204
▁2001-2002	-11.2041
▁Measures	-11.2042
▁referendum	-11.2045
▁traditionnelle	-11.2048
▁courte	-11.2049
▁RC	-11.205
▁Northwest	-11.2052
VI	-11.2052
▁sexuelle	-11.2053
▁5.1	-11.2055
▁threats	-11.2058
▁civils	-11.2059
RM	-11.2061
▁vin	-11.2063
▁remote	-11.2063
▁91	-11.2065
▁confirmer	-11.2068
▁jouent	-11.2068
▁Place	-11.207
▁Sweden	-11.2071
▁basée	-11.2073
well	-11.2077
▁couvrir	-11.2079
▁formed	-11.2084
▁marche	-11.2084
▁excellence	-11.2085
▁composés	-11.2085
incertitude	-11.2086
▁uncertainty	-11.2087
▁Mi	-11.2089
▁Consultation	-11.2089
▁contaminants	-11.209
▁wood	-11.2091
▁Three	-11.2094
▁déployés	-11.2095
▁ship	-11.2097
▁nucléaires	-11.2099
▁PI	-11.21
▁regulated	-11.21
▁methodology	-11.2103
▁Paragraph	-11.2105
▁TK	-11.2106
ome	-11.2109
▁demi	-11.2111
▁adéquate	-11.2111
▁Declaration	-11.2111
▁significance	-11.2112
én	-11.2114
▁combien	-11.2116
▁douane	-11.2118
▁malheureusement	-11.212
▁Gra	-11.2122
-8	-11.2124
▁teams	-11.2125
▁forest	-11.2125
▁signs	-11.2125
▁slightly	-11.2126
▁reply	-11.2128
▁déduction	-11.213
▁James	-11.2131
▁souci	-11.2131
▁Cap	-11.2133
▁choices	-11.2133
atelier	-11.2135
▁investissement	-11.2139
ule	-11.2139
spir	-11.214
▁feedback	-11.2143
▁reporter	-11.2143
▁invité	-11.2146
▁demeurent	-11.2147
▁MEPs	-11.2149
ord	-11.2151
▁mélange	-11.2152
▁Farm	-11.2153
▁incluant	-11.2154
▁wonder	-11.2157
▁Geneva	-11.2159
▁expanded	-11.2161
▁volontaire	-11.2162
option	-11.2163
▁arising	-11.2163
▁directs	-11.2164
▁RS	-11.2168
▁formulaires	-11.2169
▁disposent	-11.2169
▁attribuable	-11.2171
har	-11.2176
▁Francophone	-11.2176
▁Promotion	-11.2184
élément	-11.2185
▁Arctic	-11.2186
▁conférences	-11.2186
▁Durée	-11.2187
ines	-11.2189
▁licensing	-11.2189
▁fonctionner	-11.2191
pha	-11.2193
▁PAC	-11.2193
nez	-11.2194
▁foi	-11.2194
▁demandeurs	-11.2195
▁Centres	-11.2196
▁precisely	-11.2197
▁tables	-11.22
▁arm	-11.2202
▁su	-11.2202
iii	-11.2204
▁em	-11.2205
▁extérieures	-11.2207
▁camp	-11.2207
▁advisory	-11.2207
▁conformer	-11.2208
▁occurs	-11.221
SF	-11.2212
▁externe	-11.2214
▁attendre	-11.2214
ulation	-11.222
rc	-11.2225
▁Justification	-11.2228
ving	-11.2229
▁contrepartie	-11.223
▁investi	-11.223
▁anticipated	-11.2231
pour	-11.2233
▁rédaction	-11.2235
▁repeat	-11.2235
▁insuffisant	-11.2236
hand	-11.2236
▁reductions	-11.2238
▁3.2	-11.2238
▁Field	-11.2239
▁versement	-11.2241
▁Manager	-11.2242
▁male	-11.2242
▁Within	-11.2242
▁spoke	-11.2242
▁éliminer	-11.2246
▁segment	-11.2249
FP	-11.2252
▁opérationnel	-11.226
agissait	-11.2262
▁fur	-11.2263
economic	-11.2266
▁Black	-11.2266
0%	-11.2268
ieux	-11.227
échantillon	-11.2271
nal	-11.2271
▁composante	-11.2273
opération	-11.2275
▁Every	-11.2276
▁disent	-11.2276
▁courriel	-11.2278
▁willing	-11.2278
▁Dès	-11.228
▁Institut	-11.2281
-23	-11.2282
Prince	-11.2288
▁app	-11.2288
EEC	-11.2295
avance	-11.23
▁tenter	-11.23
od	-11.2301
▁presents	-11.2302
▁voit	-11.2304
▁intitulée	-11.2306
▁pertinent	-11.2308
▁privées	-11.2308
▁Téléphone	-11.2311
▁relevé	-11.2312
▁Design	-11.2312
▁black	-11.2313
oxy	-11.2313
▁Résumé	-11.2316
▁rapporteurs	-11.2317
▁implique	-11.2318
▁Interest	-11.232
▁household	-11.232
▁renewable	-11.2322
▁Impact	-11.2323
PO	-11.2323
fi	-11.2324
▁dessins	-11.2326
ada	-11.2328
▁forêts	-11.2331
▁Games	-11.2333
▁indésirables	-11.2334
▁coalition	-11.2334
▁aérienne	-11.2334
▁reçues	-11.2334
▁handling	-11.2335
▁exclusivement	-11.2335
▁dated	-11.2336
▁WHO	-11.2338
▁fewer	-11.234
exprimer	-11.234
1/	-11.2343
adapter	-11.2345
rou	-11.2345
▁rythme	-11.2345
▁infirmières	-11.2346
▁suffit	-11.2347
PD	-11.2347
▁removal	-11.2348
▁Final	-11.2349
sc	-11.2352
▁CAN	-11.2356
▁defend	-11.236
▁Pay	-11.2361
hr	-11.2361
▁81	-11.2362
CP	-11.2365
▁dépense	-11.2366
isés	-11.2367
SB	-11.2369
▁Suède	-11.2369
▁adaptation	-11.2372
instruction	-11.2375
▁conjointement	-11.2376
▁préparé	-11.2378
TER	-11.2379
▁pain	-11.238
▁validation	-11.2382
AG	-11.2383
▁temperature	-11.2383
▁proche	-11.2384
▁enormous	-11.2385
▁recipients	-11.2386
▁cherche	-11.2386
▁Professional	-11.2389
épargne	-11.239
▁dépit	-11.2394
▁terroristes	-11.2398
lor	-11.2399
▁FR	-11.2399
▁mobility	-11.2402
▁gestionnaire	-11.2406
▁exprimer	-11.2406
▁pool	-11.2407
▁assumer	-11.2407
▁Agence	-11.2408
▁Ph	-11.241
eg	-11.241
▁arise	-11.2413
▁Projects	-11.2413
▁Estimates	-11.2414
▁argent	-11.2415
▁préjudice	-11.2415
yn	-11.2416
▁francophone	-11.2418
▁1995.	-11.2418
▁justifier	-11.2421
DG	-11.2423
▁interaction	-11.2423
▁recognizes	-11.2426
tation	-11.2427
▁securities	-11.2429
▁exactement	-11.2432
▁wind	-11.2432
▁awarded	-11.2432
▁fourth	-11.2434
▁satisfait	-11.2434
cra	-11.2434
▁returned	-11.2434
▁Credit	-11.2437
2/	-11.2438
▁monthly	-11.2438
▁commandes	-11.2438
▁functioning	-11.2439
▁intra	-11.2442
▁pe	-11.2443
▁replacement	-11.2444
MS	-11.2445
▁mixte	-11.2447
pass	-11.2447
▁mondiaux	-11.2453
8%	-11.2455
DO	-11.2456
▁Effective	-11.2457
▁confirmation	-11.2458
instrument	-11.2459
ano	-11.246
▁9.	-11.246
▁Genève	-11.2461
AA	-11.2461
atteinte	-11.2462
▁8,	-11.2464
▁asylum	-11.2466
université	-11.2467
gent	-11.2467
1.	-11.2468
att	-11.2468
▁entière	-11.2469
▁attract	-11.2469
▁quantity	-11.247
▁combler	-11.2471
.5%	-11.2473
▁assignment	-11.2474
▁vendre	-11.2474
▁Documents	-11.2475
INE	-11.2476
▁meant	-11.2477
▁divided	-11.2477
▁lose	-11.2478
venant	-11.2481
3/	-11.2482
issant	-11.2482
Canadian	-11.2484
▁workshops	-11.2485
▁inférieure	-11.2485
▁revenir	-11.2487
▁autorisés	-11.2488
▁PPE	-11.249
▁answers	-11.249
▁comportements	-11.249
▁coordonner	-11.249
wood	-11.2495
▁merely	-11.2495
actions	-11.2496
▁Demande	-11.2498
▁révisé	-11.2498
▁ateliers	-11.2498
iel	-11.2499
▁hier	-11.2499
▁Without	-11.25
▁démocratiques	-11.2501
▁individuels	-11.2506
▁Em	-11.2508
endroit	-11.2511
▁vérificateur	-11.2511
▁Inuits	-11.2511
▁Local	-11.2511
▁intégrés	-11.2515
▁sp	-11.2516
île	-11.2518
▁participe	-11.2518
▁efficacité	-11.2519
▁importer	-11.2519
za	-11.252
Co	-11.2521
pan	-11.2523
tar	-11.2525
▁covering	-11.2525
RP	-11.2527
▁réalisée	-11.2529
nement	-11.2531
field	-11.2531
date	-11.2534
▁fo	-11.2536
▁concrètes	-11.2536
nic	-11.2537
▁ruling	-11.2539
istic	-11.2542
indépendance	-11.2543
▁dotation	-11.2544
tel	-11.2546
▁soumises	-11.2549
▁gr	-11.255
▁croissant	-11.2551
▁visits	-11.2552
-17	-11.2554
▁para	-11.2557
▁argued	-11.2559
lie	-11.256
▁énoncées	-11.2562
▁Bush	-11.2563
▁fumer	-11.2564
▁ressource	-11.2566
▁opened	-11.2566
échelon	-11.257
-16	-11.2571
▁recording	-11.2578
▁teachers	-11.2578
Al	-11.2578
▁comp	-11.2578
group	-11.2579
▁audience	-11.2582
▁gagner	-11.2582
▁procédés	-11.2583
▁Institutions	-11.2584
▁Infrastructure	-11.2585
▁announcement	-11.2587
▁Similarly	-11.2587
7/	-11.2589
▁annexe	-11.2589
▁Ba	-11.259
▁happy	-11.259
▁mm	-11.2591
▁décisionnel	-11.2592
▁Sommet	-11.2593
▁prospérité	-11.2593
▁proactive	-11.2596
▁paying	-11.2598
▁Isra	-11.2598
▁Romania	-11.2598
▁greenhouse	-11.2601
iez	-11.2602
▁extérieur	-11.2603
▁rubrique	-11.2604
▁110	-11.2605
▁dépasse	-11.2606
▁plénière	-11.2608
▁Current	-11.2611
▁conseillers	-11.2613
▁situé	-11.2622
▁vieillissement	-11.2622
ADRC	-11.2624
▁précédemment	-11.2626
▁rétablissement	-11.2627
▁référendum	-11.2628
▁Asian	-11.263
▁Olympic	-11.2633
▁MA	-11.2634
▁08	-11.2634
▁antérieure	-11.2635
ren	-11.2635
▁discussing	-11.2635
▁conciliation	-11.264
ological	-11.2641
AGE	-11.2641
appelant	-11.2644
rd	-11.2644
▁tried	-11.2646
isée	-11.2646
▁échantillon	-11.2649
▁complement	-11.2652
▁NGOs	-11.2653
▁southern	-11.2653
▁taxpayers	-11.2659
▁côte	-11.266
accorder	-11.2663
▁automobile	-11.2665
Pro	-11.2673
▁1.2	-11.2674
rum	-11.2676
▁Territories	-11.2676
▁Measurement	-11.2677
▁Benefits	-11.2683
▁accomplis	-11.2687
lant	-11.2687
▁répondant	-11.2688
▁prête	-11.269
▁entrer	-11.269
▁intensive	-11.2691
▁énoncés	-11.2691
ét	-11.2692
▁réductions	-11.2692
▁brand	-11.2694
▁Aussi	-11.2696
▁medicine	-11.2696
▁noté	-11.2697
▁logiciel	-11.2698
▁EP	-11.2699
▁topics	-11.2699
▁vast	-11.2701
▁suffisante	-11.2703
▁box	-11.2708
▁qualitative	-11.2709
▁administrateurs	-11.2709
ili	-11.2711
▁Previous	-11.2712
▁terminer	-11.2713
▁save	-11.2713
▁centaines	-11.2716
▁woman	-11.2718
▁normale	-11.272
▁logiciels	-11.2723
▁structurels	-11.2724
▁print	-11.2725
▁overview	-11.2727
▁machine	-11.2729
az	-11.2729
▁Monetary	-11.2729
▁Festival	-11.2731
▁saumon	-11.2731
▁russe	-11.2735
ust	-11.2736
▁ro	-11.2742
▁capabilities	-11.2743
▁intentions	-11.2746
▁rédigé	-11.2747
▁examens	-11.2748
▁Recommandation	-11.275
▁farming	-11.2751
care	-11.2754
▁savent	-11.2754
ski	-11.2755
▁Offices	-11.2757
▁CCRA	-11.2761
▁histoire	-11.2762
▁stimuler	-11.2765
fect	-11.2765
▁listes	-11.2766
▁frequency	-11.2766
uses	-11.2767
▁parfaitement	-11.2767
▁estiment	-11.2768
▁navire	-11.2772
BA	-11.2772
▁jugé	-11.2773
▁1992,	-11.2777
▁favorables	-11.2777
▁sides	-11.2779
▁refusé	-11.2781
▁stressed	-11.2781
tens	-11.2782
▁produisent	-11.2782
▁designation	-11.2784
▁pièce	-11.2785
▁recruitment	-11.2788
▁définit	-11.2789
▁historic	-11.2792
▁meets	-11.2793
▁québécois	-11.2795
▁enseignants	-11.2796
▁axé	-11.2797
▁suffisant	-11.2799
▁Palestinian	-11.2805
▁subsequently	-11.2809
▁détaillé	-11.281
▁invités	-11.2811
ef	-11.2811
▁uniform	-11.2815
▁AT	-11.2819
▁deaths	-11.282
▁spectrum	-11.2821
▁primaire	-11.2822
▁connaissent	-11.2824
▁hospitals	-11.2825
▁fraude	-11.2826
▁approfondie	-11.2826
▁5%	-11.2827
▁SERVICES	-11.2828
▁invitation	-11.2829
▁statistique	-11.283
▁crée	-11.283
▁picture	-11.2833
▁déposée	-11.2834
▁Mer	-11.2836
ALE	-11.2838
▁uniforme	-11.2839
▁décharge	-11.2842
▁Devis	-11.2845
▁publiés	-11.2846
▁imposer	-11.2847
inclusion	-11.2847
▁couple	-11.2849
▁dynamic	-11.2849
ral	-11.2851
▁Ver	-11.2851
▁approve	-11.2852
▁destinée	-11.2854
▁showing	-11.2856
▁drop	-11.2859
▁1983	-11.286
▁Disease	-11.2861
▁winter	-11.2864
ker	-11.2864
▁Major	-11.2866
▁Drugs	-11.2866
Organisme	-11.2868
▁treaties	-11.2868
▁historiques	-11.2873
▁authors	-11.2874
▁rejeté	-11.2874
▁transmis	-11.2877
▁survie	-11.2879
2001	-11.2883
lis	-11.2887
▁oui	-11.2888
▁limitation	-11.289
▁object	-11.2891
▁relevance	-11.2893
▁offence	-11.2894
▁serving	-11.2894
▁quelconque	-11.2897
▁réformiste	-11.2898
▁acceptance	-11.2898
▁bit	-11.29
▁enabling	-11.29
▁Belarus	-11.2901
▁savez	-11.2901
expertise	-11.2901
▁égal	-11.2902
▁appliqué	-11.2905
LY	-11.2906
ERS	-11.2906
▁treat	-11.2906
▁Har	-11.2908
▁correctement	-11.2908
▁appliquées	-11.2909
lip	-11.2909
▁cibles	-11.291
▁Overall	-11.2914
éri	-11.2915
▁consultants	-11.2916
▁surrounding	-11.2916
OD	-11.2918
▁syn	-11.2919
▁kinds	-11.292
duc	-11.2924
▁Tobacco	-11.2928
▁kg	-11.2929
bit	-11.2929
▁exporters	-11.293
▁topic	-11.2931
ara	-11.2931
▁dÃ	-11.2938
encourager	-11.2939
où	-11.294
▁gra	-11.294
▁strengthened	-11.2942
▁conflicts	-11.2949
3.	-11.2951
▁colonne	-11.2953
▁11,	-11.2957
▁interim	-11.2964
▁OECD	-11.2965
▁chasse	-11.2967
▁différent	-11.2967
territorial	-11.2968
▁géographiques	-11.2969
▁TB	-11.297
▁Contribution	-11.297
ack	-11.2971
▁nécessite	-11.2971
▁Who	-11.2973
2%	-11.2975
▁Works	-11.2981
▁CIB	-11.2982
▁wealth	-11.2983
▁existant	-11.2984
▁minute	-11.2984
▁détection	-11.2985
▁Roumanie	-11.2987
▁Adresse	-11.2991
▁renseignement	-11.2991
/7	-11.2992
▁earnings	-11.2993
importantes	-11.2994
ax	-11.2996
▁supprimer	-11.2998
nn	-11.2998
▁mother	-11.3001
▁revient	-11.3003
▁manufacture	-11.3004
▁linguistiques	-11.3005
▁catastrophe	-11.3005
▁écologique	-11.3005
▁shape	-11.3011
▁cons	-11.3011
▁ethics	-11.3012
▁Nor	-11.3013
▁sheet	-11.3014
cé	-11.302
▁Conditions	-11.302
dd	-11.3021
▁coordinate	-11.3023
▁Pourtant	-11.303
lev	-11.3031
▁weather	-11.3032
▁subjects	-11.3032
Laurent	-11.3036
▁bassin	-11.3039
▁quota	-11.3041
▁audiences	-11.3041
▁adjustments	-11.3042
▁wage	-11.3043
▁impression	-11.3043
oul	-11.3044
▁fraud	-11.3044
ned	-11.3045
▁opposite	-11.3046
▁highlighted	-11.3047
▁AS	-11.3052
▁accompanied	-11.3055
▁riding	-11.3056
▁delegations	-11.3058
▁band	-11.3058
▁physician	-11.306
trait	-11.306
aménagement	-11.3061
▁modifiant	-11.3061
CM	-11.3062
▁accommodation	-11.3063
▁selling	-11.3065
aries	-11.3066
▁lowest	-11.3067
service	-11.3068
mor	-11.3069
▁emission	-11.307
▁suffering	-11.3072
issement	-11.3074
▁banking	-11.3074
▁associée	-11.3075
▁Good	-11.3076
DU	-11.3079
▁proof	-11.3079
ifier	-11.3079
▁donnant	-11.3085
▁fournitures	-11.3086
▁spécialisés	-11.3089
ther	-11.3089
▁indirect	-11.3089
▁organisée	-11.309
▁contracting	-11.309
▁soldats	-11.3092
▁harmonisation	-11.3098
GR	-11.3101
▁enterprise	-11.3101
EA	-11.3103
-25	-11.3104
▁specialized	-11.3105
oud	-11.3106
▁joindre	-11.3109
▁consulted	-11.311
▁Bra	-11.311
▁traduit	-11.3111
ç	-11.3112
▁Kenya	-11.3113
▁remarquable	-11.3114
▁Wood	-11.3116
▁Outre	-11.312
autonomie	-11.3123
▁integrate	-11.3124
▁producteur	-11.3124
▁réjouis	-11.3124
▁pharmaceutiques	-11.3127
▁communiqué	-11.3132
▁rouge	-11.3133
▁Mal	-11.3133
▁http	-11.3134
▁Italian	-11.3137
▁lease	-11.3138
▁locations	-11.3139
head	-11.3141
▁Tariff	-11.3142
▁exécutif	-11.3142
▁Payments	-11.3146
▁Harbour	-11.3147
▁4.2	-11.3149
éré	-11.3149
rent	-11.3149
▁supplier	-11.3151
▁rappel	-11.3154
▁recourir	-11.3157
▁presidency	-11.3158
▁south	-11.316
top	-11.3163
▁universal	-11.3163
section	-11.3166
▁feature	-11.3167
▁ice	-11.317
▁executive	-11.317
ets	-11.3171
▁faillite	-11.3172
▁Bur	-11.3173
▁competence	-11.3174
▁intend	-11.3175
-22	-11.3176
▁07	-11.3177
▁greatly	-11.3179
house	-11.3182
pl	-11.3182
▁preventing	-11.3183
▁saine	-11.3184
▁péril	-11.3185
▁evaluated	-11.3185
▁zero	-11.3187
▁allégations	-11.3187
/11	-11.319
▁inclusive	-11.319
▁Conservation	-11.3191
▁tangible	-11.3194
▁Hill	-11.3196
▁grandement	-11.3197
▁envoyé	-11.3198
▁calculation	-11.3199
-31	-11.3199
▁suggestion	-11.3202
(5)	-11.3202
▁1960	-11.3202
▁retrouve	-11.3203
▁Fraser	-11.3203
▁renvoi	-11.3204
▁vendeur	-11.3204
▁visites	-11.3205
▁prescription	-11.3207
▁entrée	-11.321
▁progression	-11.321
▁divisions	-11.321
intégrer	-11.3213
500	-11.3215
ploy	-11.3216
Édouard	-11.3217
▁vaccination	-11.3217
NI	-11.3218
ost	-11.3219
▁sentence	-11.3221
ear	-11.3223
ita	-11.3224
▁filles	-11.3224
▁répondent	-11.3225
pol	-11.3227
▁Instead	-11.3229
▁owners	-11.323
▁chemicals	-11.3231
▁similaire	-11.3235
▁réelles	-11.3236
▁courrier	-11.3236
▁character	-11.3238
MI	-11.3239
▁élu	-11.3239
▁ju	-11.3241
▁revanche	-11.3241
▁attacks	-11.3241
▁aged	-11.3241
▁External	-11.3243
▁délivrance	-11.3244
ari	-11.3244
▁favorise	-11.3247
▁Technologies	-11.3248
dia	-11.325
▁700	-11.3252
▁esprit	-11.3252
▁calendar	-11.3254
▁occupational	-11.3255
▁players	-11.3255
▁Departmental	-11.3258
▁District	-11.3259
▁internet	-11.3261
▁driving	-11.3263
▁meat	-11.3266
▁contractante	-11.3266
▁Volume	-11.3268
4/	-11.3269
ères	-11.3269
▁negotiating	-11.3269
titu	-11.3269
▁morale	-11.327
▁déplacement	-11.3273
▁récolte	-11.3275
▁Ber	-11.3275
▁IDRC	-11.3276
▁laboratoires	-11.3277
▁Participation	-11.3277
▁myself	-11.3278
other	-11.328
▁rendus	-11.3281
▁bénéficient	-11.3283
▁green	-11.3283
▁devenue	-11.3285
▁poll	-11.3285
▁fallait	-11.3287
▁2015	-11.329
▁residential	-11.3293
▁4)	-11.3293
▁magazine	-11.3296
ats	-11.3296
water	-11.3297
LI	-11.3298
▁versé	-11.3298
▁appris	-11.3299
▁parental	-11.33
tons	-11.3301
▁cl	-11.3302
▁tableaux	-11.3302
▁Li	-11.3303
▁toxiques	-11.3303
▁lessons	-11.3304
▁qualify	-11.3305
▁admis	-11.3308
▁symptômes	-11.3311
eaux	-11.3312
▁column	-11.3312
▁obviously	-11.3312
▁cohérence	-11.3313
▁leçons	-11.3314
▁ve	-11.3315
▁definitions	-11.3317
▁11.	-11.3318
▁therapy	-11.3319
▁Rapporteur	-11.332
▁complexité	-11.3322
▁Supreme	-11.3324
▁Learning	-11.3325
▁rencontrer	-11.3325
▁mou	-11.3325
▁contingent	-11.3327
wer	-11.3328
▁paquet	-11.3329
agence	-11.3331
expiration	-11.3334
▁motivation	-11.3335
ché	-11.3337
▁Rural	-11.3338
ala	-11.334
▁capables	-11.3342
duction	-11.3347
▁Ten	-11.335
▁white	-11.3352
▁Ste	-11.3352
▁rivière	-11.3352
▁resolved	-11.3357
▁rendue	-11.3358
rit	-11.3359
voy	-11.336
▁introduit	-11.3361
▁diabète	-11.3361
▁mouvements	-11.3363
▁Richard	-11.3364
armée	-11.3367
▁terrorist	-11.3368
with	-11.3368
▁gone	-11.337
▁entraîne	-11.3374
▁Background	-11.3375
▁accountable	-11.3376
ata	-11.3381
ble	-11.3384
▁respecting	-11.3384
▁fast	-11.3385
è	-11.3385
tage	-11.3387
ajouter	-11.3388
échantillonnage	-11.3388
▁chargés	-11.3389
-21	-11.339
▁générations	-11.3397
▁oblige	-11.3398
▁crops	-11.3399
▁Allemagne	-11.34
él	-11.34
hiver	-11.3402
▁tarifaire	-11.3402
board	-11.3403
ture	-11.3404
HO	-11.3404
▁restructuration	-11.3405
étique	-11.3405
gy	-11.3407
▁suffer	-11.3408
▁possibly	-11.3411
▁vent	-11.3412
▁waiting	-11.3414
▁exhaustive	-11.3416
▁AB	-11.3419
▁rising	-11.3419
▁fleet	-11.3421
▁citoyen	-11.3425
gin	-11.3429
Iran	-11.3431
aw	-11.3432
▁Young	-11.3434
▁guarantees	-11.3434
▁Four	-11.3436
issue	-11.3438
▁événement	-11.3439
▁respecte	-11.344
▁Road	-11.3441
▁réagir	-11.3442
▁sh	-11.3442
Industrie	-11.3444
▁renouvelables	-11.3444
▁asset	-11.3444
▁declared	-11.3445
▁pertinente	-11.3449
▁OU	-11.345
▁laissé	-11.3453
▁bateaux	-11.3453
page	-11.3461
▁correspondent	-11.3462
▁Just	-11.3464
▁wine	-11.3464
▁précision	-11.3465
▁riches	-11.3466
▁payés	-11.3466
▁perdre	-11.3467
▁annonce	-11.3467
just	-11.3468
avancement	-11.3468
▁bilingual	-11.3469
▁feront	-11.347
▁Record	-11.3473
4)	-11.3476
▁com	-11.3476
▁developmental	-11.348
▁conviction	-11.3481
▁espérons	-11.3482
▁volunteer	-11.3485
▁journaux	-11.3486
▁seed	-11.3487
▁properties	-11.3487
▁societies	-11.3489
▁reactions	-11.3492
euses	-11.3492
▁touchent	-11.3492
▁simplification	-11.3495
avantage	-11.3496
ym	-11.3496
▁milk	-11.3496
▁légèrement	-11.3498
▁Quoi	-11.35
▁ménages	-11.35
▁récents	-11.3501
▁Civil	-11.3501
▁describes	-11.3504
anglais	-11.3509
▁décennies	-11.3509
ides	-11.3509
▁gaps	-11.3512
▁publicly	-11.3516
▁tire	-11.3516
▁highlight	-11.3517
▁pharmaceutical	-11.3518
gal	-11.3518
▁réels	-11.3518
▁construire	-11.3521
▁Planned	-11.3523
actif	-11.3527
▁Smith	-11.3529
▁Contributions	-11.3529
▁customer	-11.353
▁entités	-11.3532
▁himself	-11.3533
▁drive	-11.3533
▁avancer	-11.3535
▁salle	-11.3538
VE	-11.3541
▁appartenant	-11.3543
▁détenus	-11.3543
▁Votre	-11.3547
▁dommage	-11.3549
attendre	-11.355
▁holder	-11.3551
▁intérieure	-11.3551
Québec	-11.3551
▁lit	-11.3551
▁extérieure	-11.3552
OM	-11.3552
▁définitions	-11.3555
▁formulées	-11.3557
▁Tra	-11.3559
▁respected	-11.3559
tier	-11.356
lot	-11.3563
édition	-11.3564
▁Res	-11.3565
▁solely	-11.3565
▁contiennent	-11.3568
▁fondement	-11.3571
▁WO	-11.3575
▁Inspection	-11.3577
▁croit	-11.3578
▁inside	-11.3583
▁Activity	-11.3585
▁criminel	-11.3587
▁reconnus	-11.3588
invention	-11.3589
▁leaving	-11.359
▁profondeur	-11.359
▁contraintes	-11.3591
▁fresh	-11.3594
▁brings	-11.3595
▁citoyenneté	-11.3601
▁marked	-11.3601
▁viabilité	-11.3602
▁decreased	-11.3603
▁bid	-11.3605
▁employ	-11.3607
▁essentially	-11.3609
▁phone	-11.3611
cu	-11.362
ric	-11.3623
▁bis	-11.3624
▁obligatoires	-11.3624
▁enhancing	-11.3625
ima	-11.3625
▁raising	-11.3626
▁running	-11.3626
▁tarifs	-11.3627
▁RÉ	-11.3627
aller	-11.3629
▁Equipment	-11.3634
put	-11.3635
▁Goods	-11.3635
▁9,	-11.3636
▁calculate	-11.3637
mission	-11.3637
▁Métis	-11.3639
▁organised	-11.364
▁motif	-11.364
agisse	-11.3644
▁négocier	-11.3645
▁protocol	-11.3645
▁mining	-11.3645
▁tiendra	-11.3646
▁Chairman	-11.3647
▁Third	-11.3648
Australie	-11.3649
▁Nisga	-11.3652
▁30,	-11.3654
active	-11.3655
▁middle	-11.3657
▁fairly	-11.3658
TO	-11.3661
▁permits	-11.3661
▁count	-11.3666
▁planète	-11.3666
▁ren	-11.3667
▁bâtiment	-11.3667
▁insufficient	-11.367
▁holders	-11.3672
▁Structure	-11.3675
▁cuts	-11.3684
▁Titre	-11.3685
▁deduction	-11.3685
▁branch	-11.3686
unanimité	-11.3686
▁flag	-11.3688
▁radical	-11.3692
eng	-11.3693
ali	-11.3694
▁DND	-11.3695
exigence	-11.3698
▁cru	-11.3698
riv	-11.37
▁grade	-11.3701
▁Registration	-11.3702
▁latine	-11.3703
▁won	-11.3703
▁horizontal	-11.3706
rai	-11.3707
▁Autre	-11.3708
▁leads	-11.3709
▁arms	-11.371
▁Da	-11.371
▁justified	-11.3713
▁couvre	-11.3714
sé	-11.3717
▁apport	-11.3719
▁formé	-11.3721
▁jointly	-11.3728
▁trained	-11.3729
▁Poland	-11.3729
▁convinced	-11.373
▁1999-2000	-11.373
▁inadequate	-11.3731
▁Military	-11.3732
▁Should	-11.3732
▁simples	-11.3732
▁joined	-11.3733
TP	-11.3734
▁réside	-11.3736
▁cité	-11.3736
▁Specific	-11.3737
▁Power	-11.3743
▁anglaise	-11.3744
▁focuses	-11.3744
▁gouverneur	-11.3747
▁entrevues	-11.3748
▁Funds	-11.375
▁adopting	-11.3754
▁criticism	-11.3755
▁maisons	-11.3756
accroissement	-11.3757
▁granting	-11.3757
▁francs	-11.3759
sol	-11.3759
▁opérationnelle	-11.376
▁typically	-11.3762
tive	-11.3762
acceptation	-11.3765
▁phases	-11.3767
class	-11.3769
▁volumes	-11.377
▁situés	-11.3771
Agency	-11.3773
▁remarks	-11.3773
hu	-11.3775
▁Award	-11.3776
▁régie	-11.3776
▁powerful	-11.3778
▁professeur	-11.3779
▁select	-11.378
▁oiseaux	-11.378
▁spouse	-11.3782
▁flexibilité	-11.3782
▁dispositif	-11.3787
SR	-11.3787
▁financé	-11.3788
▁Quelle	-11.3794
▁ministérielle	-11.3795
ini	-11.3795
site	-11.3797
▁chimique	-11.3798
▁Distribution	-11.3799
mont	-11.3802
▁Gi	-11.3803
▁régulière	-11.3806
▁Mt	-11.3809
▁Competition	-11.3809
tting	-11.3809
▁director	-11.3812
▁Overview	-11.3818
rice	-11.3818
▁versées	-11.3818
cy	-11.3822
▁cesser	-11.3827
gouvernementale	-11.3828
▁forget	-11.3828
wing	-11.383
▁Voices	-11.383
▁1.3	-11.3833
▁deviennent	-11.3834
▁patents	-11.3837
▁entering	-11.3838
Les	-11.3838
▁bond	-11.3839
▁ministériels	-11.384
▁safeguard	-11.3841
▁paie	-11.3842
▁Permettez	-11.3844
▁nettement	-11.3846
▁engineering	-11.3846
▁débit	-11.3848
▁coeur	-11.3848
atrice	-11.3848
▁récent	-11.385
▁PCH	-11.3851
▁Examen	-11.3851
union	-11.3853
ado	-11.3853
▁constamment	-11.3855
▁processed	-11.3856
▁américaines	-11.3856
▁happening	-11.386
▁SCP	-11.386
▁evident	-11.3861
▁cod	-11.3861
▁atlantique	-11.3862
▁Israeli	-11.3864
tribu	-11.3866
▁plate	-11.3866
▁Nice	-11.3868
▁comptabilité	-11.387
(3)	-11.387
▁achats	-11.387
exercer	-11.3872
▁bref	-11.3874
4-0	-11.3874
rant	-11.3876
▁CS	-11.3876
▁amending	-11.3878
▁considérations	-11.3879
▁Multi	-11.3881
▁attended	-11.3882
▁deep	-11.3882
▁journalistes	-11.3883
CD	-11.3887
▁Ceux	-11.3889
▁beneficial	-11.3891
▁théorie	-11.3891
▁juges	-11.3894
▁acquire	-11.3894
▁intelligence	-11.3895
▁publiée	-11.3896
▁rappelé	-11.3898
▁facilité	-11.3898
▁prévoient	-11.3899
▁instituts	-11.3901
▁charity	-11.3902
▁judgment	-11.3904
▁grossesse	-11.3904
▁appeared	-11.3905
▁marqué	-11.3908
▁Draft	-11.3908
▁liquid	-11.3908
▁approuvés	-11.3909
▁inquiry	-11.3911
8/	-11.3912
▁Manufacturing	-11.3915
▁intérieures	-11.3915
▁log	-11.3916
▁appreciate	-11.3916
▁judge	-11.3918
▁substantive	-11.3918
▁Vote	-11.3919
▁Merci	-11.392
▁varie	-11.392
▁saisir	-11.3921
▁Gar	-11.3924
▁élargi	-11.3924
▁compete	-11.3927
▁whatever	-11.3927
Ukraine	-11.3928
▁ill	-11.3929
▁précédentes	-11.3929
▁functional	-11.393
▁Ser	-11.393
▁unions	-11.3931
engage	-11.3932
▁Val	-11.3932
▁(6	-11.3934
▁tentative	-11.3934
termin	-11.3936
▁comprenant	-11.3937
▁pensons	-11.3943
▁perceived	-11.3943
▁Décision	-11.3943
▁Chapitre	-11.3948
▁Priorities	-11.3949
▁credibility	-11.3955
▁Asie	-11.3955
▁rely	-11.3958
▁quasi	-11.3961
ves	-11.3961
▁confrontés	-11.3964
▁ronde	-11.3964
▁requérant	-11.3964
▁provider	-11.3967
▁exporter	-11.3968
▁bâtiments	-11.3969
▁investigate	-11.3969
aurait	-11.3974
▁practitioners	-11.3975
ANCE	-11.3976
▁combattre	-11.3977
gén	-11.3977
▁soin	-11.3977
▁versions	-11.398
▁inclut	-11.398
-24	-11.398
LC	-11.3981
▁entities	-11.3981
▁Cor	-11.3982
▁fixation	-11.3983
▁envoyer	-11.3987
▁Cr	-11.3989
ella	-11.399
▁traitées	-11.399
▁seeks	-11.3992
▁NAFTA	-11.3992
wi	-11.3993
inscrit	-11.3994
▁sortie	-11.3996
▁compléter	-11.3997
▁Basic	-11.3999
▁décrire	-11.4001
▁fi	-11.4004
▁coopératives	-11.4005
▁colour	-11.4006
▁infractions	-11.4007
sch	-11.4007
▁Coast	-11.4008
▁naturellement	-11.401
▁cm	-11.4011
long	-11.4012
▁1991,	-11.4013
bin	-11.4014
ular	-11.4016
▁autorité	-11.4016
▁CAP	-11.4016
month	-11.4017
▁Out	-11.4018
▁genuine	-11.402
met	-11.4021
▁Christian	-11.4027
▁Vol	-11.4028
▁mo	-11.4028
▁civilian	-11.4032
▁exigent	-11.4035
▁advantages	-11.4036
▁dirigé	-11.4037
▁Applications	-11.404
▁père	-11.4041
▁explanation	-11.4042
▁output	-11.4042
▁visitors	-11.4042
▁durables	-11.4043
▁Institutes	-11.4044
▁volunteers	-11.405
▁diplôme	-11.4051
-28	-11.4052
▁précisé	-11.4052
▁Sha	-11.4055
DD	-11.4059
▁évalué	-11.4059
▁macro	-11.406
lus	-11.4061
▁negotiation	-11.4065
ATIONS	-11.4067
▁Mediterranean	-11.4068
▁Pierre	-11.4069
autant	-11.4069
▁projections	-11.4072
▁champs	-11.4073
▁dépôts	-11.4074
▁aidera	-11.4075
▁indicating	-11.4081
▁extraordinaire	-11.4081
avais	-11.4082
▁Sal	-11.4086
▁fail	-11.4086
▁gauche	-11.4088
▁recouvrement	-11.4092
▁cohérente	-11.4092
OT	-11.4094
▁cessation	-11.4096
▁mono	-11.4096
▁opérationnels	-11.4098
▁manifeste	-11.41
▁bientôt	-11.4101
▁linguistic	-11.4101
▁Box	-11.4101
rated	-11.4102
food	-11.4103
ges	-11.4103
▁Te	-11.4104
▁Library	-11.4104
▁citizenship	-11.4105
étiquette	-11.4108
▁CRDI	-11.4108
▁Trois	-11.4109
▁recognise	-11.4109
▁ambitious	-11.4109
▁immédiate	-11.411
▁15,	-11.4115
▁obtaining	-11.4118
ACIA	-11.4121
habitation	-11.4123
▁terrible	-11.4123
▁denied	-11.4125
▁habitats	-11.4127
▁salubrité	-11.4128
▁cotisation	-11.4128
▁Format	-11.413
èrent	-11.4133
▁Regulatory	-11.4133
EF	-11.4134
▁injection	-11.4137
▁crédibilité	-11.4138
▁CIC	-11.4141
▁bottom	-11.4142
▁infraction	-11.4142
gouvernementales	-11.4148
▁Berlin	-11.415
LD	-11.4151
▁vérifications	-11.4151
▁references	-11.4152
▁Pologne	-11.4153
▁probabilité	-11.4153
▁demographic	-11.4153
▁versés	-11.4154
▁Clinical	-11.4157
▁aquaculture	-11.4159
▁opération	-11.4161
ajustement	-11.4161
igne	-11.4162
▁reaching	-11.4162
gre	-11.4162
▁Spending	-11.4164
▁officiellement	-11.4165
struct	-11.4165
▁Pan	-11.4166
identifier	-11.4167
▁pl	-11.4169
▁politicians	-11.417
▁pourrons	-11.4171
▁Pas	-11.4173
▁mentionnés	-11.4173
▁breast	-11.4176
cré	-11.4177
new	-11.4182
▁Fax	-11.4183
▁qualifiée	-11.4183
▁mix	-11.4183
▁clos	-11.4184
ÉE	-11.4184
▁raisonnables	-11.4184
▁ships	-11.4186
▁Lo	-11.4196
▁expressément	-11.42
▁Accordingly	-11.4201
▁databases	-11.4201
HC	-11.4202
▁établissant	-11.4202
▁consulté	-11.4203
▁trafficking	-11.4203
▁anniversaire	-11.4204
▁falls	-11.4204
▁scolaires	-11.4206
▁sommaire	-11.4206
▁continué	-11.4207
arrivée	-11.421
verbal	-11.421
▁wider	-11.4211
ati	-11.4212
▁Sources	-11.4213
▁directors	-11.4213
press	-11.4215
▁metal	-11.4215
▁postal	-11.4217
Ch	-11.4218
▁définies	-11.4219
▁symptoms	-11.4219
▁exposition	-11.4222
▁mariage	-11.4223
aliments	-11.4224
▁threshold	-11.4224
ues	-11.4228
▁1979	-11.4229
▁tensions	-11.423
EE	-11.4231
TH	-11.4232
ering	-11.424
▁stands	-11.4243
▁withdrawal	-11.4244
▁décide	-11.4247
▁Recommendations	-11.4248
▁réunir	-11.4248
▁Band	-11.4248
▁veille	-11.425
▁consacrer	-11.4254
▁playing	-11.4257
ough	-11.4257
▁sensibiliser	-11.4262
▁ignore	-11.4263
▁weak	-11.4263
▁RRSP	-11.4263
▁fibres	-11.4265
2008	-11.4265
▁overcome	-11.4266
▁combustion	-11.4267
▁réputé	-11.4269
▁Prix	-11.4272
▁Territoires	-11.4274
cin	-11.4276
▁tr	-11.4276
entendre	-11.4276
▁poursuit	-11.4277
▁corriger	-11.4277
▁assumed	-11.4277
▁refuser	-11.4277
▁Ac	-11.4279
importants	-11.4279
▁unfair	-11.428
arc	-11.4283
▁époque	-11.4285
/2006	-11.4285
▁dessin	-11.4285
cho	-11.4285
occuper	-11.4285
vision	-11.4286
▁hautement	-11.4286
▁signes	-11.429
rage	-11.4294
ori	-11.4294
▁saisie	-11.4295
▁AC	-11.4295
▁Bu	-11.4297
▁ministériel	-11.4299
enne	-11.43
▁majeur	-11.43
▁pratiquement	-11.43
▁investir	-11.4301
chloro	-11.4303
▁insist	-11.4308
risk	-11.4309
▁vit	-11.4309
abri	-11.4313
▁Pi	-11.4314
▁Real	-11.4314
▁ver	-11.4316
▁toxicity	-11.4316
▁billets	-11.4319
gie	-11.432
▁bound	-11.432
LS	-11.432
▁Cross	-11.4321
▁dons	-11.4324
▁Grants	-11.4324
▁terminal	-11.4326
▁possèdent	-11.4326
▁consistency	-11.4327
▁mL	-11.4329
▁Sommaire	-11.433
ttes	-11.4331
▁ecological	-11.4331
▁homes	-11.4331
▁Bull	-11.4332
▁marquée	-11.4333
▁Add	-11.4334
tax	-11.4334
uv	-11.4334
▁deadline	-11.4335
▁yield	-11.4337
▁exact	-11.4337
▁Request	-11.4339
étudier	-11.4342
ignant	-11.4342
▁succeed	-11.4343
▁mentionner	-11.4345
▁rendent	-11.4345
▁désigne	-11.4347
appareil	-11.435
▁hit	-11.4352
▁Lignes	-11.4353
▁Parks	-11.4353
▁Enter	-11.4354
▁revêt	-11.4356
▁soutenue	-11.4358
▁sols	-11.4359
ites	-11.436
UC	-11.436
▁preserve	-11.4361
ull	-11.4363
▁minimize	-11.4363
▁Ri	-11.4364
▁spécialement	-11.4365
su	-11.4365
▁totally	-11.4366
government	-11.4367
▁2010.	-11.4367
tir	-11.4368
▁litige	-11.4368
▁stockage	-11.4373
▁consequence	-11.4373
▁generations	-11.4375
▁judiciaires	-11.4376
▁railway	-11.4376
tech	-11.4377
▁chart	-11.4379
▁sensibles	-11.4379
▁File	-11.438
▁Climate	-11.4381
▁counselling	-11.4381
light	-11.4382
▁fixés	-11.4384
mal	-11.4386
▁numéros	-11.4387
▁athlètes	-11.4387
▁fighting	-11.439
▁CI	-11.4396
▁hoc	-11.4396
▁Ethics	-11.4396
▁dissemination	-11.4397
▁intégrante	-11.4399
▁relèvent	-11.4401
▁awards	-11.4401
bb	-11.4402
▁proviennent	-11.4402
▁compounds	-11.4405
▁plomb	-11.4405
ayant	-11.4406
▁Exchange	-11.4406
▁frame	-11.4407
place	-11.4407
▁Quelles	-11.4408
▁Up	-11.4408
▁étudié	-11.441
▁capability	-11.4412
▁travaillant	-11.4415
▁iron	-11.4415
▁Activités	-11.4416
▁Retour	-11.4417
agrément	-11.4422
▁armed	-11.4423
▁creative	-11.4423
CT	-11.4424
▁intake	-11.4425
▁na	-11.4428
▁Elections	-11.4429
ives	-11.4429
▁vite	-11.443
▁acknowledge	-11.4433
▁collections	-11.4434
▁extreme	-11.4434
▁pénale	-11.4435
▁passenger	-11.4436
▁poursuivi	-11.4437
▁piece	-11.4438
▁display	-11.4439
ake	-11.444
ition	-11.444
▁prosperity	-11.4441
▁cooperative	-11.4443
▁widespread	-11.4447
▁atteintes	-11.4447
▁meaningful	-11.4448
ENCE	-11.4448
▁Analyse	-11.4449
▁deals	-11.445
▁5.2	-11.4451
▁bancaire	-11.4451
makers	-11.4452
▁sida	-11.4452
right	-11.4453
▁Emergency	-11.4455
▁décrites	-11.4456
▁courante	-11.4456
▁Next	-11.4456
▁advised	-11.4457
Article	-11.4463
rt	-11.4468
▁Well	-11.4472
▁Countries	-11.4473
▁Agricultural	-11.4475
▁DNA	-11.4475
cus	-11.4479
▁tellement	-11.4483
▁(7	-11.4485
▁attach	-11.4488
▁venture	-11.449
aille	-11.4492
▁Durant	-11.4492
▁talks	-11.4495
▁trouble	-11.4499
espoir	-11.45
oo	-11.4503
king	-11.4504
▁infringement	-11.4504
▁Commercial	-11.4506
▁earned	-11.4509
▁Compliance	-11.4509
▁accéder	-11.451
adi	-11.4512
erie	-11.4513
▁vouloir	-11.4513
dition	-11.4516
▁amélioré	-11.4516
▁TOTAL	-11.4517
CNRC	-11.4518
▁portfolio	-11.4518
▁carrier	-11.4519
▁Search	-11.4519
▁dépasser	-11.4519
▁disputes	-11.452
née	-11.452
▁citer	-11.4521
▁connected	-11.4521
▁protégés	-11.4522
▁1994.	-11.4524
▁parameters	-11.4524
nent	-11.4526
▁speakers	-11.4527
▁Telephone	-11.4529
▁Japanese	-11.453
▁vaccins	-11.4532
bar	-11.4536
▁orale	-11.4536
▁commit	-11.4537
▁revealed	-11.4538
▁Courriel	-11.4538
▁Then	-11.4539
▁Conclusion	-11.4545
▁campagnes	-11.4546
accessibilité	-11.4552
comme	-11.4552
▁Auditor	-11.4555
▁receives	-11.4555
type	-11.4555
▁publier	-11.4557
hépatite	-11.4557
▁intense	-11.456
▁retenue	-11.456
▁comportant	-11.4561
▁wrote	-11.4561
▁Irish	-11.4561
▁Opportunities	-11.4563
▁12,	-11.4563
▁intends	-11.4567
emballage	-11.4568
dict	-11.4569
1,	-11.4569
ration	-11.457
med	-11.4573
▁conjunction	-11.4573
affectation	-11.4577
GO	-11.4578
▁acute	-11.4578
▁génie	-11.4579
▁fulfil	-11.4579
▁approuvée	-11.458
▁turned	-11.458
attaquer	-11.4581
▁recensement	-11.4581
▁registres	-11.4581
▁statutory	-11.4583
▁Memorandum	-11.4583
▁stem	-11.4584
▁députée	-11.4584
ACDI	-11.4585
pin	-11.4585
▁mutuelle	-11.4585
▁souplesse	-11.4585
▁Test	-11.4585
▁conform	-11.4587
faire	-11.4587
▁problématique	-11.459
▁survival	-11.459
uve	-11.4591
▁consultant	-11.4591
▁Requirements	-11.4592
▁limitées	-11.4592
▁fermeture	-11.4595
▁aidé	-11.4595
▁ajoute	-11.4596
▁cited	-11.4599
▁Perhaps	-11.4599
▁soumise	-11.46
President	-11.4601
▁nurses	-11.4601
▁mène	-11.4602
atory	-11.4603
▁retenues	-11.4603
▁allocations	-11.4604
▁Release	-11.4604
▁transformer	-11.4606
▁prioritaire	-11.4607
naire	-11.4607
lon	-11.461
▁organiser	-11.4611
▁Européens	-11.4612
▁Firstly	-11.4614
▁hour	-11.4616
▁Using	-11.4617
▁maîtrise	-11.462
MT	-11.462
▁pilotes	-11.4623
▁penalties	-11.4625
▁Resolution	-11.4626
▁looked	-11.4626
▁Environ	-11.4626
▁constitutes	-11.4626
aura	-11.4628
▁minorité	-11.4629
▁rapportant	-11.4631
▁pattern	-11.4632
▁guaranteed	-11.4633
ault	-11.4634
▁appelée	-11.4634
apparition	-11.4635
▁Its	-11.4636
CB	-11.4636
▁adequately	-11.4638
dra	-11.4639
▁oublier	-11.4639
glo	-11.464
▁negotiated	-11.4641
▁visual	-11.4643
▁Computer	-11.4643
logy	-11.4645
▁subir	-11.4646
▁subsidy	-11.4648
▁supérieures	-11.4648
▁Rock	-11.4648
6/	-11.465
EUR	-11.4651
▁adresse	-11.4654
▁reçue	-11.4655
▁détaillées	-11.4656
▁vaut	-11.4659
▁MM	-11.4659
▁LTD	-11.4661
▁returning	-11.4662
bas	-11.4663
▁douce	-11.4664
▁Session	-11.4665
▁considerably	-11.4667
▁Ke	-11.4669
▁développés	-11.4672
uter	-11.4675
▁donor	-11.4678
ying	-11.4679
▁achievements	-11.4679
▁eastern	-11.4681
▁bridge	-11.4681
▁municipalities	-11.4684
huile	-11.4686
▁lands	-11.4687
▁%).	-11.4687
▁agit	-11.4688
▁cher	-11.4688
▁lies	-11.4689
AU	-11.469
▁proposing	-11.4695
▁consistently	-11.4702
▁comptables	-11.4702
▁owned	-11.4704
ÉS	-11.4704
▁raw	-11.4704
élevage	-11.4706
arch	-11.4706
▁pencher	-11.4708
▁touchés	-11.4709
▁fumée	-11.4709
▁appartient	-11.471
logie	-11.4713
▁AD	-11.4713
▁espace	-11.4716
▁prevalence	-11.4718
▁warrant	-11.472
▁concevoir	-11.4721
▁espèce	-11.4722
▁drawing	-11.4722
▁manual	-11.4725
ea	-11.4728
▁125	-11.473
▁éventuellement	-11.4731
▁annuelles	-11.4733
▁amongst	-11.4733
▁ordinary	-11.4733
▁wheat	-11.4736
▁ISO	-11.4738
ances	-11.4738
▁Prairies	-11.4739
▁MDN	-11.474
▁Barroso	-11.474
▁délibérations	-11.4741
▁born	-11.4742
estimation	-11.4742
▁spatiale	-11.4744
▁Open	-11.4745
▁systematic	-11.4745
lier	-11.475
acquitter	-11.4751
▁posent	-11.4751
▁Jan	-11.4751
▁remarque	-11.4752
▁catch	-11.4753
pot	-11.4755
▁command	-11.4756
▁dangereuses	-11.4758
▁IMF	-11.4758
▁biotechnology	-11.4759
▁recommends	-11.4759
▁employeur	-11.4759
UD	-11.476
▁25%	-11.4761
▁prenant	-11.4763
▁manager	-11.4765
▁40%	-11.4766
▁tension	-11.4766
▁Growth	-11.4768
▁ba	-11.477
▁Regina	-11.4772
▁particules	-11.4772
▁100%	-11.4774
▁protein	-11.4775
pp	-11.4776
▁renferme	-11.4779
▁2.3	-11.478
▁Doha	-11.4782
▁Liberals	-11.4784
▁quotidienne	-11.4785
2006	-11.4786
▁renforcé	-11.479
▁ferroviaire	-11.4793
dent	-11.4795
▁libellé	-11.4796
▁proven	-11.4797
ika	-11.4797
▁compétente	-11.4798
▁branches	-11.4798
Irlande	-11.4801
▁Leur	-11.4802
▁Proposal	-11.4802
▁MP	-11.4803
▁réduite	-11.4804
ight	-11.4806
IB	-11.4808
▁carburant	-11.4812
▁Electoral	-11.4812
▁affects	-11.4812
▁descriptions	-11.4813
▁Treatment	-11.4815
▁magazines	-11.4815
▁Programmes	-11.4816
▁candidature	-11.4818
▁friend	-11.4819
▁happens	-11.4821
▁parallel	-11.4821
▁considèrent	-11.4821
▁passengers	-11.4823
▁commande	-11.4823
like	-11.4824
▁talent	-11.4825
▁décennie	-11.4825
▁Ru	-11.4827
▁véritablement	-11.4831
▁issus	-11.4832
EV	-11.4833
▁integral	-11.4833
sp	-11.4837
bra	-11.4838
▁Bangladesh	-11.4844
▁hauteur	-11.4844
▁»)	-11.4845
▁predict	-11.4845
▁chief	-11.4845
▁déterminées	-11.4846
▁conserve	-11.4852
▁SCIT	-11.4854
▁sortir	-11.4857
▁racisme	-11.4857
▁audits	-11.4857
▁AP	-11.4858
▁heat	-11.4859
▁reviewing	-11.4859
▁Direct	-11.486
▁respectent	-11.4861
utilisateur	-11.4862
chet	-11.4864
▁diabetes	-11.4865
▁Personnel	-11.4868
▁apprendre	-11.4868
▁égale	-11.4869
▁boost	-11.4869
▁unfortunately	-11.487
▁documented	-11.4871
▁strike	-11.4872
fold	-11.4875
▁cigarette	-11.4878
3,	-11.488
▁inventions	-11.4883
▁renewed	-11.4886
▁incorporate	-11.4888
▁Fin	-11.4889
▁exigence	-11.4889
▁adding	-11.4889
▁informatique	-11.4891
▁antérieures	-11.4891
aéroport	-11.4891
▁Montant	-11.4894
▁Plant	-11.4896
▁nourriture	-11.4898
ks	-11.4898
▁territoriales	-11.4899
éléments	-11.4899
▁variété	-11.49
essence	-11.4901
secondary	-11.4901
▁inquiétudes	-11.4901
/02	-11.4901
▁cote	-11.4902
▁Cara	-11.4905
▁consultez	-11.4906
cor	-11.4907
tim	-11.4909
▁organisationnel	-11.4909
isées	-11.4909
▁Kar	-11.491
Espagne	-11.4911
▁superficie	-11.4911
▁QC	-11.4912
▁sufficiently	-11.4913
▁pire	-11.4913
▁regarded	-11.4914
▁stimulate	-11.4914
▁worker	-11.4914
▁mains	-11.4915
▁brain	-11.4916
▁contenus	-11.4916
forme	-11.4916
▁médicales	-11.4919
▁hundreds	-11.4919
ji	-11.4921
▁opt	-11.4924
▁énoncé	-11.4925
▁effectifs	-11.4926
▁fa	-11.4928
▁09	-11.493
illage	-11.493
▁chercheur	-11.4932
▁chute	-11.4932
▁Destination	-11.4933
▁méthodologie	-11.4933
▁eventually	-11.4934
▁réussir	-11.4935
▁imposées	-11.4937
▁soulève	-11.4938
▁faith	-11.4938
▁exclusively	-11.4938
▁accounted	-11.4942
▁Ses	-11.4942
▁Sécurité	-11.4942
GI	-11.4942
▁advances	-11.4945
accepter	-11.4945
▁prendra	-11.4945
▁$6	-11.4945
cl	-11.495
▁contributes	-11.4952
erreur	-11.4952
?"	-11.4953
▁missing	-11.4954
▁paye	-11.4954
▁officiels	-11.4955
envoi	-11.4958
▁vessel	-11.4958
annonce	-11.4963
▁merit	-11.4964
▁peur	-11.4964
▁SD	-11.4965
▁supplementary	-11.4965
national	-11.4966
win	-11.4966
▁knows	-11.4966
uer	-11.4967
▁broadcast	-11.4969
▁élus	-11.4973
▁ideal	-11.4973
▁letters	-11.4975
midi	-11.4976
▁realize	-11.4979
▁renforcée	-11.498
CAN	-11.4983
▁FMI	-11.4983
▁narrow	-11.4985
▁textile	-11.4985
▁truth	-11.4986
▁killed	-11.4986
▁30%	-11.4988
▁grains	-11.4988
▁repair	-11.4989
▁sampling	-11.4991
▁édition	-11.4992
▁acknowledged	-11.4993
/01	-11.4994
▁combating	-11.4995
▁TIC	-11.4996
▁introducing	-11.4997
▁éventuels	-11.4998
▁caution	-11.4998
▁négatifs	-11.5
anti	-11.5001
▁(8	-11.5003
▁Américains	-11.5006
excellent	-11.5008
▁manifestation	-11.5011
ford	-11.5011
▁Présidence	-11.5013
▁solve	-11.5014
▁REER	-11.5014
hor	-11.5016
▁McGill	-11.5016
▁diplomatic	-11.5016
▁victim	-11.5016
▁TR	-11.5016
▁Six	-11.5018
▁rose	-11.502
HI	-11.5021
▁normales	-11.5021
▁confidential	-11.5025
▁résulte	-11.5026
▁handicap	-11.5026
MB	-11.5026
▁restructuring	-11.5026
▁mandataire	-11.5029
▁négative	-11.5031
▁souches	-11.5032
ene	-11.5034
▁CSA	-11.5034
▁complainant	-11.5035
▁girls	-11.504
▁map	-11.504
▁recueillies	-11.5045
lation	-11.5047
aci	-11.5052
▁MHz	-11.5052
▁allemand	-11.5053
▁Beaucoup	-11.5054
▁durabilité	-11.5054
▁flows	-11.5054
▁evolution	-11.5056
▁examinées	-11.5058
ime	-11.506
▁rares	-11.5061
▁declined	-11.5064
▁signée	-11.5066
▁causé	-11.5069
armes	-11.5073
▁Country	-11.5076
▁révèle	-11.5077
lar	-11.5078
activ	-11.5079
▁offset	-11.508
▁fill	-11.5081
▁errors	-11.5083
▁toxicité	-11.5083
lect	-11.5084
▁apparaît	-11.5087
▁Coordination	-11.5087
▁approbation	-11.5088
▁peaceful	-11.5089
▁PP	-11.509
nelle	-11.509
▁studied	-11.5091
Italie	-11.5091
▁né	-11.5099
▁margin	-11.51
▁instruction	-11.5101
7)	-11.5102
▁harmful	-11.5105
▁sugar	-11.5106
▁rat	-11.5107
▁fonctionnaire	-11.511
▁énorme	-11.5112
▁cinquième	-11.5112
▁serves	-11.5114
▁Obama	-11.5116
atmosphère	-11.512
▁démontre	-11.512
▁calculé	-11.5121
▁verification	-11.5121
mann	-11.5122
▁afford	-11.5122
Administration	-11.5122
▁Image	-11.5123
▁legally	-11.5125
▁refused	-11.5127
▁risquent	-11.5127
▁Aide	-11.5129
▁compétentes	-11.5132
▁Governing	-11.5135
▁remplacé	-11.5135
▁reject	-11.5137
▁responded	-11.5139
▁$10	-11.514
▁sustained	-11.5141
▁CPP	-11.5144
▁Th	-11.5145
▁catastrophes	-11.5146
▁tenté	-11.5149
▁Private	-11.515
▁examinés	-11.5151
▁retombées	-11.5151
▁exploit	-11.5153
ROM	-11.5154
événement	-11.5158
.11	-11.5158
isent	-11.5158
▁sérieusement	-11.5159
▁ANNEXE	-11.5159
▁apporte	-11.5163
▁souhaitable	-11.5169
▁détention	-11.5172
av	-11.5176
GP	-11.5176
app	-11.518
This	-11.5181
▁trademark	-11.5184
▁exclude	-11.5188
▁pal	-11.5188
NL	-11.5189
ILL	-11.519
▁RPC	-11.519
▁Dre	-11.519
ros	-11.5191
▁wording	-11.5192
▁importés	-11.5193
▁indiquée	-11.5194
▁qualifiés	-11.5196
▁précédents	-11.5196
▁Trust	-11.5198
str	-11.5199
▁Currently	-11.5201
▁fais	-11.5201
▁80%	-11.5204
cept	-11.5205
state	-11.5205
▁BY	-11.5208
iti	-11.5208
▁lac	-11.5215
▁dry	-11.5215
yan	-11.5216
Ma	-11.522
▁CIDA	-11.5224
▁Film	-11.5224
▁reasonably	-11.5224
▁worse	-11.5227
▁Taux	-11.5227
illi	-11.5227
▁Political	-11.5228
▁légitime	-11.5228
în	-11.5229
▁publiées	-11.5231
▁conduire	-11.5231
cur	-11.5232
▁installé	-11.5233
▁promoteur	-11.5234
▁yes	-11.5235
▁combattants	-11.5235
▁certes	-11.5235
▁Peace	-11.5238
▁newly	-11.5241
▁ouvrir	-11.5244
▁tort	-11.5244
▁fondés	-11.5244
▁initially	-11.5246
▁$7	-11.5246
▁marchande	-11.5247
▁heure	-11.5251
▁bourse	-11.5258
▁regulate	-11.5259
imp	-11.5259
▁bro	-11.526
▁focusing	-11.5261
▁lâ	-11.5263
As	-11.5263
▁négatif	-11.5263
▁complexity	-11.5264
▁1971	-11.5264
asp	-11.5267
▁confidentialité	-11.5267
ACE	-11.5268
▁Micro	-11.5268
▁papers	-11.527
▁OMPI	-11.5271
▁wages	-11.5272
▁attempts	-11.5273
▁présidente	-11.5274
▁shock	-11.5275
▁accommodate	-11.5277
▁stories	-11.5278
▁nursing	-11.5278
▁transitional	-11.5278
▁courantes	-11.5279
oire	-11.5279
▁contents	-11.5281
▁alleged	-11.5282
RD	-11.5284
▁warning	-11.5284
▁listen	-11.5285
▁Role	-11.5285
▁staffing	-11.5286
pic	-11.5288
▁Authorities	-11.5291
initiatives	-11.5292
▁troops	-11.5293
▁parcs	-11.5294
▁grown	-11.5297
▁BE	-11.5298
▁fréquemment	-11.5298
▁camps	-11.5299
▁exploiter	-11.53
▁Agreements	-11.5301
▁fini	-11.5302
▁seules	-11.5302
▁2%	-11.5304
▁tenues	-11.5305
▁liberal	-11.5305
atif	-11.5307
6)	-11.5308
logue	-11.5308
▁ACT	-11.5309
avocat	-11.531
▁stipule	-11.531
such	-11.5311
▁Lakes	-11.5312
▁proximité	-11.5313
▁conçus	-11.5314
▁Conservative	-11.5315
▁Suisse	-11.5315
RQ	-11.5318
▁fortes	-11.5318
ATE	-11.5319
▁verify	-11.5319
▁Congress	-11.532
▁affectés	-11.532
▁métaux	-11.532
▁Proposition	-11.5321
▁totales	-11.5322
▁examining	-11.5323
▁troupes	-11.5324
énoncé	-11.5325
gon	-11.5326
▁expensive	-11.5327
rac	-11.5328
FM	-11.533
▁polluants	-11.533
▁evening	-11.533
▁Help	-11.5331
▁professions	-11.5332
▁adjusted	-11.5333
▁SI	-11.5337
▁détermine	-11.5337
▁écarts	-11.5341
▁2.0	-11.5341
imbabwe	-11.5341
acide	-11.5345
▁bénéfice	-11.5347
Table	-11.5347
▁3.3	-11.5348
▁Bulgaria	-11.5349
▁Accountability	-11.535
▁arrêt	-11.5351
▁aériens	-11.5353
▁longueur	-11.5354
▁pH	-11.5355
▁ought	-11.5357
▁Michel	-11.5358
▁quote	-11.5359
WA	-11.536
▁affectation	-11.5362
▁permettez	-11.5364
log	-11.5364
▁axées	-11.5366
▁ending	-11.5369
▁injuries	-11.5369
▁surmonter	-11.5369
▁claires	-11.5371
▁delivering	-11.5372
'«	-11.5373
▁estimation	-11.5374
▁town	-11.5374
▁plays	-11.5375
▁Données	-11.5376
▁routine	-11.5377
▁alinéa	-11.5377
person	-11.5377
▁mentionnées	-11.5378
▁pregnancy	-11.5378
▁tirées	-11.538
▁cycles	-11.5381
▁screen	-11.5384
-27	-11.5384
▁minimale	-11.5387
▁cat	-11.5391
▁Having	-11.5392
but	-11.5392
▁tra	-11.5392
rine	-11.5392
ières	-11.5393
▁volets	-11.5393
lle	-11.5395
▁monitored	-11.5397
▁Letter	-11.5398
▁Target	-11.54
▁feuille	-11.5401
teur	-11.5403
▁restrictive	-11.5405
▁ordonnance	-11.5406
émissions	-11.5407
ump	-11.5409
▁Ed	-11.5409
▁Progress	-11.541
▁Fish	-11.5411
▁precise	-11.5411
▁absent	-11.5412
▁supplied	-11.5415
which	-11.5415
▁Mont	-11.5417
▁twice	-11.5417
▁trousse	-11.542
▁specifications	-11.5422
▁accuracy	-11.5423
▁infirmiers	-11.5424
▁apportés	-11.5425
▁negotiate	-11.5425
▁engagées	-11.5427
ged	-11.5429
étais	-11.5429
arm	-11.5432
▁130	-11.5433
▁14,	-11.5435
down	-11.5436
▁formulé	-11.5436
5/	-11.5438
▁RO	-11.5438
▁bancaires	-11.5439
empêcher	-11.5441
▁Priority	-11.5442
▁infectieuses	-11.5443
▁Laboratory	-11.5444
▁Purpose	-11.5444
ency	-11.5446
It	-11.5448
ties	-11.5451
▁accordingly	-11.5452
▁Amsterdam	-11.5452
▁careful	-11.5453
▁Roma	-11.5454
▁déclin	-11.5455
▁partly	-11.5455
▁conferences	-11.5456
▁causer	-11.5456
▁Grant	-11.5457
▁mur	-11.5459
-2006	-11.546
▁intérimaire	-11.546
▁Stephen	-11.546
▁agri	-11.546
▁concerné	-11.5461
▁adapted	-11.5461
SH	-11.5462
▁ai	-11.5464
▁(6)	-11.5464
▁tender	-11.5466
▁channel	-11.5467
▁absolute	-11.5468
▁Amendments	-11.5468
▁axés	-11.5469
▁makers	-11.5472
▁ones	-11.5476
emb	-11.5476
aut	-11.5477
▁schemes	-11.5477
▁Peut	-11.548
SL	-11.5483
▁terminée	-11.5483
▁listing	-11.5483
▁soulevé	-11.5483
▁viewed	-11.5484
EMENT	-11.5484
océan	-11.5486
▁fermement	-11.5488
▁comparé	-11.5488
▁visibles	-11.5489
▁EDC	-11.5489
▁originally	-11.5491
▁procurer	-11.5492
▁cur	-11.5495
▁holds	-11.5495
▁marriage	-11.5496
-29	-11.5496
épidémie	-11.5497
▁assisté	-11.5499
▁informés	-11.55
▁spectre	-11.5503
▁rational	-11.5503
▁Benefit	-11.5504
▁detection	-11.5505
▁Democrats	-11.5506
appuie	-11.5506
▁performances	-11.5509
▁substantielle	-11.5511
pine	-11.5512
▁individuelles	-11.5513
▁moderate	-11.5513
ules	-11.5513
Food	-11.5514
▁contradiction	-11.5515
▁Indiens	-11.5516
▁Army	-11.5518
▁Identification	-11.552
utilité	-11.552
MM	-11.5521
▁versus	-11.5521
▁begun	-11.5525
▁photograph	-11.5525
▁exported	-11.5527
9%	-11.5527
rus	-11.5528
▁Age	-11.5529
▁signing	-11.5529
▁éducation	-11.553
▁restreint	-11.5531
▁Finland	-11.5532
▁assuré	-11.5533
▁sit	-11.5537
▁mini	-11.5537
▁synthèse	-11.5539
▁offences	-11.5541
▁légère	-11.5542
▁appreciation	-11.5543
▁athletes	-11.5543
▁performing	-11.5544
NP	-11.5546
▁ancien	-11.5548
▁channels	-11.5548
▁3%	-11.5548
▁satisfactory	-11.555
NS	-11.5552
▁spécifiquement	-11.5553
efficience	-11.5553
▁assurés	-11.5554
uf	-11.5557
▁conjointe	-11.5558
END	-11.5559
vit	-11.5559
illon	-11.5564
▁visas	-11.5565
▁créée	-11.5565
zo	-11.5567
▁usines	-11.5568
▁offertes	-11.5568
▁arrest	-11.5569
Employeur	-11.5569
▁1%	-11.5569
▁analyser	-11.5569
Mo	-11.557
▁bandes	-11.5572
▁thérapeutiques	-11.5572
▁reflètent	-11.5575
▁CFIA	-11.5576
▁viol	-11.5577
▁Cha	-11.5583
▁ADM	-11.5584
▁fat	-11.5591
▁prudence	-11.5592
SK	-11.5595
▁Réunion	-11.5595
▁réfléchir	-11.5596
▁dûment	-11.5596
rais	-11.5596
▁décret	-11.5596
▁withdraw	-11.5598
▁Excellence	-11.5601
▁stabilisation	-11.5601
▁souhaité	-11.5602
▁étendue	-11.5605
▁pace	-11.5606
▁formats	-11.5606
▁15%	-11.5608
▁accepte	-11.5608
▁département	-11.5609
6-0	-11.5609
▁consulting	-11.5609
1999	-11.5609
ender	-11.5614
bu	-11.5615
▁rightly	-11.5615
▁Genetic	-11.5615
ening	-11.5616
▁réputée	-11.5616
▁4.3	-11.5617
▁1978	-11.5617
ple	-11.5619
▁armées	-11.5622
▁corn	-11.5624
▁module	-11.5629
rad	-11.563
▁pourrions	-11.5631
.1)	-11.5632
▁fluid	-11.5632
gu	-11.5633
income	-11.5633
▁Bulgarie	-11.5634
▁feuilles	-11.5635
▁diversification	-11.5636
▁vêtements	-11.5636
▁silence	-11.564
▁pensent	-11.564
▁cite	-11.5641
▁identité	-11.5641
▁mod	-11.5643
ria	-11.5643
▁rencontré	-11.5643
ature	-11.5645
▁twenty	-11.5646
▁nu	-11.5647
▁HA	-11.5653
▁GR	-11.5653
▁commonly	-11.5658
▁soldiers	-11.5658
▁eye	-11.5659
▁croient	-11.5659
▁aigu	-11.566
▁constraints	-11.5662
▁realistic	-11.5663
▁CAD	-11.5664
▁fumeurs	-11.5664
▁sensiblement	-11.5665
▁Suite	-11.5667
▁Conclusions	-11.5668
▁chi	-11.5672
▁réputation	-11.5675
▁ITC	-11.5676
▁reconnaissant	-11.5679
▁themes	-11.568
▁flight	-11.5681
operative	-11.5683
sk	-11.5684
▁naturelle	-11.5687
amb	-11.5688
▁NP	-11.5691
▁suggère	-11.5695
▁coli	-11.5695
▁coastal	-11.5695
▁Border	-11.5695
ADN	-11.5696
▁reproductive	-11.5697
ordonnance	-11.5698
▁favorisant	-11.57
▁consist	-11.5701
▁Organizations	-11.5702
▁Venezuela	-11.5702
lib	-11.5705
honneur	-11.5705
▁effectif	-11.5707
DF	-11.5707
artiste	-11.5708
▁derrière	-11.5708
▁battle	-11.5708
bank	-11.5711
▁Job	-11.5712
▁voient	-11.5713
aud	-11.5714
▁smokers	-11.5718
sum	-11.5718
ied	-11.5718
▁découle	-11.572
▁debates	-11.572
▁Ja	-11.5721
▁contractant	-11.5722
▁opérationnelles	-11.5722
▁rempli	-11.5724
▁justify	-11.5724
▁Integrated	-11.5724
▁Francophonie	-11.5726
▁NE	-11.5727
main	-11.5728
▁104	-11.5728
▁father	-11.5728
▁tente	-11.573
exactitude	-11.5734
▁certified	-11.5735
itaire	-11.574
▁Va	-11.5741
5)	-11.5742
▁responding	-11.5743
▁définie	-11.5743
▁gained	-11.5743
▁Like	-11.5745
▁thereof	-11.5745
assi	-11.5745
PN	-11.5746
▁notable	-11.5748
▁diplômés	-11.5748
BR	-11.5751
ozone	-11.5752
abus	-11.5752
ssant	-11.5753
▁vi	-11.5754
▁combine	-11.5755
▁autorise	-11.5759
▁Switzerland	-11.576
▁Personne	-11.576
embauche	-11.5761
▁vague	-11.5761
hôpital	-11.5763
▁native	-11.5764
▁13,	-11.5765
▁accusé	-11.5766
▁exercices	-11.5766
arbitrage	-11.5767
inclure	-11.5767
▁Cas	-11.5769
▁Discussion	-11.5771
▁industrielles	-11.5772
▁témoin	-11.5772
▁COMP	-11.5772
▁déterminés	-11.5773
bor	-11.5773
▁te	-11.5773
▁17,	-11.5774
▁efficacy	-11.5774
▁rent	-11.5776
cultural	-11.5779
▁novel	-11.578
acier	-11.5782
▁écosystèmes	-11.5782
lam	-11.5784
▁déterminants	-11.5784
rap	-11.5785
▁courants	-11.5786
▁mostly	-11.5788
▁surprise	-11.5789
▁claimant	-11.5792
▁write	-11.5793
▁Journée	-11.5793
▁earn	-11.5794
▁indicator	-11.5795
▁Directors	-11.5795
▁clarifier	-11.5796
▁block	-11.5796
▁naturally	-11.5797
▁payée	-11.5797
▁plenary	-11.5799
No	-11.58
▁wave	-11.58
▁déposées	-11.5804
▁évoqué	-11.5805
▁appropriations	-11.5806
▁pacifique	-11.5807
▁Operating	-11.5808
▁annexes	-11.5814
▁poursuites	-11.5816
▁notably	-11.5816
▁council	-11.5817
▁diet	-11.5819
fu	-11.5819
▁Industries	-11.5819
▁plafond	-11.582
▁park	-11.5821
▁Between	-11.5821
▁died	-11.5822
vention	-11.5823
din	-11.5823
▁Caribbean	-11.5823
▁modifiés	-11.5827
▁reinforce	-11.5827
▁suivie	-11.5827
AIRE	-11.583
▁Chi	-11.5831
▁remédier	-11.5832
▁cal	-11.5832
▁offenders	-11.5832
▁touch	-11.5834
▁conventional	-11.5834
rat	-11.5835
▁Britain	-11.5836
▁counsel	-11.5837
▁comptent	-11.5839
▁vols	-11.584
ect	-11.5843
▁Gender	-11.5843
ann	-11.5848
vel	-11.5848
▁motions	-11.5851
▁Ensuite	-11.5852
▁recognised	-11.5853
ouvrir	-11.5854
▁RPP	-11.5857
▁présentement	-11.5859
▁undertakings	-11.5863
▁expanding	-11.5864
▁avance	-11.587
▁Profile	-11.5873
▁Commonwealth	-11.5873
▁revoir	-11.5873
▁soulevées	-11.5875
▁comprises	-11.5877
▁Greek	-11.5878
umb	-11.5879
▁Awards	-11.5879
▁anniversary	-11.5879
▁ethnique	-11.5879
▁isolated	-11.5881
▁identifié	-11.5885
▁Price	-11.5885
cade	-11.5887
▁adopte	-11.5893
▁dérogation	-11.5893
mate	-11.5893
qua	-11.5894
▁cyber	-11.5894
offres	-11.5894
▁Ku	-11.5895
▁16,	-11.5895
alisation	-11.5901
▁passif	-11.5901
▁identifies	-11.5902
▁preferred	-11.5903
▁equitable	-11.5904
▁connue	-11.5905
▁préférence	-11.5905
international	-11.5906
▁conclut	-11.5906
▁satisfy	-11.5907
▁organise	-11.5908
▁écologiques	-11.5908
▁clarity	-11.591
▁Workshop	-11.591
▁donors	-11.5912
▁gene	-11.5914
▁aquatic	-11.5916
▁exprimées	-11.5917
▁prévalence	-11.5918
▁immigrant	-11.5919
rÃ	-11.592
▁demeurer	-11.592
▁Excise	-11.5921
▁Turkish	-11.5921
▁basé	-11.5922
▁marketplace	-11.5922
▁headquarters	-11.5924
▁trip	-11.5925
▁assujettis	-11.593
▁Music	-11.5933
▁pacte	-11.5933
▁Amount	-11.5933
▁sanitaires	-11.5933
pay	-11.5937
▁diffuser	-11.5937
▁rentabilité	-11.5937
▁rotation	-11.5938
▁Philippines	-11.594
▁emphasized	-11.5941
▁ingredients	-11.5942
▁guides	-11.5946
▁oppose	-11.5946
▁contribuera	-11.5947
▁households	-11.5948
▁HC	-11.595
zi	-11.595
▁urbain	-11.595
▁individuelle	-11.595
▁numériques	-11.5951
▁communiqués	-11.5953
▁Substances	-11.5953
▁fashion	-11.5954
▁commandant	-11.5954
▁attribué	-11.5954
▁prohibited	-11.5957
▁positives	-11.596
gue	-11.5962
hereinafter	-11.5963
▁IS	-11.5963
▁atmosphere	-11.5964
rés	-11.5967
▁varient	-11.597
▁Guerre	-11.5973
▁déduire	-11.5974
dans	-11.5975
▁premiums	-11.5978
▁Gr	-11.5981
rid	-11.5981
▁automatique	-11.5982
face	-11.5983
▁attribuables	-11.5983
▁précoce	-11.5984
▁située	-11.5985
life	-11.5988
▁theme	-11.5989
▁measuring	-11.599
160;	-11.5992
▁conviennent	-11.5994
▁dépassé	-11.5994
▁chroniques	-11.5994
▁virtually	-11.5995
▁plaignant	-11.5997
ache	-11.6001
▁vérité	-11.6003
▁contenir	-11.6005
▁posé	-11.6005
▁Droits	-11.6006
▁diagnosis	-11.6006
▁neutral	-11.6008
▁réexamen	-11.6009
▁indiennes	-11.6009
▁Produits	-11.6009
▁promoted	-11.6009
▁remarques	-11.6009
▁ouvre	-11.601
▁éventuelle	-11.6012
▁Forest	-11.6012
Arctique	-11.6015
▁reconnaissent	-11.6016
aspect	-11.6016
gl	-11.6017
▁watch	-11.6019
ality	-11.6022
ymp	-11.6022
aise	-11.6023
▁aggregate	-11.6024
▁Contexte	-11.6025
▁gel	-11.6028
▁hyper	-11.6029
▁Cyprus	-11.6029
▁logements	-11.6029
▁refusal	-11.6029
6%	-11.603
▁Guidance	-11.6032
▁droite	-11.6035
▁syndrome	-11.6036
▁license	-11.6038
▁recover	-11.6039
▁Far	-11.6042
▁ended	-11.6042
▁none	-11.6043
▁noir	-11.6043
▁Corporations	-11.6044
▁Minutes	-11.6047
las	-11.6048
▁vendus	-11.6049
▁rejetée	-11.6049
▁cha	-11.605
expédition	-11.6051
Ex	-11.6051
▁2014	-11.6053
▁registrant	-11.6053
▁unemployed	-11.6054
étend	-11.6054
5%	-11.6054
▁Right	-11.6055
▁Socialist	-11.6055
▁Monday	-11.6057
▁touchées	-11.6058
quality	-11.6059
▁publishing	-11.606
▁détaillés	-11.6062
▁Alternative	-11.6063
▁pair	-11.6065
INS	-11.6067
▁porc	-11.6069
ij	-11.6071
▁disparition	-11.6071
▁whereby	-11.6073
▁Inde	-11.6075
▁Belgique	-11.6076
OH	-11.6078
building	-11.6079
▁délégués	-11.6081
▁supplément	-11.6082
▁pressures	-11.6084
▁transporteurs	-11.6085
▁causing	-11.6085
▁60%	-11.6085
▁persist	-11.6086
▁emphasise	-11.6087
▁souveraineté	-11.6091
▁cooperate	-11.6091
▁skilled	-11.6093
▁prudent	-11.6093
spect	-11.6093
duit	-11.6094
▁inc	-11.6097
▁trace	-11.6098
▁effectue	-11.6101
▁soutiennent	-11.6102
▁rating	-11.6103
▁Collection	-11.6103
▁notified	-11.6103
effective	-11.6104
▁fournissant	-11.6105
▁game	-11.6105
▁boundaries	-11.6106
▁reconnue	-11.6106
▁retained	-11.6108
▁demandons	-11.6109
▁intégrées	-11.6109
▁Publication	-11.611
SV	-11.6112
employés	-11.6113
▁comparer	-11.6115
▁Adoption	-11.6116
▁barre	-11.6119
▁Grands	-11.6119
▁skin	-11.612
▁match	-11.612
▁Georgia	-11.6122
▁Travaux	-11.6123
▁Mental	-11.6123
▁Er	-11.6125
▁exceeding	-11.6125
▁tele	-11.6129
▁diplomatique	-11.6131
▁signer	-11.6137
1%	-11.6139
▁proved	-11.614
▁intégration	-11.6141
▁ressortissants	-11.6143
St	-11.6144
▁Professor	-11.6144
▁Croatia	-11.6144
▁avancées	-11.6145
▁helpful	-11.6146
▁acc	-11.6148
▁africains	-11.615
▁exerce	-11.615
▁tackle	-11.6151
ery	-11.6152
▁rayonnement	-11.6152
sta	-11.6152
▁catalogue	-11.6153
▁préservation	-11.6155
▁maximal	-11.6155
▁Off	-11.616
▁contrôleur	-11.6163
▁col	-11.6166
An	-11.6166
ités	-11.6166
▁Czech	-11.6167
▁named	-11.6168
▁prononcer	-11.6169
▁réparation	-11.617
▁boards	-11.6174
▁visited	-11.6174
▁ARTICLE	-11.6175
▁produite	-11.6177
▁fils	-11.6177
ng	-11.6178
▁unanime	-11.6181
▁agrees	-11.6183
▁cerner	-11.6185
▁parlement	-11.6188
▁sucre	-11.619
▁humans	-11.6191
▁defining	-11.6193
nique	-11.6197
rier	-11.6197
▁vendu	-11.6199
▁billet	-11.62
▁140	-11.6203
▁Bel	-11.6203
clo	-11.6204
▁retire	-11.6206
▁tiré	-11.6206
▁transmitted	-11.6209
▁passport	-11.6209
▁créés	-11.6209
pré	-11.621
▁interprétation	-11.621
Net	-11.6212
▁constatations	-11.6214
▁operator	-11.6214
ealand	-11.6215
▁airport	-11.6215
▁révisée	-11.6215
▁lancée	-11.6218
▁importateurs	-11.6222
occupation	-11.6222
▁quotidien	-11.6222
▁suffered	-11.6228
▁Space	-11.6229
▁Tele	-11.6229
▁maintenu	-11.6231
▁législatifs	-11.6231
ologist	-11.6233
▁door	-11.6239
▁entré	-11.6243
▁Austria	-11.6245
▁offerte	-11.6246
▁geographic	-11.6248
▁aside	-11.6248
▁TBS	-11.6249
▁elderly	-11.625
▁Saskatoon	-11.6253
▁faune	-11.6255
▁2011	-11.6256
▁cri	-11.6256
▁6.1	-11.6257
RU	-11.6257
OB	-11.6258
▁déploiement	-11.6261
▁sequence	-11.6263
uring	-11.6265
▁Tha	-11.6266
▁encourageant	-11.6268
Bretagne	-11.627
▁pertaining	-11.6271
▁carriers	-11.6271
▁habitant	-11.6273
▁Men	-11.6273
▁cumulative	-11.6273
▁venu	-11.6273
▁conscients	-11.6274
▁retrouver	-11.6276
▁dignité	-11.6276
tur	-11.6278
▁op	-11.6278
▁Crédit	-11.6278
▁syndicats	-11.6279
▁gla	-11.628
cle	-11.6282
-26	-11.6288
TOR	-11.6289
▁store	-11.6289
informer	-11.6289
labor	-11.629
▁east	-11.6291
▁Lib	-11.6293
▁NS	-11.6294
▁admission	-11.6294
▁révolution	-11.6294
▁edition	-11.6297
IST	-11.6301
▁occupe	-11.6301
▁(10	-11.6301
rich	-11.6302
▁vraisemblable	-11.6304
test	-11.6305
▁Dan	-11.6306
▁purchased	-11.6307
▁excise	-11.6307
▁1977	-11.6308
▁exceptional	-11.6313
▁dépensé	-11.6314
▁volontaires	-11.6314
▁rétablir	-11.6315
▁Char	-11.6315
ock	-11.6315
▁maritimes	-11.6317
▁explains	-11.6318
▁ravi	-11.6318
▁Round	-11.632
▁ordinaire	-11.632
▁emphasize	-11.6322
▁sole	-11.6325
OUR	-11.6327
audit	-11.6327
▁AR	-11.6331
organiser	-11.6332
tine	-11.6333
ui	-11.6337
▁dépendent	-11.6337
hl	-11.6337
▁Back	-11.634
▁vide	-11.634
▁fichiers	-11.6341
sent	-11.6342
formes	-11.6343
▁Belgium	-11.6344
indique	-11.6345
▁orders	-11.6347
▁favourable	-11.6347
▁désignée	-11.6348
▁chambre	-11.6349
▁prononcé	-11.6351
▁Important	-11.6352
▁protégées	-11.6353
mus	-11.6354
▁souhaiterais	-11.6354
HP	-11.6357
fic	-11.6357
▁Construction	-11.6357
NR	-11.6358
▁brièvement	-11.6358
▁gagné	-11.636
For	-11.6361
bel	-11.6363
▁liabilities	-11.6363
▁diesel	-11.6363
▁Hall	-11.6365
▁imposable	-11.6367
▁ingrédients	-11.6367
▁ami	-11.6369
audience	-11.6371
▁trente	-11.6374
▁underway	-11.6375
ê	-11.6376
▁Limit	-11.6376
▁presentations	-11.6377
▁facilitating	-11.6379
essais	-11.638
▁usual	-11.638
▁ensures	-11.6381
stat	-11.6381
▁valable	-11.6383
▁Bas	-11.6383
▁handle	-11.6384
ép	-11.6384
▁précisions	-11.6385
▁marins	-11.6385
▁atelier	-11.6385
▁Congo	-11.6385
▁segments	-11.6389
▁separately	-11.639
▁highlights	-11.6391
▁automatically	-11.6391
▁deployment	-11.6391
teurs	-11.6392
▁engagée	-11.6392
RT	-11.6393
▁Message	-11.6394
▁TI	-11.6394
étendre	-11.6397
▁trouverez	-11.6399
fil	-11.64
▁aériennes	-11.64
▁repas	-11.6402
▁Swiss	-11.6402
▁alter	-11.6404
entrepreneur	-11.6404
tie	-11.6406
▁street	-11.6408
▁quitter	-11.6408
▁Shi	-11.6408
▁rem	-11.6409
imposer	-11.641
▁excellente	-11.641
▁Frais	-11.6411
▁incentive	-11.6411
▁VII	-11.6412
(2)(	-11.6413
▁légal	-11.6415
aborder	-11.6418
▁tight	-11.6419
▁autorisées	-11.6419
▁creates	-11.6421
▁rencontres	-11.6421
▁douze	-11.6424
▁Valley	-11.6424
▁plain	-11.6425
▁produites	-11.6428
pul	-11.6428
▁acheter	-11.6435
indication	-11.6439
▁evaluating	-11.644
nels	-11.6441
OU	-11.6441
EO	-11.6442
▁infected	-11.6444
▁licensee	-11.6446
▁stakeholder	-11.6447
étendue	-11.645
▁découvert	-11.645
▁scolarité	-11.6451
▁journalists	-11.6454
▁déficience	-11.6455
▁ethniques	-11.6456
ologiques	-11.6459
ancienne	-11.6459
▁blind	-11.646
asse	-11.6461
▁pp	-11.6461
mod	-11.6463
▁pénurie	-11.6463
▁detect	-11.6465
▁struggle	-11.6465
▁Denmark	-11.6465
▁plasma	-11.6465
dit	-11.6466
▁obtenues	-11.6467
▁adéquat	-11.6468
▁intervene	-11.647
▁éliminé	-11.6471
américain	-11.6473
▁Bosnia	-11.6474
▁victime	-11.6475
▁zéro	-11.6476
▁manufactured	-11.6481
▁regrette	-11.6481
▁el	-11.6481
▁referring	-11.6481
ivité	-11.6482
▁criminels	-11.6482
▁2009.	-11.6483
▁AN	-11.6484
▁organisms	-11.6484
▁argue	-11.6486
indice	-11.649
▁sustain	-11.649
▁souhait	-11.6491
▁océans	-11.6491
▁complementary	-11.6493
▁wildlife	-11.6495
rer	-11.6495
▁pénal	-11.6501
▁occurring	-11.6502
érer	-11.6503
▁1976	-11.6506
outils	-11.6506
.12	-11.6507
▁era	-11.6509
▁comportent	-11.6513
▁driven	-11.6514
▁hauts	-11.6514
▁décrits	-11.6515
▁abus	-11.6519
▁minoritaire	-11.652
▁Examples	-11.652
▁parlons	-11.6521
▁judges	-11.6521
▁Changes	-11.6522
FT	-11.6524
▁lait	-11.6525
▁pa	-11.6528
▁2010,	-11.653
▁complémentaire	-11.653
▁allait	-11.6531
▁NA	-11.6532
▁visait	-11.6532
▁environmentally	-11.6533
▁RH	-11.6535
mie	-11.6535
▁endeavour	-11.6536
aff	-11.6538
prim	-11.654
▁objets	-11.6541
▁personally	-11.6541
▁arrivé	-11.6542
under	-11.6543
▁delays	-11.6544
▁Finlande	-11.6545
▁dominant	-11.6545
▁refléter	-11.6546
▁dignity	-11.6546
▁Ob	-11.6546
▁900	-11.6546
▁aident	-11.6548
▁harbour	-11.6549
▁contenues	-11.655
▁subparagraph	-11.6552
▁paraît	-11.6555
▁Structural	-11.6557
▁Account	-11.6557
▁exchanges	-11.6557
▁flotte	-11.6558
▁UE	-11.656
TRE	-11.6561
▁Mary	-11.6561
infraction	-11.6562
▁trustee	-11.6564
▁notify	-11.6564
▁couleur	-11.6567
▁score	-11.6568
▁incompatible	-11.6568
▁ordres	-11.657
▁supportive	-11.657
années	-11.657
▁flu	-11.6572
▁donateurs	-11.6573
▁tissue	-11.6573
▁satisfaisante	-11.6574
TR	-11.6575
natal	-11.6576
▁pipeline	-11.6578
▁1985,	-11.6579
▁ICT	-11.658
ken	-11.6582
▁constantly	-11.6582
▁Réserve	-11.6582
▁Accueil	-11.6584
▁Practices	-11.6584
▁ordinaires	-11.6584
impose	-11.6584
▁Recipient	-11.6589
▁entité	-11.6589
▁Exp	-11.659
rel	-11.6593
▁pleasure	-11.6597
▁nominal	-11.6599
inscrire	-11.66
▁preceding	-11.6601
▁biodiversité	-11.6603
▁operates	-11.6605
▁connus	-11.6605
▁sovereignty	-11.6605
▁Danemark	-11.6606
MG	-11.6607
▁freedoms	-11.661
effort	-11.661
▁automatiquement	-11.6612
▁Have	-11.6613
▁souhaitons	-11.6613
▁unanimous	-11.6613
▁Low	-11.6614
▁promise	-11.6616
vant	-11.6616
▁evaluations	-11.6618
▁respondent	-11.6622
▁dirige	-11.6622
▁énergétiques	-11.6623
▁PER	-11.6625
▁Lawrence	-11.6625
▁protéines	-11.6626
▁$.	-11.6627
voqu	-11.6627
▁Import	-11.6628
▁ME	-11.6631
ITÉ	-11.6633
▁Puisque	-11.6634
▁comprise	-11.6635
▁propriétés	-11.6637
▁interdiction	-11.6637
▁retention	-11.6638
▁chronique	-11.6638
▁Engineering	-11.6638
bour	-11.664
▁invested	-11.6649
lines	-11.6656
▁reliés	-11.6656
outs	-11.6656
▁ppm	-11.6656
▁hearings	-11.6657
▁curriculum	-11.6657
▁hepatitis	-11.6659
▁Nutrition	-11.6659
▁fell	-11.6661
▁cérémonie	-11.6662
▁q	-11.6663
▁déterminant	-11.6663
▁salt	-11.6664
▁theory	-11.6667
och	-11.6667
▁Thursday	-11.6669
▁possibilities	-11.6669
FO	-11.6671
UP	-11.6671
▁diriger	-11.6675
▁cro	-11.6675
real	-11.6675
▁Detailed	-11.6675
▁rapporte	-11.6675
▁sensibilité	-11.6676
▁hot	-11.6676
▁concrets	-11.6678
▁Americans	-11.668
▁star	-11.6681
▁recommander	-11.6685
▁west	-11.6685
▁owing	-11.6686
▁Vietnam	-11.6686
▁350	-11.6687
▁composed	-11.6687
▁validité	-11.6691
▁justement	-11.6691
▁importation	-11.6691
▁PO	-11.6693
▁choisis	-11.6694
entreposage	-11.6701
cap	-11.6701
▁élection	-11.6702
▁chaleur	-11.6703
▁tarif	-11.6705
▁2.4	-11.6706
▁101	-11.671
▁désigner	-11.6712
▁charter	-11.6714
▁orientale	-11.6714
▁avocats	-11.6715
▁entreprendre	-11.6716
▁Italie	-11.6719
▁iii	-11.6719
▁détruit	-11.6722
▁desired	-11.6722
▁hazardous	-11.6722
▁Compensation	-11.6723
▁villages	-11.6724
▁Prior	-11.6725
atic	-11.6725
▁confirme	-11.6728
▁développé	-11.6728
▁textiles	-11.6729
▁prospects	-11.6729
▁retiré	-11.6729
Agriculture	-11.673
▁William	-11.6733
▁IM	-11.6735
▁specify	-11.6735
▁mar	-11.6735
▁survive	-11.6737
administrateur	-11.6738
▁partial	-11.6739
eh	-11.674
▁accomplir	-11.6748
▁Syrie	-11.6749
▁accused	-11.6749
▁fiables	-11.6751
▁transférer	-11.6751
▁découlent	-11.6753
▁reprendre	-11.6753
▁soutiens	-11.6756
▁Consultations	-11.6757
▁éco	-11.676
▁restrict	-11.6761
▁recyclage	-11.6762
▁parlements	-11.6763
▁influent	-11.6763
fish	-11.6765
▁transporteur	-11.6766
▁sponsor	-11.6767
▁Rapports	-11.6767
▁éthique	-11.677
ajout	-11.677
▁acceptables	-11.677
low	-11.6771
ense	-11.6771
▁Cl	-11.6772
▁beneficiary	-11.6772
▁Ministerial	-11.6773
vir	-11.6774
▁subséquente	-11.6775
▁secrétariat	-11.6775
7.	-11.6778
États	-11.6779
▁Département	-11.678
▁CM	-11.6781
importateur	-11.6784
▁longues	-11.6784
hy	-11.6785
▁substitution	-11.6786
▁équipements	-11.6786
rm	-11.6786
▁ski	-11.6787
kan	-11.6788
▁belief	-11.6789
▁Sun	-11.6789
▁vitro	-11.6789
▁salue	-11.679
▁soumission	-11.6792
ume	-11.6792
▁sentir	-11.6792
▁correspondance	-11.6792
ras	-11.6793
▁Congrès	-11.6793
▁desirable	-11.6793
▁EA	-11.6794
▁progressivement	-11.6794
▁désire	-11.6796
▁minimales	-11.6798
▁90%	-11.6799
▁expose	-11.68
▁Ombudsman	-11.68
▁Donc	-11.6801
▁Formation	-11.6802
▁cards	-11.6803
▁SG	-11.6803
/8	-11.6803
▁bal	-11.6806
▁figurer	-11.6808
▁ressortir	-11.6809
▁cold	-11.6809
RF	-11.6811
▁declare	-11.6813
▁originale	-11.6814
ls	-11.6814
▁container	-11.6816
ison	-11.6818
▁Met	-11.6818
▁Fe	-11.6818
▁qualification	-11.682
▁seeing	-11.6821
▁Livre	-11.6821
▁OTTAWA	-11.6823
▁contaminated	-11.6823
▁packaging	-11.6823
uch	-11.6825
burg	-11.6825
▁minière	-11.6828
▁intermédiaires	-11.6828
▁appuient	-11.6829
▁monétaires	-11.6829
▁load	-11.6829
▁mentionne	-11.6831
▁Cons	-11.6831
▁INTER	-11.6831
▁Oil	-11.6832
▁additionnels	-11.6833
▁glace	-11.6835
▁procureur	-11.6835
▁mu	-11.6836
invalidité	-11.6839
▁espagnol	-11.6839
▁initiate	-11.6842
▁illustre	-11.6842
▁quart	-11.6843
▁Pat	-11.6843
▁Sh	-11.6845
▁repos	-11.6849
▁extending	-11.685
▁analytical	-11.6854
▁1,2	-11.6856
▁purchases	-11.6857
▁Secrétaire	-11.6859
▁sodium	-11.6859
▁160	-11.6859
▁Objectives	-11.6859
▁pierre	-11.6862
▁institutionnel	-11.6862
▁_	-11.6864
LES	-11.6864
▁machinery	-11.6864
vez	-11.6865
ulf	-11.6865
organisations	-11.6866
▁évidente	-11.6866
▁diligence	-11.6867
▁détenteurs	-11.6868
▁situe	-11.6868
▁Exhibit	-11.6869
▁parliaments	-11.6871
▁exigeant	-11.6871
▁transparente	-11.6872
▁clôture	-11.6873
▁gravité	-11.6874
AUX	-11.6874
▁auditor	-11.6875
▁versements	-11.6875
▁Issue	-11.6877
▁élargie	-11.6877
nder	-11.6878
▁unlikely	-11.6882
▁preparations	-11.6884
▁Hon	-11.6887
▁énergie	-11.6887
▁governed	-11.6887
▁condamné	-11.6888
▁indiqués	-11.6888
document	-11.6889
éliminer	-11.6892
▁Nigeria	-11.6893
▁Marketing	-11.6893
▁Wi	-11.6897
▁tolérance	-11.6898
▁optique	-11.6899
IPC	-11.69
▁Syria	-11.69
CHE	-11.6902
pas	-11.6902
awa	-11.6907
éli	-11.6908
▁closure	-11.6909
tric	-11.691
▁identical	-11.6913
▁es	-11.6913
chant	-11.6914
▁INFORMATION	-11.6914
▁Regions	-11.6917
ô	-11.6918
▁Processus	-11.6919
▁Thomas	-11.6919
▁placements	-11.692
▁charbon	-11.692
▁completing	-11.6922
TD	-11.6924
▁prÃ	-11.6924
pdf	-11.6927
gg	-11.6927
▁(9	-11.6929
sky	-11.6931
▁fragile	-11.6931
▁Understanding	-11.6931
allocation	-11.6932
▁105	-11.6933
▁email	-11.6933
▁TE	-11.6934
▁1.4	-11.6934
▁1975	-11.6936
▁Bre	-11.6936
essentiel	-11.6937
▁concentrate	-11.6937
▁affecté	-11.694
▁CAS	-11.6941
▁petition	-11.6943
▁Objective	-11.6945
▁Indigenous	-11.6946
▁Generally	-11.6948
emplacement	-11.6948
▁richesse	-11.6948
▁africaine	-11.6949
▁falling	-11.695
▁Command	-11.695
▁équilibré	-11.6951
▁policiers	-11.6951
▁doter	-11.6952
Entente	-11.6952
▁simplifier	-11.6952
▁spécialisées	-11.6954
▁suspended	-11.6956
▁essayer	-11.6957
▁Full	-11.6958
rry	-11.6958
▁(0	-11.6959
▁incluent	-11.6961
pla	-11.6963
▁redevances	-11.6966
▁libres	-11.6967
▁$8	-11.6967
▁inscrire	-11.6967
▁clarté	-11.6971
▁Friday	-11.6971
▁quo	-11.6971
▁travailleur	-11.6972
▁Objet	-11.6972
▁regrettable	-11.6974
cro	-11.6976
▁Tu	-11.6977
RB	-11.6978
▁sending	-11.698
▁millénaire	-11.6982
▁modernes	-11.6984
▁vo	-11.6984
quer	-11.6987
▁antidumping	-11.6988
Annexe	-11.6988
uré	-11.6989
▁Swedish	-11.6991
▁DO	-11.6993
▁séparément	-11.6993
▁satisfaits	-11.6994
▁distincte	-11.6994
▁farms	-11.6995
▁grippe	-11.6996
▁Statute	-11.6996
▁emerged	-11.6998
rom	-11.6999
▁Accounts	-11.6999
war	-11.6999
▁arrival	-11.7001
▁encourages	-11.7001
▁suscité	-11.7006
▁licensed	-11.7006
morph	-11.7008
▁Develop	-11.7008
▁fairness	-11.701
▁operated	-11.701
▁distinguish	-11.701
▁retenu	-11.701
▁strat	-11.7011
lée	-11.7012
▁productions	-11.7012
▁doctor	-11.7013
▁[...]	-11.7014
▁occupation	-11.7015
▁Ligne	-11.702
▁références	-11.702
▁sauvetage	-11.702
▁Musée	-11.7022
attaque	-11.7022
OA	-11.7025
▁deputy	-11.7026
▁hundred	-11.7026
▁frequent	-11.7027
/99	-11.7027
▁crossing	-11.7027
▁wild	-11.7027
aquaculture	-11.7028
▁transposition	-11.7028
▁Democratic	-11.7029
▁ordinateur	-11.7033
rog	-11.7033
▁enables	-11.7033
▁valide	-11.7034
▁Ali	-11.7034
▁concurrentiel	-11.7034
▁boissons	-11.7037
▁PRI	-11.7037
▁couche	-11.7037
▁outlines	-11.7038
▁2.5	-11.7038
▁forth	-11.7041
reg	-11.7042
▁nevertheless	-11.7042
▁platform	-11.7043
▁cutting	-11.7043
▁pont	-11.7044
▁endorsed	-11.7047
itt	-11.7048
▁assign	-11.7051
▁mobilisation	-11.7052
▁exclus	-11.7053
PF	-11.7053
pens	-11.7054
▁scénario	-11.7055
▁dirigeant	-11.7056
▁Coordinator	-11.7061
comité	-11.7061
▁combustible	-11.7062
naires	-11.7062
▁assurée	-11.7062
▁automobiles	-11.7062
▁vastes	-11.7063
▁Enquête	-11.7065
▁Gulf	-11.7066
▁périodiques	-11.7068
▁objection	-11.7069
▁juridiction	-11.707
eries	-11.7071
▁Troisièmement	-11.7072
▁prévoyant	-11.7072
▁Chef	-11.7077
▁chlor	-11.7077
▁false	-11.7077
▁protocoles	-11.7078
▁réuni	-11.7079
iller	-11.7079
note	-11.7079
50)	-11.7082
▁bénéficié	-11.7082
▁forums	-11.7082
▁2005)	-11.7083
▁Costs	-11.7084
▁continueront	-11.7086
▁1,5	-11.7086
▁débattre	-11.7086
▁permanents	-11.7086
avérer	-11.7089
▁establishes	-11.709
▁Taiwan	-11.7091
▁mixed	-11.7092
itis	-11.7092
▁arrivée	-11.7093
▁déposés	-11.7094
▁commodity	-11.7096
▁prefer	-11.7097
▁interpreted	-11.7098
▁Bou	-11.71
▁signale	-11.7102
▁accompagnée	-11.7102
iennes	-11.7102
▁readily	-11.7102
▁étudiant	-11.7104
▁exhibition	-11.7104
▁sec	-11.7105
▁Details	-11.7105
ye	-11.7106
▁IC	-11.7108
▁retenir	-11.7111
html	-11.7112
▁Practice	-11.7116
nis	-11.7118
métrique	-11.7118
influenza	-11.7119
▁confidentiality	-11.7119
▁projected	-11.7121
▁approuver	-11.7121
▁briefly	-11.7121
▁sondages	-11.7122
▁médiation	-11.7123
▁Beijing	-11.7124
▁accueilli	-11.7127
▁drafting	-11.7129
▁elimination	-11.7129
▁PD	-11.7131
To	-11.7132
ôt	-11.7132
expliquer	-11.7134
bou	-11.7135
▁mettra	-11.7136
ural	-11.7137
▁Calcul	-11.7138
▁Membres	-11.7139
▁tuberculose	-11.715
▁terminant	-11.7151
▁proceeding	-11.7153
▁mercure	-11.7153
ssent	-11.7153
▁graphique	-11.7154
▁1993.	-11.7156
▁3.4	-11.7157
▁autonome	-11.7159
▁disant	-11.7159
▁accumulé	-11.7163
▁approuvées	-11.7163
▁biggest	-11.7163
8)	-11.7165
ifié	-11.7166
▁absorb	-11.7166
omy	-11.7169
▁discretion	-11.7169
▁tchèque	-11.7171
chan	-11.7172
▁efficiently	-11.7174
▁fla	-11.7174
oxyde	-11.7176
▁sain	-11.7176
▁faisaient	-11.7177
ident	-11.7177
leur	-11.718
▁détaillants	-11.7181
▁Objectifs	-11.7182
idae	-11.7182
▁Self	-11.7183
gram	-11.7184
▁avancés	-11.7184
▁repeated	-11.7184
▁Chart	-11.7186
insuffisance	-11.7188
▁jurisprudence	-11.7188
▁Cape	-11.7189
▁deduct	-11.719
▁lu	-11.7193
metric	-11.7193
▁requesting	-11.7193
▁thorough	-11.7193
▁crew	-11.7193
▁Inscrivez	-11.7193
▁concitoyens	-11.7193
▁Rio	-11.7194
tour	-11.7194
▁nommés	-11.7194
▁qualités	-11.7197
opérations	-11.7197
▁correctionnel	-11.7198
▁hommage	-11.7199
▁therapeutic	-11.7199
BI	-11.7203
▁logistique	-11.7204
uri	-11.7205
▁checks	-11.7205
pel	-11.7206
▁interactive	-11.7206
▁possess	-11.7207
▁Habitat	-11.7208
TV	-11.7208
▁BR	-11.7209
▁campaigns	-11.7209
▁fier	-11.7211
▁aspirations	-11.7211
▁demonstrates	-11.7212
ld	-11.7215
▁signification	-11.7216
▁FE	-11.7218
range	-11.7219
▁démonstration	-11.7219
▁Due	-11.722
power	-11.722
logical	-11.7223
▁intermédiaire	-11.7223
tien	-11.7226
▁witness	-11.7227
hygiène	-11.7227
▁5.3	-11.7227
▁Vision	-11.723
▁exemptions	-11.7232
▁square	-11.7234
▁découvrir	-11.7236
▁refugee	-11.7238
▁transform	-11.7238
▁Ou	-11.7239
▁suspect	-11.7239
▁willingness	-11.7242
▁amené	-11.7243
▁Bosnie	-11.7243
OX	-11.7243
▁Telecommunicati	-11.7244
ALENA	-11.7245
▁23,	-11.7245
▁Objectif	-11.7246
read	-11.7247
▁cruciale	-11.7247
▁démographique	-11.7248
▁prohibition	-11.7248
els	-11.7249
▁prejudice	-11.725
▁districts	-11.725
▁propice	-11.7252
▁coherent	-11.7256
▁symbol	-11.7258
▁RA	-11.7258
▁immobiliers	-11.726
▁Singapore	-11.7262
▁breach	-11.7262
rique	-11.7262
▁causés	-11.7264
▁simulation	-11.7265
[...]
