<blank>	0
<unk>	0
<s>	0
</s>	0
<p>	0
<sep>	0
<cls>	0
s	-3.31764
,	-3.53028
.	-3.64837
▁de	-3.75126
'	-3.78218
▁the	-3.90753
▁	-4.22669
▁of	-4.39636
▁la	-4.46739
▁and	-4.62734
▁to	-4.64176
▁et	-4.66034
▁l	-4.68124
▁a	-4.78101
▁des	-4.78651
▁les	-4.81705
▁in	-4.88088
▁d	-4.89494
▁à	-4.90087
▁le	-4.91776
e	-5.00998
-	-5.12127
▁du	-5.26738
▁en	-5.33357
▁for	-5.57772
▁(	-5.58263
▁que	-5.59036
▁is	-5.5933
▁that	-5.60106
▁pour	-5.73074
ing	-5.7508
)	-5.7716
▁dans	-5.80278
es	-5.80464
▁on	-5.83606
▁un	-5.84736
▁sur	-5.8919
r	-5.91128
▁au	-5.92918
ed	-5.93297
▁qui	-5.95227
▁be	-5.98489
▁The	-6.01353
▁une	-6.02462
d	-6.07327
▁par	-6.07522
er	-6.09051
▁est	-6.17203
▁with	-6.23144
▁Canada	-6.23476
▁are	-6.24326
▁by	-6.31353
a	-6.33415
▁aux	-6.39112
▁as	-6.39822
▁or	-6.44421
▁pas	-6.4468
▁ce	-6.44916
▁not	-6.46907
▁I	-6.46958
▁ou	-6.48371
▁this	-6.48415
:	-6.48551
▁qu	-6.49894
t	-6.50175
ly	-6.52402
▁plus	-6.527
▁C	-6.53241
▁s	-6.53433
al	-6.54527
il	-6.56118
▁Le	-6.57872
/	-6.59378
▁have	-6.61225
▁an	-6.62997
ment	-6.63002
un	-6.63832
▁sont	-6.64369
▁it	-6.65221
▁will	-6.67631
y	-6.69538
▁ne	-6.6976
est	-6.72113
é	-6.73504
▁-	-6.7357
▁from	-6.74701
▁n	-6.76558
▁L	-6.76836
▁A	-6.79084
▁Les	-6.7921
;	-6.80543
n	-6.80655
▁La	-6.82701
▁ont	-6.82948
▁se	-6.83177
▁at	-6.83501
▁S	-6.84172
▁which	-6.85668
▁has	-6.88323
▁was	-6.88329
▁nous	-6.88741
nt	-6.90553
une	-6.93376
S	-6.94338
▁we	-6.95802
ant	-6.98494
ation	-6.98832
▁:	-6.99628
▁In	-7.00053
▁été	-7.00402
in	-7.01006
▁avec	-7.03106
en	-7.03385
▁M	-7.07454
▁"	-7.07548
re	-7.09127
▁re	-7.09817
ent	-7.10412
▁il	-7.13773
▁all	-7.14385
i	-7.1553
▁être	-7.15831
▁their	-7.17887
▁B	-7.18981
or	-7.20797
on	-7.21587
▁1	-7.22027
c	-7.22236
▁cette	-7.23634
▁Commission	-7.24114
▁P	-7.2523
▁Il	-7.25699
l	-7.27038
A	-7.27256
▁T	-7.27278
▁services	-7.27394
o	-7.27974
▁also	-7.28948
▁ces	-7.29001
).	-7.29129
▁F	-7.30587
▁c	-7.33845
▁been	-7.34745
▁leur	-7.35851
▁En	-7.36216
▁would	-7.36814
▁D	-7.37092
?	-7.3731
▁fait	-7.37806
▁other	-7.38226
▁p	-7.38876
▁comme	-7.40923
g	-7.41119
C	-7.41204
▁its	-7.41407
b	-7.41999
▁G	-7.42521
▁more	-7.42624
▁can	-7.42681
▁were	-7.44707
▁should	-7.44812
m	-7.45814
u	-7.45935
▁pays	-7.4704
ur	-7.48167
▁non	-7.48395
▁but	-7.50066
ar	-7.51331
"	-7.51481
f	-7.5254
le	-7.52549
▁This	-7.52947
an	-7.54987
▁son	-7.55198
▁It	-7.55225
▁European	-7.55335
it	-7.56115
▁information	-7.56527
▁R	-7.57955
M	-7.58146
▁E	-7.59515
B	-7.60407
▁they	-7.6158
D	-7.61697
▁peut	-7.619
▁santé	-7.61929
p	-7.61996
▁Canadian	-7.62542
▁«	-7.62616
able	-7.64105
N	-7.64228
▁entre	-7.64422
▁public	-7.6464
L	-7.65041
▁si	-7.65088
▁je	-7.65694
▁these	-7.661
ra	-7.66409
▁new	-7.66533
▁sa	-7.68582
▁mais	-7.68895
ci	-7.69459
T	-7.69997
▁2	-7.70301
▁time	-7.70631
▁rapport	-7.71207
▁you	-7.72354
▁3	-7.72613
▁one	-7.7274
P	-7.72945
▁our	-7.73304
▁ré	-7.74471
G	-7.75391
▁may	-7.75428
▁gouvernement	-7.75665
▁must	-7.7608
ait	-7.76329
▁y	-7.76339
▁no	-7.76649
▁who	-7.76951
▁faire	-7.77032
ons	-7.77112
▁vous	-7.773
▁important	-7.77637
▁part	-7.77932
▁question	-7.78182
▁under	-7.78197
▁do	-7.78337
▁Mr	-7.78549
h	-7.7959
▁même	-7.79921
▁such	-7.80091
),	-7.80566
▁there	-7.80988
▁5	-7.82002
▁so	-7.82086
▁health	-7.82616
▁work	-7.82951
▁N	-7.83125
▁tout	-7.83681
th	-7.84822
▁We	-7.84849
▁aussi	-7.84892
age	-7.84926
és	-7.85433
E	-7.85465
is	-7.85508
▁Je	-7.85668
at	-7.85944
▁about	-7.86315
us	-7.86651
▁tous	-7.86754
z	-7.868
ir	-7.87016
im	-7.87555
▁than	-7.87693
▁travail	-7.8787
▁out	-7.88237
▁également	-7.88525
▁programme	-7.88598
▁cas	-7.88601
▁4	-7.88689
ive	-7.89073
▁Re	-7.89336
▁international	-7.89411
▁De	-7.90002
▁support	-7.90348
▁point	-7.90846
▁membres	-7.91106
▁$	-7.91433
▁government	-7.91458
▁dé	-7.91499
▁any	-7.91623
ée	-7.91643
▁deux	-7.91877
▁bien	-7.91967
te	-7.92095
F	-7.92624
▁recherche	-7.92775
id	-7.93209
ance	-7.93392
autres	-7.93907
▁leurs	-7.93932
▁national	-7.94053
ement	-7.94746
▁doit	-7.94931
▁report	-7.94943
▁co	-7.95604
ion	-7.96086
▁Nous	-7.96314
ate	-7.96695
▁K	-7.96778
H	-7.97064
ol	-7.97468
▁On	-7.9847
▁use	-7.98491
▁ainsi	-7.98735
▁ses	-7.98784
ity	-7.9881
ter	-7.98959
▁people	-7.98981
▁into	-7.99083
▁H	-7.99475
▁development	-8.00246
▁États	-8.00449
R	-8.00582
ers	-8.00611
▁J	-8.0114
▁protection	-8.01191
▁européenne	-8.01266
▁plan	-8.01767
▁if	-8.0202
▁%	-8.02189
▁politique	-8.02283
▁développement	-8.02653
▁19	-8.03768
▁only	-8.03956
▁b	-8.04082
O	-8.04586
k	-8.04593
▁projet	-8.05372
▁place	-8.0627
ité	-8.06449
▁Conseil	-8.06594
▁had	-8.06822
▁over	-8.06837
▁W	-8.06956
ai	-8.06982
ou	-8.07239
▁6	-8.07329
elle	-8.07528
▁between	-8.07696
▁some	-8.07885
▁pro	-8.08206
▁dont	-8.08711
V	-8.08889
▁matière	-8.09064
▁year	-8.09316
▁10	-8.09415
(	-8.09594
▁service	-8.11043
▁me	-8.11047
ine	-8.11544
▁up	-8.11602
ic	-8.11631
ad	-8.11921
▁respect	-8.12429
▁those	-8.12523
au	-8.13127
et	-8.13153
▁cadre	-8.13475
▁compte	-8.13513
▁possible	-8.13765
▁soit	-8.14401
▁countries	-8.14736
▁States	-8.15062
▁made	-8.15111
▁Dans	-8.15286
▁sous	-8.15614
ées	-8.15729
ce	-8.15884
▁when	-8.1612
▁cours	-8.1617
▁demande	-8.16212
ul	-8.17343
▁7	-8.18103
as	-8.18284
ie	-8.18347
information	-8.18919
▁what	-8.18951
▁well	-8.19403
▁f	-8.19405
▁need	-8.1946
▁questions	-8.19475
▁Council	-8.19513
▁number	-8.19524
▁Health	-8.20371
w	-8.20397
▁Act	-8.204
▁personnes	-8.20414
▁afin	-8.20545
▁situation	-8.20827
5	-8.20962
▁données	-8.20998
▁years	-8.21011
▁produits	-8.21085
▁O	-8.21094
el	-8.21167
▁policy	-8.21619
▁research	-8.21661
um	-8.21685
▁con	-8.21945
▁For	-8.22226
▁autres	-8.22263
W	-8.22536
ont	-8.22549
▁dis	-8.22705
ne	-8.22768
▁make	-8.2278
▁inter	-8.22899
1	-8.23533
▁mise	-8.23671
▁system	-8.23829
▁V	-8.24455
▁droits	-8.24494
▁nombre	-8.2456
▁two	-8.24732
▁où	-8.24935
▁through	-8.25252
à	-8.25685
▁peuvent	-8.26047
▁where	-8.2626
▁very	-8.26496
▁Pour	-8.26501
▁droit	-8.26747
▁m	-8.26851
▁contre	-8.27294
2	-8.27413
if	-8.27416
di	-8.27832
ro	-8.28161
▁système	-8.28311
▁très	-8.28376
ac	-8.28479
▁he	-8.28495
▁As	-8.28737
la	-8.28975
▁programmes	-8.29074
aux	-8.29136
▁notre	-8.29699
▁social	-8.30357
ch	-8.3042
▁sans	-8.3045
▁partie	-8.30938
▁provide	-8.3153
▁Ce	-8.31959
aient	-8.32055
▁8	-8.32475
]	-8.32598
▁Member	-8.32599
ils	-8.32638
▁first	-8.32656
▁gestion	-8.32696
ez	-8.32777
▁Europe	-8.32836
▁doivent	-8.33123
▁per	-8.33189
▁j	-8.33477
I	-8.33504
st	-8.33589
▁Si	-8.33952
▁h	-8.34356
ions	-8.3451
▁conditions	-8.34824
▁moins	-8.34951
4	-8.3526
▁mesures	-8.35365
▁document	-8.35722
Union	-8.35829
▁long	-8.35932
▁most	-8.3612
▁Parliament	-8.36584
▁9	-8.36639
▁base	-8.36672
▁them	-8.36974
3	-8.3734
▁could	-8.37584
▁process	-8.37586
▁being	-8.37739
qu	-8.38605
▁used	-8.38605
ia	-8.38618
▁12	-8.38656
▁Union	-8.38783
▁production	-8.38949
U	-8.39226
00	-8.39287
▁like	-8.3949
▁take	-8.39625
▁e	-8.39667
▁his	-8.40326
▁within	-8.40655
▁activités	-8.40788
▁budget	-8.41457
▁us	-8.41583
▁President	-8.41667
am	-8.41693
▁population	-8.41855
li	-8.41879
▁Committee	-8.41925
▁elle	-8.42083
▁program	-8.42231
▁Monsieur	-8.42454
▁because	-8.42656
ge	-8.42924
▁[	-8.43303
▁»	-8.43372
▁façon	-8.43477
▁20	-8.43537
▁your	-8.43665
▁Un	-8.43836
▁many	-8.43984
▁date	-8.44024
▁Parlement	-8.44064
▁Président	-8.4427
▁r	-8.44776
▁ministre	-8.44813
ex	-8.44931
▁total	-8.4511
▁mesure	-8.45954
ique	-8.46085
▁t	-8.46776
▁sécurité	-8.46795
op	-8.46856
▁avons	-8.46984
▁renseignements	-8.47254
▁processus	-8.47313
▁temps	-8.47331
▁Par	-8.47352
▁loi	-8.47504
▁fin	-8.47611
6	-8.47661
▁g	-8.47868
v	-8.48006
▁é	-8.48009
▁both	-8.48182
être	-8.48849
vi	-8.48915
▁order	-8.49024
8	-8.49209
▁était	-8.4923
ut	-8.49352
▁car	-8.49394
▁sera	-8.49454
▁secteur	-8.49462
▁marché	-8.49546
▁niveau	-8.49556
▁economic	-8.50065
▁À	-8.50127
and	-8.50262
▁groupe	-8.50512
ated	-8.50517
▁market	-8.50662
▁my	-8.50704
▁country	-8.50885
0	-8.50952
▁politiques	-8.51051
ence	-8.51307
de	-8.51606
▁autre	-8.51673
co	-8.52052
K	-8.5227
▁continue	-8.52302
Y	-8.52461
▁résultats	-8.52468
to	-8.52522
ies	-8.52795
ations	-8.52881
article	-8.53078
aire	-8.53215
ist	-8.53337
ating	-8.53654
▁2007	-8.5369
▁15	-8.53863
ary	-8.54236
▁ensure	-8.54405
ry	-8.54569
▁help	-8.54583
▁Minister	-8.54712
▁section	-8.55098
▁am	-8.5524
▁0	-8.55323
▁Cette	-8.55324
▁ressources	-8.55442
eau	-8.55993
▁concernant	-8.56074
▁certain	-8.56144
▁No	-8.56417
▁To	-8.56431
▁each	-8.56506
▁Loi	-8.5727
▁ex	-8.57477
7	-8.57506
▁issues	-8.57594
ab	-8.57632
▁If	-8.58138
▁including	-8.582
▁shall	-8.58237
▁now	-8.58269
eur	-8.58318
▁avoir	-8.58362
▁management	-8.58444
ri	-8.58486
▁data	-8.58496
▁EU	-8.58907
▁change	-8.58935
9	-8.58986
▁11	-8.59073
me	-8.59283
▁vue	-8.59381
té	-8.59564
▁toutes	-8.59706
▁level	-8.59721
▁exemple	-8.60214
▁européen	-8.60403
▁nos	-8.60581
▁rights	-8.606
▁same	-8.6079
▁v	-8.60794
▁selon	-8.61079
Ã	-8.61096
▁vie	-8.61568
▁period	-8.61615
▁following	-8.6172
lo	-8.61899
▁sub	-8.62034
▁toute	-8.62056
▁avant	-8.62066
con	-8.62203
▁project	-8.62325
▁pré	-8.62523
▁financial	-8.62931
▁cet	-8.62981
per	-8.63478
▁faut	-8.63485
man	-8.63506
▁future	-8.63547
▁does	-8.63552
▁how	-8.63641
▁tax	-8.63839
▁000	-8.63931
▁encore	-8.6395
isation	-8.63957
▁position	-8.63995
▁activities	-8.64863
▁entreprises	-8.65106
▁présent	-8.652
ti	-8.65516
▁human	-8.65717
▁St	-8.6579
▁provided	-8.65833
▁période	-8.65923
▁jour	-8.6597
ill	-8.66144
par	-8.66251
▁institutions	-8.66513
▁après	-8.66717
▁application	-8.66732
min	-8.66794
▁after	-8.668
▁case	-8.66875
▁fact	-8.66934
pos	-8.67126
▁années	-8.67194
▁way	-8.67202
▁taux	-8.67544
©	-8.67554
▁pre	-8.67679
▁2005	-8.67855
▁access	-8.68056
▁Une	-8.68067
▁fois	-8.68344
ial	-8.68531
ton	-8.68645
ier	-8.68807
x	-8.68947
ative	-8.69092
ca	-8.69191
gu	-8.69262
▁2006	-8.69369
▁issue	-8.69432
▁There	-8.69588
IC	-8.69644
▁available	-8.69699
▁Government	-8.69822
▁efforts	-8.69853
▁Article	-8.69932
▁économique	-8.70056
action	-8.70105
pe	-8.70105
▁certains	-8.70107
▁example	-8.70228
▁chaque	-8.7036
▁sujet	-8.70576
▁Con	-8.70751
▁devrait	-8.71096
▁donc	-8.71144
▁cause	-8.71243
▁federal	-8.71669
▁Ces	-8.71724
ag	-8.71735
▁lieu	-8.71855
▁trois	-8.7189
AC	-8.72124
▁premier	-8.7219
▁18	-8.72197
▁However	-8.72199
▁site	-8.72488
▁Program	-8.72543
▁law	-8.72596
les	-8.7261
all	-8.7272
▁Ch	-8.72791
▁ma	-8.72806
ure	-8.73143
ard	-8.73149
ta	-8.73293
ise	-8.73294
▁during	-8.73299
▁votre	-8.73361
▁mis	-8.73457
▁30	-8.73592
▁community	-8.7364
É	-8.73718
▁transport	-8.7373
▁Au	-8.73971
hui	-8.74011
▁local	-8.74065
▁formation	-8.74067
▁cela	-8.7413
▁général	-8.74178
▁million	-8.74341
▁amount	-8.74471
▁personnel	-8.74589
▁before	-8.74682
▁canadienne	-8.74838
ner	-8.7513
▁action	-8.75391
▁personne	-8.75472
go	-8.75503
▁contrôle	-8.75592
▁members	-8.75716
▁fonction	-8.75826
▁domaine	-8.7584
ES	-8.75898
▁set	-8.76108
▁three	-8.7616
évaluation	-8.76344
▁right	-8.7648
lement	-8.76546
▁qualité	-8.76602
▁ceux	-8.76676
ins	-8.76752
tic	-8.76859
ite	-8.76979
▁documents	-8.77037
▁increase	-8.77062
▁care	-8.77256
▁dollars	-8.77318
▁against	-8.77376
▁ans	-8.77505
▁soutien	-8.77582
▁première	-8.77598
qui	-8.77699
em	-8.77835
▁participation	-8.77959
▁rôle	-8.78221
▁publique	-8.78302
up	-8.78482
▁grande	-8.78753
▁2004	-8.78782
▁parties	-8.79053
ront	-8.79332
▁Co	-8.79341
ér	-8.79396
▁world	-8.79433
▁business	-8.79437
▁area	-8.79442
▁account	-8.79503
▁International	-8.79557
▁Elle	-8.79713
ants	-8.79877
▁end	-8.79931
▁DE	-8.80102
▁14	-8.80256
▁required	-8.80291
▁include	-8.80428
▁savoir	-8.8051
que	-8.80743
oc	-8.80786
▁nom	-8.80823
▁femmes	-8.80832
▁review	-8.80847
▁vote	-8.80921
▁U	-8.8115
▁sector	-8.81159
▁form	-8.81361
ous	-8.81384
▁These	-8.81413
▁areas	-8.8179
 	-8.82058
av	-8.82183
▁lui	-8.82427
▁capital	-8.82736
▁concerne	-8.82895
J	-8.82991
▁impact	-8.83078
▁comp	-8.83106
▁view	-8.83158
end	-8.83344
▁canadien	-8.83429
▁notamment	-8.83662
▁United	-8.83709
▁role	-8.83744
▁products	-8.84047
▁high	-8.84054
▁Centre	-8.84177
os	-8.84384
eurs	-8.84527
ph	-8.84594
▁société	-8.84604
▁titre	-8.84645
▁millions	-8.84795
▁manière	-8.84938
ments	-8.84959
emploi	-8.8507
tre	-8.8511
▁monde	-8.85372
▁different	-8.85428
▁produit	-8.85479
▁measures	-8.85616
▁want	-8.85617
▁plusieurs	-8.8571
▁13	-8.85802
▁peu	-8.85835
▁Pro	-8.85937
environnement	-8.86212
ot	-8.8625
▁pouvoir	-8.86327
ten	-8.86361
elles	-8.86536
▁particular	-8.86569
UE	-8.8663
▁moment	-8.868
▁An	-8.86881
▁déjà	-8.86918
▁mettre	-8.87003
aide	-8.87025
▁page	-8.87229
▁just	-8.87353
▁said	-8.8784
▁seront	-8.87871
▁women	-8.87885
▁initiatives	-8.87921
sion	-8.87967
▁Canadiens	-8.88002
▁based	-8.88071
▁avait	-8.8808
▁even	-8.88082
ap	-8.8815
▁risk	-8.88273
▁projets	-8.88276
ty	-8.88457
▁industry	-8.88491
▁large	-8.88559
▁tant	-8.8869
▁provincial	-8.88702
▁générale	-8.88841
▁nouveau	-8.88911
▁second	-8.89153
▁st	-8.89241
du	-8.89577
▁Services	-8.89601
ide	-8.89601
▁mon	-8.8963
▁decision	-8.9005
son	-8.90054
▁specific	-8.90162
▁political	-8.90207
▁1.	-8.90216
▁décision	-8.90387
▁seulement	-8.90431
ted	-8.90436
▁compris	-8.90489
▁participants	-8.90528
▁présente	-8.90562
▁group	-8.90597
Unis	-8.90788
▁further	-8.90821
▁say	-8.90843
▁w	-8.90923
▁raison	-8.90945
▁pourrait	-8.9118
▁National	-8.91206
▁financement	-8.91234
tion	-8.91247
▁interest	-8.9126
▁water	-8.91335
▁programs	-8.9145
utilisation	-8.91648
▁Department	-8.91849
▁resources	-8.91851
line	-8.91916
▁culture	-8.91937
▁New	-8.92113
tro	-8.92378
▁objectifs	-8.9252
▁traitement	-8.92556
AN	-8.92579
▁Public	-8.92724
ère	-8.92815
▁main	-8.92991
▁agreement	-8.93007
industrie	-8.93041
ian	-8.93053
▁paragraphe	-8.93054
▁He	-8.93088
»	-8.93186
▁own	-8.93222
▁depuis	-8.93249
▁œuvre	-8.93265
Europe	-8.93493
IT	-8.93578
▁risque	-8.93588
▁result	-8.93616
▁comité	-8.93694
▁mois	-8.93701
▁control	-8.93783
▁nouvelle	-8.93872
▁regard	-8.93929
che	-8.93958
▁type	-8.93998
▁subject	-8.93998
▁montant	-8.94139
▁vers	-8.94323
ale	-8.94479
▁terme	-8.94554
▁établi	-8.94636
▁met	-8.94638
▁communication	-8.94713
▁trade	-8.94716
10	-8.94823
▁ils	-8.94837
▁16	-8.94887
iv	-8.94906
om	-8.95315
be	-8.95447
▁25	-8.95524
▁final	-8.95638
▁soins	-8.95645
▁année	-8.95771
▁Canadians	-8.95784
▁Nations	-8.95922
na	-8.96022
▁prix	-8.96256
▁prendre	-8.96463
▁Programme	-8.96729
▁dit	-8.96777
va	-8.9682
▁whether	-8.96909
▁Des	-8.97145
▁addition	-8.97208
▁At	-8.97267
gi	-8.97268
▁problèmes	-8.97286
out	-8.97303
.2	-8.97343
▁va	-8.97374
▁organismes	-8.97432
▁since	-8.97611
tra	-8.97619
ue	-8.97649
tant	-8.97687
▁trans	-8.97899
ig	-8.9797
▁good	-8.97972
▁enfants	-8.9798
▁post	-8.97989
ized	-8.98049
▁results	-8.98057
our	-8.98259
▁Research	-8.98262
▁provinces	-8.98476
▁nouveaux	-8.98558
▁believe	-8.98616
▁besoin	-8.98626
▁nécessaire	-8.98685
▁É	-8.98724
▁nouvelles	-8.98927
▁member	-8.99018
ve	-8.99201
AT	-8.99317
▁directive	-8.99358
▁chez	-8.99401
▁pendant	-8.99462
ma	-8.99467
ally	-8.99624
▁basis	-8.9976
▁soient	-8.9985
▁anti	-8.999
com	-8.99926
AL	-9.00162
▁current	-9.00195
▁commission	-9.00314
▁débat	-9.00321
▁imp	-9.00352
▁know	-9.00381
▁règlement	-9.00409
▁lors	-9.00506
IS	-9.00539
▁face	-9.00781
▁grand	-9.00815
▁common	-9.00826
ub	-9.01029
▁revenu	-9.01081
▁much	-9.01092
▁proposition	-9.0117
▁1998	-9.01208
▁needs	-9.01243
▁étaient	-9.01262
▁valeur	-9.01506
ual	-9.01558
▁pay	-9.01665
▁They	-9.01703
▁sein	-9.01721
▁contribution	-9.01751
ness	-9.01765
▁progress	-9.0184
▁laquelle	-9.01858
▁funding	-9.02014
▁see	-9.02048
▁present	-9.02087
▁general	-9.0221
▁without	-9.02214
▁Bureau	-9.02315
▁br	-9.02354
land	-9.02413
agit	-9.02489
▁Ma	-9.02547
▁address	-9.02551
▁fonds	-9.02571
ities	-9.02634
▁training	-9.0276
▁nature	-9.02797
▁Service	-9.02969
▁therefore	-9.02991
▁traité	-9.03031
▁contract	-9.03107
▁given	-9.0316
▁approach	-9.03175
▁17	-9.03258
▁Comité	-9.03371
▁cent	-9.0338
accord	-9.03454
▁last	-9.03588
▁internationale	-9.03622
▁beaucoup	-9.03651
▁vertu	-9.03655
▁force	-9.03711
▁particulier	-9.0373
▁commercial	-9.03763
EC	-9.03823
▁cost	-9.03824
▁groupes	-9.03921
ire	-9.04108
ification	-9.04176
▁2003	-9.04203
▁her	-9.04439
▁régime	-9.04517
ré	-9.04531
▁effet	-9.04618
▁Information	-9.04672
▁global	-9.04721
ization	-9.04971
▁did	-9.05092
mi	-9.05226
▁Community	-9.05269
▁eu	-9.05285
▁small	-9.05433
▁charge	-9.05566
▁100	-9.05675
è	-9.05723
▁among	-9.05731
▁points	-9.05739
CE	-9.05777
ign	-9.05851
▁appropriate	-9.05976
▁taken	-9.06133
lu	-9.06156
▁while	-9.06245
▁déclaration	-9.0625
▁2000	-9.06272
▁allow	-9.06317
▁direct	-9.06384
▁necessary	-9.06414
ay	-9.06422
▁ci	-9.06431
▁food	-9.06442
▁jusqu	-9.06465
art	-9.06536
▁région	-9.06679
▁working	-9.06739
▁moyen	-9.06832
▁Office	-9.06918
▁1997	-9.0731
▁bon	-9.0754
▁key	-9.07646
ible	-9.07764
▁think	-9.07907
▁clear	-9.07912
▁31	-9.08074
▁effective	-9.08177
▁problème	-9.08217
▁That	-9.0827
ven	-9.08303
▁means	-9.08384
▁province	-9.08434
."	-9.08629
pro	-9.08709
air	-9.0882
application	-9.08821
▁certaines	-9.08827
Q	-9.08884
▁2002	-9.08928
rait	-9.08991
▁nationale	-9.09219
▁House	-9.09321
▁income	-9.0934
▁suis	-9.09382
act	-9.09438
▁Development	-9.09498
hi	-9.09521
ling	-9.09559
01	-9.0975
▁forme	-9.09847
ni	-9.09899
▁major	-9.09974
▁Se	-9.10069
▁sp	-9.10135
form	-9.10161
▁person	-9.10173
▁1999	-9.10225
▁requirements	-9.105
objet	-9.10673
▁visant	-9.10696
▁Ontario	-9.10861
▁relations	-9.10902
▁jeunes	-9.10938
▁Plan	-9.10992
ler	-9.11036
ib	-9.11048
▁rate	-9.11051
▁parce	-9.11117
ability	-9.11141
▁donné	-9.11243
▁besoins	-9.11298
▁legal	-9.11438
année	-9.11474
▁product	-9.11647
▁Ro	-9.11685
▁serait	-9.11696
▁individual	-9.12077
▁related	-9.12129
▁fédéral	-9.1231
▁ni	-9.12333
▁dire	-9.12439
▁quality	-9.12462
▁mission	-9.1259
▁devons	-9.12657
nd	-9.12697
▁dépenses	-9.12805
▁direction	-9.12949
▁still	-9.12996
▁security	-9.13076
▁six	-9.13256
▁act	-9.13332
ang	-9.13346
▁environmental	-9.13519
▁General	-9.13544
▁All	-9.1364
▁président	-9.13709
ful	-9.13715
.3	-9.13798
▁children	-9.13821
▁21	-9.13821
▁Group	-9.13897
mo	-9.14098
▁value	-9.14189
urs	-9.14236
CI	-9.144
ting	-9.14403
ight	-9.14551
▁legislation	-9.14638
▁Board	-9.14678
▁structure	-9.14679
▁collaboration	-9.14679
▁ch	-9.14731
ow	-9.14733
ha	-9.14748
▁mé	-9.14765
▁alors	-9.14865
▁cannot	-9.14872
▁suite	-9.1499
autre	-9.14993
SE	-9.15081
▁2001	-9.15173
▁dispositions	-9.15226
▁terms	-9.15376
▁environment	-9.15431
▁toujours	-9.15524
▁proposed	-9.1553
ba	-9.15646
▁Convention	-9.15678
▁aujourd	-9.15799
▁groups	-9.15863
▁proposal	-9.16035
ob	-9.16043
▁better	-9.16044
ER	-9.16063
ensemble	-9.1619
▁ayant	-9.16191
▁give	-9.16218
▁already	-9.16242
▁show	-9.16343
▁croissance	-9.16349
▁study	-9.16355
▁debate	-9.16399
AR	-9.16475
▁propriété	-9.16587
▁celle	-9.16587
ités	-9.16611
▁initiative	-9.16633
▁Québec	-9.1674
▁come	-9.16787
▁24	-9.16848
▁accord	-9.1716
▁lorsque	-9.17195
▁potential	-9.17208
ical	-9.17219
▁Ad	-9.1738
▁Date	-9.17635
▁today	-9.17642
▁knowledge	-9.17673
▁court	-9.17706
▁investment	-9.17733
▁importance	-9.17787
IN	-9.17867
▁celui	-9.17873
&	-9.17908
voir	-9.18066
▁Report	-9.18115
▁comment	-9.18167
▁mot	-9.18261
▁special	-9.18534
examen	-9.18752
mon	-9.18814
50	-9.18832
▁contact	-9.18896
▁power	-9.18933
▁course	-9.18942
▁divers	-9.19029
▁sommes	-9.19226
▁education	-9.19277
▁found	-9.19286
▁Santé	-9.19372
ici	-9.19389
the	-9.19397
▁here	-9.19471
ient	-9.19505
ak	-9.19575
▁commerce	-9.19585
iste	-9.19817
▁promotion	-9.19828
▁coopération	-9.19843
eux	-9.19844
ors	-9.20043
▁become	-9.20056
▁growth	-9.20151
▁Do	-9.20172
▁projects	-9.20374
▁day	-9.20415
▁costs	-9.20436
iser	-9.20504
ateurs	-9.20517
▁rest	-9.20608
▁demand	-9.20619
▁2008	-9.20756
accès	-9.20799
▁life	-9.20873
▁ministère	-9.21094
▁communities	-9.21106
▁devraient	-9.2121
▁Dr	-9.21268
cre	-9.2143
▁apply	-9.21529
▁four	-9.2179
▁1996	-9.21834
▁property	-9.21888
ver	-9.21988
▁RE	-9.22105
▁go	-9.22126
X	-9.22135
▁Mo	-9.22145
▁consider	-9.2216
▁then	-9.22173
▁reçu	-9.22272
▁What	-9.22493
▁considered	-9.22553
ais	-9.22562
▁Web	-9.22638
▁organizations	-9.22652
▁man	-9.22701
▁policies	-9.22713
▁request	-9.22746
▁relatives	-9.22761
▁plans	-9.22974
ille	-9.23069
▁framework	-9.23263
tr	-9.23275
aires	-9.23351
▁performance	-9.23468
▁spécial	-9.2354
▁committee	-9.23846
▁&	-9.23878
▁outre	-9.24072
▁First	-9.24188
one	-9.24198
▁1,	-9.24409
▁WIPO	-9.2444
▁changes	-9.24489
▁commun	-9.24516
établissement	-9.24542
▁coûts	-9.24683
iques	-9.24685
▁however	-9.24745
▁implementation	-9.24758
▁staff	-9.25011
▁significant	-9.2502
▁rec	-9.25039
ages	-9.25065
od	-9.25182
ger	-9.25504
ration	-9.25536
▁Y	-9.25571
▁technologies	-9.25583
▁tenu	-9.25657
▁po	-9.25717
▁consultation	-9.25956
▁22	-9.26174
▁put	-9.26321
▁vo	-9.26359
▁Me	-9.26361
▁cases	-9.26378
▁Ex	-9.26507
▁al	-9.2655
▁bonne	-9.26651
▁Agency	-9.26662
▁session	-9.26718
▁Inc	-9.26816
▁pêche	-9.26881
▁open	-9.26916
RE	-9.27061
vis	-9.27076
30	-9.27267
▁sources	-9.27317
▁various	-9.27334
▁capacité	-9.27349
▁received	-9.27434
ifs	-9.27587
vent	-9.27589
EN	-9.27613
▁Quebec	-9.2771
▁mieux	-9.27748
▁organ	-9.27833
▁bo	-9.27847
▁licence	-9.27922
▁effect	-9.27954
▁problem	-9.28021
▁citoyens	-9.28066
ev	-9.281
▁sens	-9.28121
▁State	-9.28144
▁focus	-9.28268
▁aspects	-9.28384
20	-9.28398
▁able	-9.28399
▁ad	-9.28486
▁provides	-9.28607
▁safety	-9.28689
État	-9.28788
▁develop	-9.28915
▁stratégie	-9.28972
▁problems	-9.28997
▁opinion	-9.29066
▁elles	-9.29088
▁next	-9.29104
intérêt	-9.29236
▁using	-9.29293
▁assessment	-9.29331
ables	-9.29392
▁levels	-9.29513
▁meeting	-9.29551
▁50	-9.29587
▁real	-9.29619
ction	-9.2976
▁normes	-9.29778
▁parti	-9.29869
▁positive	-9.29968
assurance	-9.30077
▁another	-9.30172
ON	-9.30177
▁systems	-9.3025
▁But	-9.30388
▁Al	-9.30411
gr	-9.30645
▁rapporteur	-9.30649
ord	-9.3065
▁systèmes	-9.30733
▁surveillance	-9.30832
▁response	-9.30934
ize	-9.31008
ois	-9.31052
▁Commissioner	-9.31123
▁font	-9.31189
▁déterminer	-9.31215
▁solution	-9.31257
▁Comme	-9.3143
▁applicable	-9.31496
▁every	-9.31586
ét	-9.31645
▁increased	-9.31648
▁Cela	-9.3166
▁contrat	-9.31674
▁quant	-9.3172
lé	-9.32017
▁Internet	-9.32132
▁down	-9.32136
▁full	-9.32201
▁meet	-9.32234
▁multi	-9.32255
▁return	-9.32309
ED	-9.32311
▁US	-9.32347
▁régions	-9.32353
ish	-9.32397
▁discussion	-9.32425
▁23	-9.32504
▁souvent	-9.32533
▁developing	-9.32593
ick	-9.3262
▁developed	-9.3273
▁permis	-9.32762
▁maintenant	-9.32874
▁call	-9.32887
▁export	-9.3292
13	-9.33041
ris	-9.33076
▁Br	-9.33201
▁source	-9.33234
▁benefits	-9.33347
ell	-9.33399
15	-9.33429
amp	-9.3351
▁nombreux	-9.33547
▁employment	-9.33555
▁particularly	-9.33678
bi	-9.33679
mé	-9.33778
▁So	-9.3398
▁actions	-9.34009
▁play	-9.34063
▁Ministère	-9.34168
▁organisations	-9.34329
mor	-9.34356
▁pension	-9.34369
▁Mais	-9.34386
▁test	-9.34422
▁Ha	-9.34516
▁fournir	-9.34611
▁tel	-9.34713
né	-9.34772
▁goods	-9.34773
pend	-9.34812
▁line	-9.34825
ière	-9.34863
▁few	-9.34897
▁mal	-9.34928
▁cooperation	-9.35046
▁benefit	-9.3515
▁field	-9.35183
activité	-9.35222
▁risques	-9.35268
▁employés	-9.35528
▁permet	-9.35612
▁Di	-9.35629
uit	-9.3563
▁frais	-9.35634
.1	-9.35679
▁donner	-9.35681
▁established	-9.35716
tent	-9.35758
▁création	-9.36017
▁across	-9.36083
▁inform	-9.36135
OR	-9.36158
▁éléments	-9.36193
ism	-9.36266
▁clients	-9.36278
▁pense	-9.36279
port	-9.36368
▁organization	-9.36387
▁included	-9.36504
▁back	-9.36624
ix	-9.36726
AP	-9.36757
▁travaux	-9.3677
▁dernier	-9.36846
▁Agreement	-9.3709
administration	-9.37138
val	-9.37446
▁pr	-9.37664
▁relative	-9.37747
▁analyse	-9.37791
gen	-9.3793
▁model	-9.38195
▁coût	-9.38259
own	-9.38369
use	-9.38403
▁liste	-9.38413
▁étant	-9.38476
▁patients	-9.38477
▁2.	-9.38517
let	-9.38689
".	-9.38717
▁cinq	-9.38722
▁objectives	-9.38731
▁reflect	-9.38756
▁pratiques	-9.38787
▁improve	-9.38853
▁regional	-9.38875
▁name	-9.38889
▁ligne	-9.38928
▁voie	-9.39044
▁gens	-9.39087
▁standards	-9.39096
▁mondiale	-9.39117
pri	-9.39138
▁commitment	-9.39293
▁voir	-9.3936
▁March	-9.39415
ron	-9.39423
▁Sa	-9.39456
▁quelques	-9.39464
▁list	-9.39538
impôt	-9.39591
▁code	-9.39758
▁justice	-9.39793
▁best	-9.3984
inter	-9.39876
▁permanent	-9.39917
▁involved	-9.3992
▁treatment	-9.39952
▁demandes	-9.40011
▁exigences	-9.40075
ond	-9.40121
ach	-9.40171
▁délégation	-9.40212
▁celles	-9.4032
▁effets	-9.40362
uel	-9.40388
da	-9.40507
▁energy	-9.4067
▁lorsqu	-9.40674
▁règles	-9.40676
▁experience	-9.40856
▁limit	-9.40867
ines	-9.40894
ke	-9.40942
▁Tout	-9.40947
▁Mar	-9.40975
▁rules	-9.41002
ep	-9.4103
▁great	-9.41054
entreprise	-9.41148
▁paragraph	-9.41197
▁quatre	-9.41237
▁foreign	-9.414
▁di	-9.41473
▁fins	-9.4148
▁administrative	-9.41482
▁relevant	-9.41491
▁attention	-9.41551
▁voudrais	-9.41557
▁unique	-9.41592
▁déc	-9.41642
▁distribution	-9.41696
▁matter	-9.41753
▁active	-9.418
▁technology	-9.41948
▁Management	-9.41969
tation	-9.42012
éc	-9.42044
▁Su	-9.42058
▁plupart	-9.42228
▁short	-9.4231
▁affect	-9.4234
▁assist	-9.42351
ud	-9.42354
▁least	-9.42468
▁making	-9.42469
tes	-9.42485
▁avis	-9.42523
cé	-9.4254
▁Car	-9.42594
assurer	-9.42615
lor	-9.42665
omm	-9.42711
▁études	-9.42746
▁pris	-9.42991
élaboration	-9.43012
▁actuelle	-9.43091
do	-9.4316
▁provisions	-9.43206
▁II	-9.4323
▁several	-9.43321
nelle	-9.43629
▁With	-9.43643
tu	-9.43777
▁décisions	-9.4384
▁condition	-9.43941
ose	-9.43962
▁get	-9.43977
▁claim	-9.43982
▁note	-9.43993
▁mandat	-9.44006
▁additional	-9.44154
▁far	-9.44223
▁assistance	-9.44239
▁personal	-9.44244
▁existe	-9.4425
▁share	-9.44265
▁home	-9.44305
homme	-9.4434
ateur	-9.44345
isme	-9.44369
▁techniques	-9.444
ll	-9.44404
ert	-9.44454
▁nécessaires	-9.44571
▁suggest	-9.44573
▁Section	-9.4472
▁preuve	-9.44736
▁mi	-9.44742
▁private	-9.44749
▁importante	-9.44769
▁financière	-9.44807
▁réduire	-9.4484
lic	-9.44899
ette	-9.44947
▁citizens	-9.44965
▁Aboriginal	-9.45013
▁rep	-9.45061
ind	-9.45127
▁début	-9.45222
▁auprès	-9.45279
AS	-9.4535
▁done	-9.45402
▁companies	-9.45499
▁state	-9.4551
12	-9.45513
.4	-9.45608
▁types	-9.45733
▁réduction	-9.45799
égard	-9.45847
CC	-9.45902
vo	-9.46068
▁Toutefois	-9.4617
▁And	-9.46213
▁1995	-9.46333
▁membre	-9.46333
▁too	-9.46335
▁port	-9.46374
▁changements	-9.46408
ship	-9.46455
▁air	-9.46487
▁together	-9.46489
▁greater	-9.46514
OMPI	-9.46515
hor	-9.46584
▁responsible	-9.46671
▁propos	-9.46785
▁davantage	-9.46812
▁above	-9.46851
11	-9.469
ock	-9.46911
▁communautaire	-9.46964
▁pu	-9.46971
▁encourage	-9.46996
▁directeur	-9.47078
▁evaluation	-9.47191
▁sociale	-9.47286
▁offer	-9.47356
ase	-9.47441
▁promote	-9.47511
▁hope	-9.47602
cur	-9.47724
ns	-9.47808
▁capacity	-9.47829
▁refus	-9.47831
▁five	-9.47841
PP	-9.47892
PC	-9.47942
▁rapports	-9.48009
▁référence	-9.48043
▁vente	-9.48045
▁often	-9.48048
▁visit	-9.48126
▁26	-9.48165
▁When	-9.48185
▁jours	-9.48281
▁électronique	-9.48289
14	-9.48316
▁Vi	-9.48414
ienne	-9.48544
▁opportunity	-9.4856
amélioration	-9.48608
▁annual	-9.4861
vers	-9.4863
cul	-9.48673
▁find	-9.48682
▁constitue	-9.48684
▁strategy	-9.48706
▁attend	-9.48761
▁pratique	-9.48809
fin	-9.48867
▁responsabilité	-9.48886
▁aucun	-9.48935
▁vigueur	-9.48959
termin	-9.49077
▁obtenir	-9.49078
▁disease	-9.49117
▁economy	-9.4912
éré	-9.49286
▁protect	-9.49313
▁University	-9.49363
ck	-9.49375
▁procédure	-9.49413
▁(19	-9.49508
▁rendement	-9.49542
cip	-9.49628
particulièrement	-9.49664
▁permettre	-9.49734
▁durable	-9.49811
▁Table	-9.49872
▁aucune	-9.49908
▁Other	-9.49926
▁fiscal	-9.49935
▁principal	-9.49971
iers	-9.49975
▁bank	-9.5
▁trouver	-9.50114
▁phase	-9.50116
▁approche	-9.50203
abord	-9.50233
occup	-9.50263
▁audit	-9.50333
▁o	-9.50422
▁OF	-9.50449
▁third	-9.5052
▁sign	-9.5056
rie	-9.50606
▁X	-9.50609
efficacité	-9.50615
▁fa	-9.5064
▁cons	-9.50722
▁gr	-9.50792
énergie	-9.50842
. 	-9.50871
▁function	-9.50889
▁school	-9.50903
▁Ottawa	-9.50907
DE	-9.50934
▁27	-9.50955
▁faible	-9.5098
▁marchés	-9.51005
▁réponse	-9.51075
▁canadiens	-9.51112
SC	-9.51195
▁months	-9.51211
▁propose	-9.51257
▁mars	-9.51307
▁existing	-9.51333
▁changement	-9.51339
CH	-9.5134
▁Cour	-9.51396
▁différents	-9.51433
▁domaines	-9.51452
ante	-9.5147
ring	-9.51495
▁disposition	-9.51522
▁why	-9.51581
▁low	-9.51595
LE	-9.51631
▁Policy	-9.51701
▁strong	-9.51703
▁bring	-9.51719
▁efficace	-9.51738
▁fr	-9.51784
▁i	-9.51796
io	-9.51809
ec	-9.51831
res	-9.51907
▁profit	-9.51942
▁Speaker	-9.51945
▁import	-9.51969
appui	-9.52006
▁40	-9.52085
▁reform	-9.52126
▁evidence	-9.52159
▁secteurs	-9.52241
▁vérification	-9.5225
▁réforme	-9.52262
importance	-9.52275
▁success	-9.52289
▁adopted	-9.5229
▁region	-9.52326
▁she	-9.52337
term	-9.52352
▁construction	-9.52366
▁indiqué	-9.52381
▁termes	-9.52446
▁fall	-9.52539
▁motion	-9.5259
▁message	-9.52596
ho	-9.52664
▁*	-9.52694
▁réserve	-9.52698
éducation	-9.5277
▁live	-9.52772
rain	-9.52835
▁28	-9.52853
rant	-9.52939
(1)	-9.52988
▁analysis	-9.52994
tain	-9.5302
▁suivi	-9.53056
ric	-9.53115
▁UN	-9.53122
▁pourraient	-9.53164
non	-9.53275
▁Treaty	-9.53286
▁reste	-9.53312
▁partnership	-9.53462
▁canadiennes	-9.53473
▁obligations	-9.53539
ures	-9.53579
▁concept	-9.53596
▁accept	-9.53686
▁administration	-9.53698
▁présenté	-9.53702
▁held	-9.53889
ding	-9.53987
annexe	-9.53998
ral	-9.5403
▁pourquoi	-9.54047
▁employees	-9.54061
▁off	-9.54107
rons	-9.54169
avenir	-9.54178
même	-9.54253
▁conformément	-9.54278
▁term	-9.54426
▁network	-9.54467
▁aide	-9.54483
▁wish	-9.54574
ook	-9.54639
▁violence	-9.54639
▁cultural	-9.54656
tri	-9.54667
▁convention	-9.54714
▁écrit	-9.54842
▁recent	-9.54852
▁deuxième	-9.54908
▁technologie	-9.54919
économie	-9.54923
SA	-9.54934
▁actuellement	-9.55011
mis	-9.5507
▁proportion	-9.55149
▁land	-9.5516
▁guide	-9.55164
▁represent	-9.55169
▁identified	-9.55191
▁dernière	-9.55209
▁sport	-9.55212
▁billion	-9.55232
▁forward	-9.55269
▁Mme	-9.55288
▁exception	-9.55336
he	-9.55373
▁assurer	-9.555
spect	-9.55535
▁législation	-9.55562
▁déclaré	-9.55636
▁euro	-9.55644
▁centre	-9.55685
ts	-9.55692
lin	-9.557
▁délai	-9.55738
▁discussions	-9.5577
▁free	-9.55775
▁hand	-9.55795
▁aider	-9.55853
pt	-9.55867
CR	-9.56005
▁police	-9.56047
ture	-9.56107
ali	-9.56112
▁might	-9.56185
fe	-9.56191
based	-9.56211
25	-9.56225
▁sorte	-9.5626
▁May	-9.56261
mit	-9.56292
abilité	-9.5638
▁difficult	-9.56387
▁telle	-9.56439
▁demandé	-9.56475
▁lutte	-9.56479
▁Code	-9.56591
▁credit	-9.56601
▁Nord	-9.56629
▁age	-9.56764
▁design	-9.56781
5%	-9.56788
▁having	-9.5679
▁chose	-9.5679
ify	-9.56791
mar	-9.56824
▁économiques	-9.56841
tail	-9.56855
▁art	-9.56882
▁infrastructure	-9.56889
▁améliorer	-9.56926
tal	-9.56999
▁language	-9.57089
tor	-9.57168
pa	-9.5719
ice	-9.57192
▁Court	-9.57198
▁reported	-9.57235
▁fond	-9.57246
▁conséquent	-9.57248
▁destiné	-9.57346
▁autochtones	-9.57372
side	-9.57391
isse	-9.57406
▁prevent	-9.5742
ologie	-9.57515
▁look	-9.57777
▁balance	-9.57778
▁concern	-9.57964
▁statement	-9.58024
RI	-9.58053
▁activity	-9.58061
▁past	-9.58074
▁central	-9.58078
▁paid	-9.58135
▁Comp	-9.58185
▁plant	-9.58196
CT	-9.58236
ATION	-9.5829
fer	-9.58368
▁December	-9.58383
▁coordination	-9.5845
▁dialogue	-9.58524
▁authorities	-9.58528
duc	-9.58575
▁intellectuelle	-9.58605
▁responsibility	-9.58617
▁publication	-9.58658
way	-9.58661
▁society	-9.58682
▁file	-9.58697
▁appear	-9.58726
▁civil	-9.5875
▁bio	-9.5876
ever	-9.58782
▁relation	-9.5884
▁répondre	-9.58849
ga	-9.5885
▁French	-9.58853
▁serious	-9.58869
no	-9.58914
▁June	-9.58928
▁Bien	-9.58964
nu	-9.58987
▁/	-9.59061
▁rem	-9.59084
▁money	-9.59084
▁évaluation	-9.59095
NA	-9.59139
▁fer	-9.59151
ified	-9.59162
▁seul	-9.5917
▁studies	-9.59299
red	-9.59383
ack	-9.59391
cent	-9.5941
▁Director	-9.59445
▁milieu	-9.59457
échelle	-9.59495
▁Institute	-9.59514
après	-9.59703
ency	-9.59706
▁moyens	-9.59726
▁correspond	-9.5984
▁ca	-9.59873
▁consommateurs	-9.59911
▁purpose	-9.59934
▁Pre	-9.59941
▁trop	-9.60013
▁version	-9.6004
▁décembre	-9.601
▁difficile	-9.60103
▁aid	-9.6015
analyse	-9.60271
▁principe	-9.60401
lect	-9.6041
▁Bo	-9.60425
▁mu	-9.60479
▁député	-9.60493
PS	-9.60495
ries	-9.60529
▁Chambre	-9.6055
▁»,	-9.60597
nel	-9.60634
cour	-9.60676
▁juin	-9.60715
▁travailleurs	-9.6076
▁reduce	-9.60776
less	-9.60819
▁appel	-9.60851
▁réglementation	-9.60853
cri	-9.60914
03	-9.61003
fect	-9.61004
extérieur	-9.61012
DA	-9.61117
▁British	-9.61189
yl	-9.61202
▁Inter	-9.6121
▁partenaires	-9.61237
▁effects	-9.61254
▁semble	-9.61275
▁Human	-9.61289
▁moyenne	-9.61401
▁1994	-9.61413
Agence	-9.6145
▁progrès	-9.61459
▁3.	-9.61495
▁radio	-9.6151
▁crise	-9.61571
▁contributions	-9.61577
▁poste	-9.616
▁calcul	-9.61608
▁remain	-9.61681
▁expected	-9.61703
▁privé	-9.6173
▁Vous	-9.61779
▁contexte	-9.61793
▁oeuvre	-9.61831
▁transfer	-9.61853
▁table	-9.61867
▁mai	-9.61879
▁lead	-9.619
-1	-9.61927
▁similar	-9.61929
ule	-9.62054
▁réalisé	-9.62119
iens	-9.62121
▁sol	-9.62143
▁young	-9.62204
▁facteurs	-9.62261
0%	-9.6229
▁eux	-9.62329
▁figure	-9.62377
▁opportunities	-9.62402
▁range	-9.62462
▁avaient	-9.62504
▁possibilité	-9.62563
▁professional	-9.62565
▁Bank	-9.62577
▁You	-9.62578
▁funds	-9.62578
ath	-9.62618
▁$1	-9.62669
atif	-9.62681
▁Ils	-9.6276
▁Cependant	-9.62821
▁emploi	-9.62828
▁présenter	-9.62918
▁plutôt	-9.62922
struct	-9.62941
▁content	-9.62999
▁concerned	-9.63006
▁identify	-9.6301
▁whole	-9.63085
▁contenu	-9.63152
cro	-9.6326
▁créer	-9.63309
▁chef	-9.6335
▁meilleure	-9.63395
▁IN	-9.63429
▁Dé	-9.63526
TE	-9.63558
▁ailleurs	-9.63583
▁ask	-9.63631
▁su	-9.63631
TA	-9.63648
▁minister	-9.63671
iti	-9.63682
met	-9.63689
▁receive	-9.63694
▁propositions	-9.6372
▁providing	-9.63778
▁office	-9.63783
▁Pa	-9.63823
▁app	-9.63889
▁priorités	-9.6389
▁essential	-9.63905
of	-9.63938
▁simple	-9.63998
▁modèle	-9.64052
sh	-9.64056
▁députés	-9.6406
▁solutions	-9.6412
▁One	-9.64218
▁provision	-9.64221
▁family	-9.64303
▁rates	-9.64332
po	-9.64342
▁Q	-9.64362
▁higher	-9.64377
EL	-9.64573
▁partir	-9.64587
.5	-9.64643
▁context	-9.64724
▁bi	-9.64725
▁currently	-9.64727
▁days	-9.64746
uff	-9.64771
▁représente	-9.64813
▁Part	-9.64817
▁create	-9.64888
▁animal	-9.6502
▁needed	-9.65058
▁cancer	-9.65085
▁instruments	-9.65088
ru	-9.65123
RS	-9.65129
▁recommandations	-9.65132
istes	-9.65163
▁demander	-9.65185
▁faveur	-9.65219
étude	-9.65251
mm	-9.65283
%	-9.65299
ving	-9.65306
▁Trade	-9.65321
▁Some	-9.65438
mer	-9.65452
▁media	-9.65457
▁draft	-9.65484
▁men	-9.65521
▁procedures	-9.65543
▁official	-9.65566
▁prévu	-9.65607
▁Association	-9.65609
▁principes	-9.65623
ran	-9.65633
▁zone	-9.65685
▁crime	-9.65694
▁Ca	-9.65719
▁grâce	-9.65805
▁Qu	-9.65895
tern	-9.65951
▁communications	-9.65986
▁single	-9.66025
j	-9.6609
▁reports	-9.66129
▁Direction	-9.66167
▁Du	-9.66169
▁building	-9.66188
DI	-9.66267
▁reason	-9.6636
ame	-9.66368
▁Selon	-9.66374
▁tels	-9.66387
lle	-9.66409
ox	-9.66522
▁Or	-9.66604
▁survey	-9.66632
érer	-9.66661
OL	-9.66663
▁Ré	-9.66667
16	-9.66687
▁autorités	-9.66689
ect	-9.66693
▁bill	-9.66782
lig	-9.66791
isée	-9.66803
investissement	-9.66804
▁sites	-9.66829
▁CO	-9.6686
▁conclu	-9.66894
▁standard	-9.66915
ka	-9.66951
bu	-9.67015
▁proposé	-9.67022
RA	-9.67046
▁continu	-9.67062
▁agree	-9.67088
▁occasion	-9.67097
▁1990	-9.67162
▁determine	-9.67233
▁fédérale	-9.67319
▁matériel	-9.67376
emb	-9.67398
▁regarding	-9.67418
for	-9.67427
▁Tribunal	-9.67434
▁resolution	-9.67453
▁decisions	-9.67501
▁reference	-9.67508
▁practices	-9.67539
ux	-9.67564
▁élevé	-9.67618
05	-9.67656
▁January	-9.67714
▁29	-9.67771
▁Rapport	-9.67772
▁workers	-9.67916
vit	-9.67916
▁associated	-9.6793
ade	-9.67938
▁thank	-9.67977
avoir	-9.68017
▁concerns	-9.68042
▁article	-9.68046
cré	-9.68056
▁Regulations	-9.68082
dic	-9.68101
exercice	-9.68107
ordre	-9.68168
her	-9.6817
▁Dis	-9.68198
60	-9.682
▁Be	-9.68205
000	-9.68208
▁aim	-9.68223
▁Fund	-9.6824
▁nationaux	-9.68278
ari	-9.68298
▁statut	-9.68307
ave	-9.68348
40	-9.68358
▁technical	-9.68417
▁passé	-9.68429
▁aliments	-9.68516
▁résolution	-9.68552
▁substances	-9.68568
▁technique	-9.68595
▁election	-9.68605
▁comprend	-9.6865
▁nécessité	-9.68676
▁mode	-9.68699
ME	-9.68744
▁communauté	-9.68791
▁obtenu	-9.68871
▁60	-9.68883
ory	-9.6896
▁objective	-9.69012
ssent	-9.69054
▁essentiel	-9.69132
▁ici	-9.69145
▁France	-9.69175
99	-9.69198
IR	-9.69277
▁likely	-9.69281
02	-9.69325
▁?	-9.69339
▁reli	-9.69423
▁k	-9.6949
▁April	-9.69523
▁amendments	-9.69531
time	-9.69552
▁rather	-9.69611
▁affaires	-9.69688
lant	-9.69714
▁modifications	-9.69736
IM	-9.69831
▁relationship	-9.69838
▁either	-9.69852
▁connaissances	-9.69903
19	-9.69927
▁nombreuses	-9.69963
oire	-9.69984
▁exige	-9.70026
▁applications	-9.7009
gén	-9.70106
▁réunion	-9.70127
▁publié	-9.70129
▁upon	-9.70173
▁là	-9.70189
▁surtout	-9.70208
▁sociétés	-9.70245
▁natural	-9.7025
▁gu	-9.70253
â	-9.70287
▁compétences	-9.70312
▁janvier	-9.70344
origine	-9.7035
pp	-9.70361
▁Air	-9.70373
avis	-9.70408
▁critères	-9.70464
fl	-9.7049
▁ver	-9.70589
▁travel	-9.70658
IA	-9.70714
▁command	-9.70752
▁individuals	-9.70796
97	-9.70834
▁environnemental	-9.70854
cept	-9.70855
▁rendre	-9.70878
▁again	-9.709
▁chercheurs	-9.70962
▁World	-9.71
▁don	-9.71047
▁joint	-9.711
▁conduct	-9.71121
▁Form	-9.71126
▁behalf	-9.71136
▁unit	-9.71156
▁marchandises	-9.71181
▁correct	-9.71184
▁principaux	-9.71274
▁finance	-9.71295
▁réseau	-9.71417
18	-9.71423
▁langue	-9.71464
▁porte	-9.71482
▁require	-9.71503
▁idea	-9.71509
SP	-9.71544
▁interne	-9.71585
▁tenir	-9.71615
▁devant	-9.71618
▁especially	-9.71668
▁employee	-9.71816
était	-9.7188
mission	-9.71883
▁renforcer	-9.71885
▁priority	-9.71999
▁lequel	-9.72071
entre	-9.7216
enseignement	-9.72171
ster	-9.72263
▁September	-9.72293
▁Finance	-9.72353
▁septembre	-9.72405
pre	-9.72428
▁influence	-9.72428
▁taking	-9.72529
▁going	-9.72557
▁suivants	-9.72599
▁consideration	-9.72617
_	-9.72623
▁move	-9.72658
▁dernières	-9.72661
▁Delegation	-9.72687
▁prise	-9.72755
▁différentes	-9.72954
▁exp	-9.73014
▁applicant	-9.73036
ject	-9.73042
▁gouvernements	-9.73061
fu	-9.73083
▁municipal	-9.73133
AD	-9.7314
▁noted	-9.73148
▁trait	-9.7319
▁Ne	-9.73208
▁financiers	-9.73228
▁procédures	-9.73236
▁avantages	-9.73385
qué	-9.73457
▁PCT	-9.73465
▁sh	-9.73472
▁patent	-9.73538
▁tu	-9.73548
▁propre	-9.73598
-2	-9.73611
...	-9.73642
▁Project	-9.73703
▁fil	-9.73717
organisation	-9.7372
________________	-9.73834
▁près	-9.73845
ole	-9.73891
▁Mon	-9.73931
mat	-9.73944
ition	-9.73958
ING	-9.74071
TI	-9.74078
▁liberté	-9.7408
▁LA	-9.74129
▁Toronto	-9.7417
▁purposes	-9.74193
▁vise	-9.74305
échange	-9.74315
▁valeurs	-9.74327
RO	-9.74336
▁transfert	-9.74339
▁définition	-9.74403
▁sociaux	-9.74459
▁valid	-9.74496
▁company	-9.74561
▁concurrence	-9.74589
▁partners	-9.74648
▁».	-9.74651
dress	-9.7469
▁nations	-9.74691
▁drug	-9.74799
RC	-9.748
▁niveaux	-9.74845
▁average	-9.7485
96	-9.74875
▁donne	-9.7488
▁target	-9.74898
gal	-9.74915
US	-9.74951
▁exclu	-9.74961
titu	-9.75025
▁around	-9.75035
▁equipment	-9.75068
▁avez	-9.75082
▁actuel	-9.7509
▁partage	-9.75113
▁governments	-9.75151
ology	-9.75163
▁Affairs	-9.75181
▁clairement	-9.75205
ili	-9.75238
PE	-9.75241
▁toutefois	-9.75251
onne	-9.75291
▁pi	-9.75348
▁recommendations	-9.75348
men	-9.7536
▁état	-9.75375
▁articles	-9.75395
0,000	-9.75455
▁child	-9.75592
▁consultations	-9.75601
dition	-9.75605
eu	-9.75612
▁mer	-9.75636
▁rend	-9.75704
▁com	-9.75711
▁proposals	-9.75725
▁agencies	-9.75754
nce	-9.75788
▁While	-9.75806
ov	-9.75828
DC	-9.75834
rit	-9.75856
ana	-9.75859
17	-9.75884
▁Li	-9.75886
▁intérêts	-9.75894
▁planning	-9.75901
nes	-9.75942
az	-9.75948
▁conseil	-9.75964
exécution	-9.75977
▁liés	-9.75998
led	-9.76021
ien	-9.76027
▁practice	-9.76114
▁concerning	-9.76119
▁rat	-9.7613
old	-9.76177
▁Per	-9.76193
▁due	-9.76224
▁texte	-9.76284
entrée	-9.76292
▁4.	-9.76424
▁arm	-9.76522
▁reduction	-9.76535
ui	-9.76591
▁Règlement	-9.7662
dent	-9.76624
IP	-9.76634
tin	-9.76665
▁speak	-9.76709
▁forces	-9.76733
ct	-9.76735
auteur	-9.76749
▁THE	-9.76761
▁choix	-9.76772
▁net	-9.76902
▁égard	-9.76942
har	-9.76964
sur	-9.77008
▁factors	-9.77049
▁Madame	-9.77078
▁conclusion	-9.771
▁libre	-9.77114
▁bas	-9.77116
▁accordance	-9.77173
▁respond	-9.77199
",	-9.77204
▁seule	-9.77208
▁quelque	-9.77226
▁Division	-9.77251
▁origin	-9.77267
▁signal	-9.77279
▁refer	-9.77342
nant	-9.7736
▁lack	-9.77384
éri	-9.77393
▁étude	-9.77394
▁price	-9.77405
istic	-9.77524
▁internal	-9.77547
▁China	-9.77549
▁authority	-9.77566
▁Pr	-9.7757
▁exist	-9.77589
uc	-9.77608
▁agreements	-9.77619
▁Ra	-9.77637
évolution	-9.77643
dé	-9.77756
▁commune	-9.77756
▁until	-9.77791
▁comprendre	-9.77805
▁supply	-9.77927
ef	-9.77993
ably	-9.78022
▁institution	-9.78023
▁confirm	-9.78041
▁adopté	-9.78053
intention	-9.78072
▁prises	-9.78074
isé	-9.78075
▁American	-9.78081
▁stage	-9.7817
▁Alberta	-9.78191
we	-9.78201
▁Sp	-9.78211
▁component	-9.78251
▁minimum	-9.78289
▁pertinent	-9.78306
▁offert	-9.78331
tribu	-9.78389
▁gra	-9.78418
▁numéro	-9.78422
▁examen	-9.78546
▁strategic	-9.7865
▁Manitoba	-9.78653
▁représentants	-9.78721
▁reporting	-9.78742
▁item	-9.78744
ann	-9.78745
▁mark	-9.78785
▁competition	-9.78852
nc	-9.78889
▁bureau	-9.78898
▁Total	-9.78963
▁early	-9.78967
▁milliards	-9.78997
▁adopt	-9.79022
ense	-9.79023
▁status	-9.79064
▁famille	-9.79071
▁vis	-9.79139
In	-9.79146
alinéa	-9.79181
▁mod	-9.79189
aut	-9.79197
▁complex	-9.79213
▁médicaments	-9.79269
objectif	-9.79373
▁responsable	-9.79391
▁tri	-9.79398
▁humaines	-9.79414
▁modification	-9.79427
▁achieve	-9.79431
▁gas	-9.79457
▁establish	-9.79461
int	-9.79466
app	-9.7948
▁tra	-9.79496
▁complete	-9.79605
née	-9.79617
▁accès	-9.79623
▁link	-9.79698
06	-9.79713
▁towards	-9.79767
▁students	-9.79886
▁juridique	-9.79892
▁prochaine	-9.79946
▁volume	-9.79992
▁quand	-9.80015
▁limited	-9.80025
▁etc	-9.80027
▁ministères	-9.80036
uv	-9.80041
TION	-9.80051
▁exchange	-9.80056
▁durant	-9.80103
poli	-9.80109
▁regulations	-9.80165
▁North	-9.80169
▁record	-9.80185
CA	-9.80214
▁relativement	-9.80225
21	-9.80252
▁budgétaire	-9.80262
▁normal	-9.80334
▁agreed	-9.80357
▁understand	-9.80402
▁Work	-9.80455
▁centres	-9.80485
▁planification	-9.80502
▁th	-9.80538
ép	-9.80551
▁clearly	-9.80591
▁itself	-9.80633
▁adapt	-9.80633
▁avril	-9.80667
heure	-9.8068
mb	-9.80693
▁participer	-9.80743
▁méthodes	-9.80779
▁Ob	-9.80869
▁includes	-9.80969
▁HIV	-9.81099
▁collective	-9.81116
▁opérations	-9.81128
▁week	-9.81168
rais	-9.81199
▁October	-9.81238
mes	-9.81247
▁ensemble	-9.81309
pé	-9.81337
▁ten	-9.81386
▁priorities	-9.814
▁measure	-9.81418
Organisation	-9.81458
▁criteria	-9.81485
PR	-9.8168
▁rural	-9.81757
arm	-9.81839
▁crédit	-9.81886
▁presented	-9.81935
état	-9.81943
▁operations	-9.82015
▁team	-9.82041
see	-9.82105
49	-9.82112
04	-9.82171
▁négociations	-9.82172
▁majorité	-9.822
CO	-9.82223
▁agents	-9.82406
▁mené	-9.82469
ator	-9.82497
▁prévoit	-9.8251
cher	-9.82577
ulaire	-9.82664
euse	-9.82719
ET	-9.82729
entend	-9.82731
▁durée	-9.82733
▁Party	-9.8275
FI	-9.82751
▁favour	-9.82809
argent	-9.82815
▁Non	-9.82825
▁mine	-9.82827
▁consommation	-9.82911
teur	-9.82913
pon	-9.8294
▁entreprise	-9.8296
long	-9.8297
▁heures	-9.83004
▁initial	-9.83021
▁System	-9.83028
▁(1)	-9.83039
isant	-9.83083
▁domestic	-9.83113
enregistrement	-9.83117
oy	-9.83163
tend	-9.83167
▁consult	-9.83175
▁taxes	-9.83188
ives	-9.83189
▁equal	-9.832
▁Directive	-9.83209
▁détail	-9.83217
▁Saskatchewan	-9.83303
▁grant	-9.83314
▁innovation	-9.83352
▁collectivités	-9.83365
ren	-9.83376
▁grave	-9.83387
▁cover	-9.83397
▁fourni	-9.83465
▁Et	-9.83488
▁overall	-9.83537
▁présentation	-9.83569
ales	-9.83609
▁financier	-9.83617
adresse	-9.83619
▁stratégique	-9.83627
▁prior	-9.83643
dire	-9.83666
tte	-9.83682
▁transition	-9.83685
▁populations	-9.83735
▁always	-9.83781
▁principle	-9.83782
▁conforme	-9.83798
▁contribute	-9.83821
▁majority	-9.83903
,"	-9.83936
▁effort	-9.83962
▁maximum	-9.8402
▁parents	-9.84053
ans	-9.84072
▁maladies	-9.84076
▁fair	-9.84087
▁formulaire	-9.84106
▁bar	-9.84133
▁danger	-9.8415
▁Ba	-9.84161
▁aurait	-9.84213
▁Po	-9.84215
▁nationales	-9.84227
▁outside	-9.84232
▁vision	-9.84244
Ontario	-9.8429
▁party	-9.84411
▁description	-9.84414
hu	-9.84428
▁principles	-9.84513
▁suivantes	-9.84524
king	-9.84552
▁directement	-9.84553
▁regions	-9.8457
▁recours	-9.84581
▁train	-9.84594
▁annuel	-9.8462
▁original	-9.84661
▁jamais	-9.84727
serv	-9.84747
bo	-9.84801
▁mar	-9.8483
▁naturel	-9.84838
▁Ar	-9.84845
▁enquête	-9.84922
▁classe	-9.84948
col	-9.85017
▁Th	-9.85067
issement	-9.85077
▁leadership	-9.85082
▁sustainable	-9.85084
ning	-9.85122
▁souhaite	-9.85174
cal	-9.85201
édi	-9.85225
▁environ	-9.85242
▁custom	-9.85256
▁ro	-9.85257
applique	-9.85291
ates	-9.85308
▁utile	-9.85474
▁November	-9.85558
▁conflit	-9.85608
▁centrale	-9.85613
der	-9.85651
CS	-9.85695
aine	-9.85709
▁État	-9.8571
▁protéger	-9.85748
▁successful	-9.85781
▁aura	-9.85785
▁consist	-9.85794
▁offre	-9.85806
▁below	-9.85896
▁corporation	-9.85974
era	-9.85977
ché	-9.85993
▁méthode	-9.85996
day	-9.86054
▁turn	-9.86108
▁quelle	-9.86155
resident	-9.86245
▁referred	-9.86267
ip	-9.86283
ulation	-9.86303
▁job	-9.86377
ome	-9.86407
PA	-9.86463
▁Tax	-9.86464
▁haut	-9.8647
▁war	-9.86512
▁objectif	-9.86526
rap	-9.86536
▁chance	-9.86567
▁instrument	-9.86568
Office	-9.86568
rop	-9.86603
▁answer	-9.86663
Institut	-9.86779
▁discrimination	-9.86823
▁conclusions	-9.86877
▁procedure	-9.86886
inc	-9.86913
▁liées	-9.86925
▁vos	-9.87008
▁meilleur	-9.8703
▁class	-9.87074
chi	-9.87091
▁ville	-9.87179
ug	-9.87196
▁crois	-9.87207
▁Organization	-9.87227
The	-9.87259
▁Social	-9.87285
▁Under	-9.8739
▁novembre	-9.87399
▁rendu	-9.8741
▁DES	-9.87437
▁according	-9.87453
▁states	-9.87492
▁prêt	-9.87548
gar	-9.87585
▁1993	-9.87615
▁ground	-9.87665
▁internationales	-9.87711
▁Euro	-9.87771
$	-9.87773
▁self	-9.87785
▁conservation	-9.87875
▁previous	-9.87879
exposition	-9.87894
▁interests	-9.87904
▁communautés	-9.87907
dit	-9.87919
▁fully	-9.87935
âge	-9.87943
LO	-9.87954
amb	-9.87963
▁utilisé	-9.87982
▁vol	-9.87984
▁CIHR	-9.8807
▁paper	-9.88165
▁Environment	-9.88169
▁subsection	-9.8821
bat	-9.88271
position	-9.88277
étranger	-9.8829
ST	-9.88291
inscrit	-9.88313
▁tr	-9.88318
▁voyage	-9.88319
▁close	-9.88377
vert	-9.88443
imp	-9.88458
▁compar	-9.88489
ray	-9.88501
);	-9.88517
appliquer	-9.88581
▁telles	-9.88612
tim	-9.88683
▁utiliser	-9.88686
▁intervenants	-9.88699
▁medical	-9.88728
▁Sur	-9.88764
▁approuvé	-9.88803
▁langues	-9.88839
▁juste	-9.88871
▁once	-9.88928
▁industrial	-9.88948
▁client	-9.89104
▁expenditure	-9.89155
78	-9.89168
iff	-9.89168
▁produce	-9.89169
▁Chine	-9.89253
duction	-9.89288
▁monitoring	-9.893
pi	-9.8935
▁kind	-9.89394
enfant	-9.8957
▁tiers	-9.89591
▁suivant	-9.896
▁créé	-9.89644
▁Gu	-9.89667
euro	-9.89693
▁35	-9.89739
▁challenges	-9.89747
▁combat	-9.89768
▁ren	-9.89779
▁material	-9.89788
▁tendance	-9.89843
▁défini	-9.89845
Uni	-9.89891
euses	-9.89929
vous	-9.89962
▁departments	-9.9002
▁hommes	-9.9006
▁directly	-9.90061
▁maladie	-9.9007
▁soumis	-9.90106
organisme	-9.90122
▁sûr	-9.90154
▁labour	-9.90175
22	-9.90184
fi	-9.90196
ther	-9.90205
▁Business	-9.90213
▁sent	-9.90242
▁particulière	-9.90256
▁manque	-9.90322
▁étape	-9.90343
by	-9.90385
▁pen	-9.90393
gé	-9.90421
nov	-9.90421
▁head	-9.9044
▁definition	-9.90447
je	-9.90465
ères	-9.90469
▁science	-9.90473
▁gaz	-9.90484
▁financières	-9.90489
▁Mi	-9.90495
initiative	-9.90534
▁basic	-9.90564
▁op	-9.90582
▁lower	-9.90611
▁PRO	-9.9068
67	-9.90697
▁promouvoir	-9.90734
▁values	-9.90751
▁parlementaire	-9.90752
▁longer	-9.90762
▁welcome	-9.90814
▁Economic	-9.90843
asse	-9.90932
intégration	-9.90995
▁Col	-9.91027
▁Number	-9.91037
▁approved	-9.91071
iel	-9.91097
▁feel	-9.91139
idé	-9.91168
▁parmi	-9.9129
▁requis	-9.91392
▁increasing	-9.91403
▁commissaire	-9.91405
(2)	-9.91435
▁asked	-9.91445
tan	-9.91513
▁consistent	-9.91527
▁crisis	-9.91528
▁stress	-9.91605
07	-9.91621
Université	-9.91653
▁Food	-9.91715
▁pl	-9.91767
▁happen	-9.91806
▁start	-9.91809
▁priorité	-9.91811
▁Document	-9.91842
tique	-9.91852
ised	-9.91895
▁lignes	-9.91918
vé	-9.9192
NE	-9.91998
▁servir	-9.91999
bit	-9.92008
naire	-9.92099
▁tard	-9.92108
▁biens	-9.92127
▁debt	-9.9221
▁things	-9.9223
▁America	-9.92242
ENT	-9.92249
▁cell	-9.92284
▁coup	-9.925
pla	-9.92507
▁revenus	-9.92522
▁conflict	-9.92532
▁fi	-9.92549
98	-9.92555
▁cha	-9.92555
SI	-9.92576
▁participate	-9.92623
▁Rights	-9.92624
-01	-9.92624
MA	-9.9263
Amérique	-9.92637
▁perte	-9.92656
▁persons	-9.92658
toxic	-9.92665
idée	-9.92669
don	-9.92714
bor	-9.92715
▁July	-9.92735
▁ET	-9.92753
▁former	-9.92812
▁She	-9.92882
▁indicate	-9.92909
exploitation	-9.9291
▁prestation	-9.92943
ote	-9.93039
▁portant	-9.93068
▁Fonds	-9.93132
08	-9.93157
cle	-9.93169
▁understanding	-9.93201
enne	-9.9322
▁mentionné	-9.93229
égalité	-9.93244
▁quel	-9.93275
▁dès	-9.93293
OC	-9.93298
▁genre	-9.9335
▁By	-9.93356
▁conducted	-9.93365
94	-9.93398
OP	-9.93453
OU	-9.93482
▁pouvons	-9.93497
▁John	-9.93509
▁reconnu	-9.93521
▁diverses	-9.93631
▁Comment	-9.93688
23	-9.93706
▁octobre	-9.93725
enquête	-9.93858
▁permettant	-9.93868
IL	-9.93965
▁event	-9.94042
▁succès	-9.94074
▁alternative	-9.94089
▁possibilités	-9.94189
ward	-9.94212
venir	-9.94223
▁supplémentaires	-9.94252
▁propres	-9.94261
▁(2)	-9.94265
-03	-9.94276
▁prepared	-9.94329
▁percent	-9.9439
innovation	-9.94397
▁conférence	-9.94426
▁hospital	-9.94439
▁Bill	-9.9444
▁peace	-9.94447
agir	-9.94464
▁Although	-9.94514
▁step	-9.94553
▁IRSC	-9.94644
car	-9.94725
▁Ã	-9.94726
▁broad	-9.9473
▁yet	-9.94734
▁indicated	-9.94758
uch	-9.9477
▁regulation	-9.94776
▁Federal	-9.94816
▁enter	-9.94831
UR	-9.94881
▁called	-9.94882
résident	-9.94923
AF	-9.94938
EA	-9.94943
▁little	-9.94962
établir	-9.94969
90	-9.94993
▁fundamental	-9.94994
▁Justice	-9.95009
appel	-9.9503
▁text	-9.95033
▁Columbia	-9.95054
▁décrit	-9.95255
EM	-9.95303
▁garantir	-9.95312
▁demeure	-9.95318
▁représentant	-9.95379
▁industries	-9.95407
▁prévention	-9.9541
▁military	-9.9542
▁contribuer	-9.95422
izing	-9.955
ç	-9.955
▁SC	-9.9553
▁NO	-9.95537
▁répond	-9.95563
cho	-9.95612
▁rapidement	-9.95615
▁electronic	-9.9562
▁How	-9.95637
▁relating	-9.95673
▁lois	-9.95677
▁serve	-9.95713
▁Groupe	-9.95737
ough	-9.95759
▁themselves	-9.95781
▁trouve	-9.95794
▁suit	-9.95819
▁vu	-9.95843
tel	-9.95854
▁organisation	-9.95891
▁taxe	-9.95931
▁peuple	-9.95931
▁cap	-9.95937
cra	-9.95946
▁payment	-9.95964
▁Members	-9.95977
▁série	-9.96033
-19	-9.96038
ôt	-9.96161
gue	-9.9621
▁fish	-9.96223
▁culturelle	-9.96268
▁patient	-9.9633
▁ban	-9.96341
▁consiste	-9.96351
▁paiement	-9.9636
▁réalisation	-9.96392
▁mes	-9.96464
▁2004,	-9.96527
▁throughout	-9.96559
▁territorial	-9.96637
él	-9.96692
bre	-9.96717
▁loss	-9.96763
iz	-9.96774
▁collègues	-9.96799
▁known	-9.96816
▁juillet	-9.96827
24	-9.96849
▁souhait	-9.96872
▁improvement	-9.96911
▁2,	-9.96914
▁maintain	-9.96919
AM	-9.96924
66	-9.97021
Britannique	-9.97056
▁applied	-9.97058
occasion	-9.97059
▁department	-9.97071
▁constituent	-9.97093
af	-9.97199
▁leave	-9.97232
▁him	-9.9724
▁negotiations	-9.9726
▁2003,	-9.97304
▁keep	-9.97332
▁acceptable	-9.97334
TC	-9.97336
▁Since	-9.97355
▁faisant	-9.97437
▁clinique	-9.97476
▁Fa	-9.97476
▁submitted	-9.97484
▁stated	-9.9752
▁Colombie	-9.97579
nal	-9.97586
ats	-9.97632
▁CF	-9.97651
▁communautaires	-9.97722
▁something	-9.97742
▁dispose	-9.97821
ging	-9.97873
bl	-9.97879
table	-9.97899
eff	-9.97932
▁Pay	-9.97968
▁rien	-9.97977
▁regulatory	-9.98037
▁dose	-9.98065
▁cycle	-9.98095
▁markets	-9.98137
SS	-9.98143
▁tâche	-9.98162
77	-9.98189
▁complète	-9.98191
▁guarantee	-9.98219
ost	-9.98248
▁chapitre	-9.98253
itaire	-9.98361
ution	-9.98372
▁travailler	-9.98394
ium	-9.98406
▁Man	-9.98411
▁assess	-9.98465
▁estime	-9.98514
year	-9.98584
▁delivery	-9.98613
▁disponibles	-9.98613
▁options	-9.98633
▁distinct	-9.98669
rom	-9.98684
og	-9.98733
▁follow	-9.98745
▁youth	-9.98752
lie	-9.98826
améliorer	-9.98851
ID	-9.98889
▁designed	-9.98891
▁tour	-9.9895
▁Trans	-9.99006
▁90	-9.99026
▁effectué	-9.99043
▁scientifiques	-9.9907
▁VIH	-9.99077
▁completed	-9.99093
▁author	-9.99112
▁Mc	-9.99113
MP	-9.99138
PI	-9.99144
▁sort	-9.99165
urgence	-9.99211
▁responsables	-9.99266
▁February	-9.99286
▁words	-9.99292
nement	-9.9931
ami	-9.99427
▁connu	-9.99436
▁Lorsque	-9.99462
gh	-9.99511
▁ob	-9.99513
cl	-9.99519
▁moi	-9.99581
valu	-9.99602
essai	-9.99604
▁generally	-9.99615
▁utilisés	-9.99623
▁processes	-9.99632
▁tableau	-9.99693
ump	-9.99726
▁Rule	-9.99747
over	-9.99751
▁extent	-9.99757
ft	-9.99777
▁events	-9.99816
adi	-9.99839
▁tend	-9.99884
▁européens	-9.99907
▁dépôt	-9.99926
▁stakeholders	-9.99997
▁juge	-10
▁investigation	-10.0005
rou	-10.0008
▁fonctionnement	-10.001
▁augmentation	-10.0011
▁présentée	-10.0012
▁perspective	-10.0016
▁intervention	-10.0016
▁grandes	-10.0022
AB	-10.0024
▁supported	-10.0026
47	-10.0034
▁février	-10.0035
ah	-10.0042
▁longue	-10.0044
▁émissions	-10.0046
▁défense	-10.0047
▁micro	-10.0048
▁hon	-10.005
▁Guide	-10.0057
▁carried	-10.0059
▁dés	-10.0061
▁régionale	-10.0069
raient	-10.007
▁species	-10.0071
▁created	-10.0089
▁Sud	-10.0091
existence	-10.0092
Accord	-10.0094
▁examiné	-10.0096
IF	-10.0099
▁1992	-10.0099
tch	-10.0101
cycl	-10.0106
▁imm	-10.0107
▁traditional	-10.0107
▁amendment	-10.0109
▁mort	-10.0111
▁expressed	-10.0112
):	-10.0114
▁ferme	-10.0115
83	-10.012
gène	-10.0122
▁trust	-10.0123
▁prend	-10.0129
▁supérieur	-10.013
▁ait	-10.0132
▁sold	-10.0135
▁mandate	-10.0135
pl	-10.0141
▁Initiative	-10.0143
▁champ	-10.0145
▁chacun	-10.0152
ama	-10.0158
MC	-10.0159
FC	-10.016
▁requires	-10.0164
▁établir	-10.0165
72	-10.0166
ature	-10.0177
tour	-10.018
▁task	-10.0181
▁CON	-10.0184
▁dossier	-10.0185
▁ship	-10.0192
autorisation	-10.0195
▁collection	-10.0197
▁Industry	-10.0202
▁add	-10.0202
▁guidelines	-10.0209
group	-10.0211
09	-10.0215
▁Sub	-10.0218
▁board	-10.0225
▁soutenir	-10.0228
rég	-10.0231
▁généralement	-10.0233
▁responsabilités	-10.0235
q	-10.0246
▁Description	-10.0257
▁médias	-10.0259
FA	-10.0262
▁prestations	-10.0263
lev	-10.0264
▁engagé	-10.0264
▁guerre	-10.0264
▁enable	-10.0267
▁doute	-10.0277
mark	-10.0279
ît	-10.0282
▁cependant	-10.0286
▁puis	-10.0286
▁présence	-10.0287
▁atteint	-10.0291
▁format	-10.0291
mber	-10.0298
mail	-10.0303
▁farm	-10.0304
ques	-10.0308
▁lettre	-10.0311
oul	-10.0316
▁living	-10.0319
▁vehicle	-10.0321
▁along	-10.0322
▁mention	-10.0322
adoption	-10.0326
▁Bar	-10.0327
ber	-10.033
▁discuss	-10.0331
▁hard	-10.0332
▁examine	-10.0332
▁excellent	-10.0333
▁route	-10.0334
▁freedom	-10.0339
▁strengthen	-10.0344
ley	-10.0347
▁lég	-10.0349
▁publics	-10.035
▁petites	-10.0361
▁raisons	-10.037
▁reasons	-10.0371
main	-10.0375
▁Budget	-10.0375
▁threat	-10.0377
▁partenariat	-10.0378
▁brevets	-10.0383
gg	-10.0384
UT	-10.0386
atory	-10.0393
26	-10.0395
▁Rec	-10.04
▁internationaux	-10.0411
▁month	-10.0411
ouche	-10.0413
▁Africa	-10.0413
▁read	-10.0413
▁substance	-10.0424
▁intended	-10.0424
▁semaine	-10.0425
place	-10.0432
▁permettra	-10.0438
▁80	-10.044
▁considéré	-10.0443
▁published	-10.0448
▁side	-10.0449
*	-10.0461
tention	-10.0463
duct	-10.0474
▁nu	-10.0477
ième	-10.048
▁règle	-10.0481
▁copie	-10.0487
▁puisse	-10.0495
▁pose	-10.0501
▁incidence	-10.0503
▁seen	-10.051
95	-10.0515
test	-10.0519
vision	-10.0519
▁2005,	-10.0525
▁professionnels	-10.0531
ème	-10.0532
27	-10.054
▁others	-10.0549
46	-10.055
▁indication	-10.0556
▁creation	-10.0556
51	-10.0559
▁occur	-10.056
▁mean	-10.056
▁haute	-10.0566
▁instance	-10.0568
▁convient	-10.0569
▁reach	-10.0569
▁paix	-10.0569
▁informations	-10.0576
▁provenant	-10.0577
▁Banque	-10.0578
28	-10.058
▁potentiel	-10.058
▁Our	-10.0585
TS	-10.0588
▁cross	-10.0589
▁English	-10.0592
ik	-10.0594
▁scientific	-10.0604
▁regular	-10.0607
▁Resources	-10.0609
éro	-10.0612
AIDS	-10.062
▁producteurs	-10.0621
ust	-10.0623
61	-10.0624
SO	-10.0626
▁location	-10.0633
▁Na	-10.0634
ink	-10.0634
▁lot	-10.0639
▁red	-10.0641
▁publiques	-10.0642
▁employer	-10.0646
▁importantes	-10.0648
oph	-10.0657
▁efficient	-10.0658
▁Conference	-10.0658
▁2000,	-10.0672
▁independent	-10.0679
▁investissements	-10.0679
▁fum	-10.0679
▁dimension	-10.0681
▁--	-10.0685
cy	-10.0686
▁film	-10.0687
échantillon	-10.0689
▁directrices	-10.0691
off	-10.0691
79	-10.0702
▁importants	-10.0703
ious	-10.0707
EMENT	-10.0707
▁Review	-10.0708
▁AND	-10.0721
▁experts	-10.0723
log	-10.073
▁although	-10.073
▁separate	-10.0732
▁agricole	-10.0734
▁South	-10.0735
lit	-10.0737
apport	-10.074
71	-10.0741
ace	-10.0745
▁cherche	-10.0745
DP	-10.0749
▁implement	-10.075
▁résultat	-10.0752
▁français	-10.0753
▁500	-10.0756
▁CC	-10.0757
▁organisé	-10.076
▁method	-10.0763
rac	-10.0765
▁gain	-10.0766
▁consensus	-10.0769
cit	-10.0781
▁marque	-10.0782
▁territoire	-10.0786
▁concerné	-10.0794
▁sélection	-10.0796
att	-10.0798
PD	-10.0799
▁accords	-10.0802
▁livre	-10.0806
point	-10.081
▁sample	-10.0814
▁2002,	-10.0815
▁www	-10.082
▁establishment	-10.0823
▁station	-10.0828
▁étudiants	-10.0828
han	-10.0839
75	-10.0841
▁death	-10.0842
ête	-10.0844
amendement	-10.0844
▁assume	-10.0845
▁doing	-10.0845
▁payments	-10.0847
▁defined	-10.0856
▁ability	-10.0859
▁ensuite	-10.0859
▁wide	-10.0861
88	-10.0866
▁veut	-10.0867
▁really	-10.0868
▁%)	-10.0869
▁quantité	-10.0871
▁rule	-10.0877
▁Action	-10.0879
▁light	-10.0879
▁build	-10.0891
▁hours	-10.0894
▁démocratique	-10.0896
▁raisonnable	-10.0896
Afrique	-10.0899
ND	-10.09
80	-10.0901
viv	-10.0902
▁Chair	-10.0906
▁choisi	-10.0907
76	-10.091
▁accessible	-10.0914
▁obtain	-10.0915
▁circumstances	-10.0917
▁concentration	-10.0918
▁eligible	-10.0919
▁désigné	-10.0919
▁Communauté	-10.092
▁2001,	-10.0921
▁45	-10.0923
lan	-10.0924
▁representatives	-10.0925
▁fort	-10.0928
▁fondée	-10.0932
▁primary	-10.0932
▁Contract	-10.0941
▁compliance	-10.0947
▁sciences	-10.0947
▁researchers	-10.095
cor	-10.0951
▁described	-10.0951
▁extra	-10.0952
92	-10.0956
▁III	-10.0958
▁surface	-10.096
labor	-10.0961
ull	-10.0963
▁consumer	-10.0967
▁classification	-10.0972
68	-10.0976
/00	-10.0976
licit	-10.0982
▁Constitution	-10.0984
▁climate	-10.0987
▁transmission	-10.099
histoire	-10.0995
▁physique	-10.0996
▁DU	-10.0998
dessus	-10.1006
▁confiance	-10.1011
▁enregistré	-10.1013
91	-10.1013
▁(1	-10.1015
▁cut	-10.1015
▁documentation	-10.1016
▁poisson	-10.1018
▁Science	-10.1024
▁critical	-10.1025
achat	-10.1027
▁jobs	-10.103
▁offices	-10.103
▁établissements	-10.1034
▁strategies	-10.1036
▁réduit	-10.1037
▁facilitate	-10.1037
▁clause	-10.1037
expérience	-10.1042
▁situations	-10.1045
▁issued	-10.1047
▁blog	-10.1066
▁scientifique	-10.1067
grad	-10.1067
▁resource	-10.107
▁1991	-10.1071
▁took	-10.1072
▁concentrations	-10.1073
▁caractère	-10.1076
▁mini	-10.108
▁forte	-10.1081
▁Where	-10.1083
▁Protection	-10.1085
▁interview	-10.1087
gc	-10.1087
▁mass	-10.109
▁Let	-10.1091
▁avoid	-10.1092
▁campagne	-10.1098
▁minor	-10.1102
▁implemented	-10.1109
▁plein	-10.111
▁prices	-10.1111
▁régional	-10.1115
▁faciliter	-10.1115
gl	-10.1118
▁entire	-10.1119
▁expression	-10.1125
▁modern	-10.1127
▁maintien	-10.1135
▁Ju	-10.1137
itive	-10.1143
▁varie	-10.1145
▁body	-10.1146
▁sectors	-10.1148
▁mo	-10.1148
▁expérience	-10.1152
ax	-10.1161
IE	-10.1164
▁médecin	-10.1165
▁civile	-10.1168
low	-10.1171
▁uniquement	-10.1173
wa	-10.1174
▁stock	-10.1175
▁CA	-10.1182
▁victim	-10.1182
des	-10.1188
▁lesquels	-10.1193
▁sufficient	-10.1194
CB	-10.1194
▁determined	-10.1207
▁multiple	-10.1213
équ	-10.1218
59	-10.1218
exerce	-10.1219
▁Commissaire	-10.1221
pul	-10.1225
▁américain	-10.1227
▁formal	-10.1235
▁agricultural	-10.1238
▁conseils	-10.1239
▁auto	-10.1245
▁candidats	-10.1249
▁businesses	-10.1252
▁précise	-10.1254
▁dû	-10.1256
▁revenue	-10.126
yn	-10.1261
UN	-10.1262
ides	-10.1263
▁2006,	-10.1264
fa	-10.1264
▁espèces	-10.1269
▁payé	-10.1272
▁relatifs	-10.1275
▁inclus	-10.1275
▁dix	-10.1276
▁tools	-10.1277
comp	-10.1278
▁rapide	-10.1283
ibilité	-10.1284
▁advance	-10.1285
▁challenge	-10.1285
▁oil	-10.1287
▁agenda	-10.1287
can	-10.1288
64	-10.1296
▁entente	-10.1296
▁manage	-10.1302
tage	-10.1304
▁learn	-10.1308
▁involve	-10.1308
▁recherches	-10.1309
ii	-10.1309
ym	-10.1309
▁option	-10.1312
▁clés	-10.1315
▁privée	-10.1315
▁zones	-10.1317
équipe	-10.1317
uf	-10.132
tar	-10.1323
▁Prime	-10.1325
exportation	-10.1328
UL	-10.1329
▁impr	-10.133
▁exposure	-10.1332
▁2004.	-10.1335
part	-10.1335
▁continuer	-10.1339
▁catégorie	-10.1342
issent	-10.1342
▁Est	-10.1346
atique	-10.1346
bur	-10.1348
93	-10.1352
▁intention	-10.1359
▁Ab	-10.1359
29	-10.1362
▁observations	-10.1366
▁cl	-10.1368
▁signifie	-10.1374
ender	-10.1374
▁effectuée	-10.1375
acquisition	-10.1376
▁Vancouver	-10.1379
▁history	-10.138
52	-10.138
▁simply	-10.1384
▁engagement	-10.139
▁exercise	-10.1391
57	-10.1394
riv	-10.1396
MI	-10.1397
▁comments	-10.1397
▁côté	-10.1398
▁stratégies	-10.1401
cus	-10.1401
▁Nouvelle	-10.1404
ological	-10.1404
just	-10.1409
▁pied	-10.1412
▁EC	-10.1413
▁Corporation	-10.1417
▁Depuis	-10.142
▁Lo	-10.142
▁draw	-10.1432
▁Madam	-10.1433
cut	-10.1434
▁pouvez	-10.1435
ank	-10.1436
PT	-10.1438
ute	-10.1447
▁démocratie	-10.1451
▁border	-10.1457
▁simplement	-10.146
58	-10.1465
▁continued	-10.1467
▁contain	-10.147
rate	-10.148
related	-10.1481
▁titulaire	-10.1482
▁Regulation	-10.1483
▁Branch	-10.1484
▁letter	-10.1485
▁mondial	-10.1485
▁départ	-10.1487
-02	-10.1492
nom	-10.1494
▁élément	-10.1496
▁exposé	-10.15
▁facilities	-10.1506
ists	-10.1506
▁grands	-10.1507
▁operation	-10.1508
▁matters	-10.1512
▁professionnelle	-10.1513
▁poor	-10.1518
▁véritable	-10.1519
▁purchase	-10.152
espère	-10.1523
▁mg	-10.1524
▁fund	-10.1525
rt	-10.1526
▁consumers	-10.153
▁Que	-10.1532
▁manner	-10.1532
▁Second	-10.1533
responsibilities	-10.1534
spir	-10.1536
▁materials	-10.1542
verse	-10.1545
▁menace	-10.1551
▁image	-10.1552
ttle	-10.1553
▁registration	-10.1554
▁talk	-10.1554
oud	-10.1559
▁EUR	-10.156
▁skills	-10.1574
54	-10.158
▁methods	-10.1581
▁Ainsi	-10.1586
▁Financial	-10.1587
▁réalité	-10.1588
▁Tel	-10.1593
▁fight	-10.1596
▁chiffre	-10.1596
CP	-10.1598
sign	-10.1598
▁favoriser	-10.1602
▁families	-10.1604
▁constant	-10.1608
affaire	-10.1608
▁considération	-10.1609
74	-10.1611
▁enhance	-10.1611
▁commentaires	-10.1614
▁dépend	-10.1618
▁ON	-10.162
-20	-10.1622
▁70	-10.1624
▁whose	-10.1626
▁conséquences	-10.1629
▁clair	-10.163
arch	-10.1631
▁proposée	-10.1633
▁gros	-10.1633
▁achieved	-10.1635
▁intérieur	-10.1636
▁confi	-10.1636
▁enough	-10.1645
▁bénéficiaire	-10.1648
▁travers	-10.165
▁2005.	-10.1661
▁amendements	-10.1662
▁pression	-10.1662
.6	-10.1666
▁lesquelles	-10.1669
nés	-10.1672
mination	-10.1672
Ouest	-10.1674
▁défis	-10.1684
kin	-10.1686
▁Regional	-10.1688
▁choses	-10.1692
▁double	-10.1694
antes	-10.1703
▁tenue	-10.1703
udi	-10.1705
▁prison	-10.1708
▁Note	-10.1711
▁affected	-10.1711
▁EN	-10.1711
73	-10.1712
▁200	-10.1714
▁pressure	-10.1716
HR	-10.1719
EP	-10.1723
▁estimate	-10.1726
▁invest	-10.1726
▁troisième	-10.1731
lique	-10.1733
▁Har	-10.1736
▁approval	-10.1743
▁Après	-10.1745
▁2003.	-10.1746
▁subventions	-10.1755
▁paiements	-10.1756
vez	-10.1761
carbon	-10.1762
ze	-10.1764
▁mentioned	-10.1765
▁Can	-10.1767
▁participant	-10.1773
▁formule	-10.1774
▁contraire	-10.1776
▁33	-10.1777
▁rent	-10.178
▁seek	-10.178
▁fonctions	-10.1783
▁PA	-10.1784
▁chargé	-10.1784
issant	-10.1784
▁aware	-10.1785
nage	-10.1789
▁Enfin	-10.1793
53	-10.1794
/2	-10.1794
▁consent	-10.1797
ult	-10.1798
▁comprehensive	-10.18
▁passer	-10.1801
▁later	-10.1805
circ	-10.1807
▁Secretariat	-10.1808
▁hausse	-10.181
adhésion	-10.1814
▁reduced	-10.1817
atri	-10.1817
▁ways	-10.1817
▁organisme	-10.1821
▁recently	-10.1826
▁réseaux	-10.1831
▁parler	-10.1834
▁thus	-10.1839
▁size	-10.1839
▁pollution	-10.1839
▁Amendment	-10.184
▁fo	-10.1846
▁crucial	-10.185
▁division	-10.1855
63	-10.1856
▁caractéristique	-10.1859
▁Of	-10.1862
▁séance	-10.1865
▁half	-10.187
én	-10.1871
▁inférieur	-10.1878
▁comporte	-10.189
▁fournis	-10.189
▁Jo	-10.189
vention	-10.1891
▁Not	-10.1893
ping	-10.1902
vant	-10.1902
isent	-10.191
ties	-10.191
▁associé	-10.1913
▁examiner	-10.1915
▁culturel	-10.1916
Assemblée	-10.1926
▁exprimé	-10.193
▁physical	-10.1931
▁alimentaire	-10.1933
-3	-10.1938
▁According	-10.194
tech	-10.1942
▁respecter	-10.1944
▁provinciaux	-10.1949
▁Force	-10.1956
▁critique	-10.1956
▁officielle	-10.1957
ney	-10.1959
▁entendu	-10.1959
70	-10.1962
▁senior	-10.1969
▁rencontre	-10.1971
▁télé	-10.1974
▁scope	-10.1979
▁committed	-10.1979
82	-10.198
▁degree	-10.1981
▁Com	-10.1982
▁external	-10.1984
obtenir	-10.1986
▁produire	-10.1987
32	-10.1992
▁Pré	-10.1993
▁search	-10.1993
▁shown	-10.1996
▁Gra	-10.1996
fil	-10.1996
▁requirement	-10.1999
▁liens	-10.2009
den	-10.2015
▁operate	-10.2016
▁fédéraux	-10.202
▁photo	-10.2022
▁elements	-10.2026
▁emp	-10.2028
▁risks	-10.2028
▁opt	-10.203
▁nation	-10.203
▁notice	-10.2033
▁élaboré	-10.2036
▁jurisdiction	-10.2038
BC	-10.2043
▁produced	-10.2046
AG	-10.2058
▁My	-10.206
approche	-10.2061
▁discussed	-10.2066
▁Environmental	-10.2068
intervention	-10.2068
servation	-10.2069
▁monétaire	-10.2071
atoire	-10.2073
▁CE	-10.2077
▁règlements	-10.2078
▁officielles	-10.208
▁Russie	-10.208
▁conference	-10.2082
load	-10.2084
▁added	-10.2088
▁évaluer	-10.2088
aw	-10.2089
▁suivante	-10.209
▁choice	-10.2091
endroit	-10.2092
▁Fe	-10.2092
HA	-10.2093
équilibre	-10.2094
▁Inuit	-10.2098
PO	-10.2099
offre	-10.2101
▁Common	-10.2105
IG	-10.2108
▁book	-10.2113
▁commerciaux	-10.2114
actif	-10.2115
▁législative	-10.2117
▁visé	-10.2117
ifier	-10.2117
▁quite	-10.2122
isés	-10.2129
▁nord	-10.2132
▁ensuring	-10.2132
▁limite	-10.2134
▁réussi	-10.2138
▁stand	-10.2139
▁conjoint	-10.2144
▁Art	-10.2146
ches	-10.2147
▁principalement	-10.2156
▁structures	-10.2157
▁vaste	-10.2159
▁récemment	-10.2169
▁tabac	-10.2171
▁militaire	-10.2172
▁ago	-10.2175
row	-10.2179
▁joue	-10.218
▁Forces	-10.2192
MENT	-10.22
▁almost	-10.2201
▁transactions	-10.2203
▁exercice	-10.2204
▁GST	-10.2206
▁remboursement	-10.2208
pens	-10.2209
▁adoptée	-10.2213
organ	-10.2213
▁meetings	-10.2213
▁préparation	-10.2216
hen	-10.2217
▁compared	-10.2218
▁Parti	-10.222
▁never	-10.2221
▁attach	-10.2223
▁brevet	-10.223
▁improved	-10.2232
▁atteindre	-10.2233
▁Même	-10.2234
▁connaissance	-10.2235
▁retour	-10.2244
nent	-10.2245
▁maintenir	-10.2261
▁positions	-10.2262
▁insurance	-10.2264
ett	-10.2268
▁acc	-10.2269
atter	-10.2271
▁Char	-10.2273
▁award	-10.2274
▁intellectual	-10.2276
▁$2	-10.2284
▁irr	-10.2287
▁directives	-10.229
▁associations	-10.2292
identifie	-10.2292
▁Tous	-10.2294
▁conformité	-10.2295
▁exclusive	-10.2297
▁payer	-10.2298
NI	-10.2302
▁révision	-10.2303
erreur	-10.2304
▁locaux	-10.2304
▁32	-10.2307
imposition	-10.2308
▁users	-10.231
▁attempt	-10.232
▁Security	-10.2325
▁présidence	-10.2326
▁coll	-10.2326
▁seraient	-10.2327
▁familles	-10.2329
▁raised	-10.2334
ète	-10.2335
▁plainte	-10.2338
▁San	-10.2338
▁mécanismes	-10.2341
▁climatique	-10.2341
▁installations	-10.2345
agriculture	-10.235
▁representative	-10.235
▁grain	-10.2351
▁capable	-10.2352
▁Nor	-10.2353
▁personnels	-10.2353
45	-10.2353
▁permit	-10.2354
▁Exp	-10.2355
▁comportement	-10.2355
▁prevention	-10.2356
▁2006.	-10.2356
▁commerciales	-10.2357
▁Assembly	-10.2358
▁annuelle	-10.2358
▁2010	-10.2359
été	-10.2364
IB	-10.2372
rage	-10.2373
62	-10.2377
▁tests	-10.2378
net	-10.238
▁waste	-10.2381
▁veiller	-10.2382
▁People	-10.2383
▁touche	-10.2384
▁Transport	-10.2389
▁integration	-10.2391
▁emissions	-10.2392
immun	-10.2393
▁Atlantic	-10.2393
approbation	-10.2396
employé	-10.2399
▁democratic	-10.2401
▁opposition	-10.2402
▁représentent	-10.2403
atrice	-10.2405
▁advantage	-10.2409
mobili	-10.2409
▁favorable	-10.2417
ators	-10.2422
▁élections	-10.2424
▁portée	-10.2428
▁1999,	-10.2431
▁Strategy	-10.2436
▁appropriée	-10.2437
▁compter	-10.2446
effet	-10.2455
tric	-10.2458
LI	-10.2465
▁ve	-10.2466
distribu	-10.2473
▁appeal	-10.2475
▁substantial	-10.2478
▁release	-10.248
accent	-10.248
▁gene	-10.248
▁suivre	-10.2483
RES	-10.2488
▁ongoing	-10.2488
▁stratégiques	-10.2492
▁vital	-10.2492
▁forms	-10.2494
▁dossiers	-10.2495
▁came	-10.2497
▁Many	-10.2498
MS	-10.2499
▁Go	-10.2503
▁actual	-10.2508
▁assure	-10.2511
69	-10.2511
▁dette	-10.2512
▁victimes	-10.2519
▁compagnie	-10.2522
▁vraiment	-10.2526
igne	-10.2541
▁complet	-10.2541
reg	-10.2548
▁Protocol	-10.255
ong	-10.2552
Re	-10.2552
▁machine	-10.256
▁sales	-10.2565
▁restrictions	-10.257
voy	-10.257
▁transform	-10.2574
▁PE	-10.2578
▁énoncé	-10.258
▁trou	-10.2582
▁considérable	-10.2584
▁LE	-10.2585
▁perform	-10.2587
▁2002.	-10.2587
affaires	-10.2588
▁sexe	-10.2589
▁legislative	-10.2592
▁génétique	-10.2593
▁regime	-10.2596
▁lien	-10.2603
▁adequate	-10.2605
▁addressed	-10.2605
33	-10.2605
87	-10.2607
▁tradition	-10.2614
▁advice	-10.2615
▁movement	-10.2616
▁learning	-10.2621
gress	-10.2623
hal	-10.2624
▁eaux	-10.2625
▁gentlemen	-10.2628
▁anglais	-10.2631
▁amend	-10.2631
▁communiquer	-10.2632
▁fixé	-10.2633
▁awareness	-10.2635
acte	-10.2635
wi	-10.2639
▁considère	-10.2639
▁High	-10.2641
▁recueilli	-10.2642
▁fixe	-10.2642
▁permettent	-10.2642
▁pou	-10.2643
chan	-10.2644
arrêt	-10.2647
pression	-10.265
▁visite	-10.265
(4)	-10.2652
▁ajouté	-10.2653
ko	-10.2655
31	-10.2658
▁stabilité	-10.2664
ANT	-10.2666
▁décidé	-10.2668
PL	-10.2671
▁Montréal	-10.2671
absence	-10.2676
nous	-10.2677
▁Finally	-10.2677
pprovisionnement	-10.268
▁fruit	-10.2681
▁concert	-10.2685
▁vaccin	-10.2686
▁MA	-10.2686
▁variable	-10.2688
▁useful	-10.2689
mbre	-10.269
▁particuliers	-10.2699
▁prévues	-10.27
▁expect	-10.2702
▁trend	-10.2702
▁Officer	-10.2704
ham	-10.2704
▁minutes	-10.2707
-4	-10.271
▁interventions	-10.2713
▁Therefore	-10.2714
35	-10.2716
▁Ho	-10.2716
▁bu	-10.2717
▁democracy	-10.272
ncing	-10.272
▁express	-10.2721
▁Question	-10.2724
engagement	-10.2726
84	-10.2727
86	-10.2729
▁device	-10.2731
▁équipe	-10.2733
▁integrated	-10.2733
▁subvention	-10.2734
ble	-10.2736
▁IP	-10.2744
▁préoccupations	-10.2745
▁submit	-10.2746
▁situé	-10.2747
▁liquid	-10.2747
▁CH	-10.2758
-06	-10.2759
▁though	-10.2759
-04	-10.2769
LA	-10.2771
▁Region	-10.2771
not	-10.2773
▁34	-10.2774
NC	-10.2775
ny	-10.278
oli	-10.2781
▁expand	-10.2782
▁agricoles	-10.2784
▁written	-10.279
plo	-10.2792
▁constat	-10.2795
▁cu	-10.2796
▁rémunération	-10.2801
▁criminal	-10.2801
▁stocks	-10.2803
▁financé	-10.2804
▁accident	-10.2805
ache	-10.2805
▁Secrétariat	-10.2809
▁collectivité	-10.2813
2006	-10.2814
ploy	-10.2821
rupt	-10.2826
▁growing	-10.2827
vel	-10.2828
▁Support	-10.283
▁registered	-10.2834
▁acquis	-10.2835
▁postes	-10.2835
▁expenses	-10.2837
éni	-10.2841
▁expertise	-10.2843
▁taille	-10.2844
▁applies	-10.285
stream	-10.2854
▁désir	-10.2857
▁principales	-10.2857
▁actually	-10.2858
▁autant	-10.2858
▁hold	-10.2859
▁garantie	-10.2859
▁activité	-10.286
▁goal	-10.2863
ologique	-10.2865
43	-10.2866
icide	-10.2868
▁Standard	-10.2872
▁peine	-10.2872
▁operating	-10.2874
▁setting	-10.2875
lam	-10.288
▁concentr	-10.2882
▁monitor	-10.2884
▁animaux	-10.2885
▁deliver	-10.2886
▁élevée	-10.2886
-10	-10.2887
apprentissage	-10.2898
ake	-10.2899
▁gouvernementale	-10.29
▁offrir	-10.2903
▁Premières	-10.2904
▁pan	-10.2905
tiques	-10.2909
clusion	-10.2912
▁exploit	-10.2912
▁pur	-10.2915
▁approprié	-10.2922
erie	-10.2924
esprit	-10.2928
▁After	-10.2935
▁existant	-10.2937
▁join	-10.2938
▁...	-10.2941
▁transformation	-10.2942
▁Republic	-10.2944
▁brought	-10.2944
▁sense	-10.2945
89	-10.2947
▁impose	-10.2947
▁earlier	-10.2949
▁globale	-10.2951
▁entitled	-10.2952
▁rempli	-10.2952
▁arrangements	-10.2954
hr	-10.2954
équipement	-10.2955
▁violation	-10.296
head	-10.2961
cin	-10.2964
▁puissent	-10.2966
▁Education	-10.2966
▁Cet	-10.2967
▁réaliser	-10.2969
▁supporting	-10.2971
▁infection	-10.2971
▁Application	-10.2974
sida	-10.2979
▁package	-10.2994
▁satisfaction	-10.2996
▁maritime	-10.2997
▁composant	-10.2998
▁relatif	-10.3001
▁modifier	-10.3001
DR	-10.3002
▁baisse	-10.3005
▁drugs	-10.3008
▁terres	-10.3011
▁capacités	-10.3012
▁réuni	-10.3012
▁virus	-10.3013
▁submission	-10.3015
▁Cap	-10.3015
▁devenu	-10.3018
▁During	-10.3027
▁Fi	-10.303
▁Certains	-10.303
pr	-10.3033
▁composé	-10.3033
interprétation	-10.3035
▁flow	-10.3035
▁diversité	-10.3038
▁road	-10.3038
2.1	-10.3038
▁na	-10.3039
ê	-10.3041
▁fiscale	-10.3041
▁banques	-10.3043
ati	-10.3044
▁Working	-10.3048
lon	-10.3049
▁Russia	-10.3051
nels	-10.3052
▁outils	-10.3052
▁usage	-10.3056
▁ST	-10.3061
▁développer	-10.3061
▁Etats	-10.3064
▁West	-10.3069
venant	-10.3073
▁carte	-10.3079
VI	-10.309
-05	-10.3092
▁conçu	-10.3096
vir	-10.3096
OS	-10.3099
▁Sch	-10.3099
▁prêts	-10.3102
▁courant	-10.3109
▁Ver	-10.3114
take	-10.3118
▁36	-10.3118
▁strict	-10.3118
DS	-10.3119
oxy	-10.3121
▁carry	-10.3123
▁reserve	-10.3124
▁modèles	-10.3125
▁Special	-10.3127
▁partner	-10.3128
▁producers	-10.3129
▁bois	-10.313
ène	-10.3131
▁assez	-10.3131
▁remains	-10.3134
pic	-10.3141
▁tell	-10.3143
▁orientation	-10.3145
espace	-10.3146
▁Drug	-10.3148
logique	-10.3156
▁safe	-10.3161
▁Mal	-10.3162
active	-10.3164
▁beyond	-10.3165
▁complexe	-10.3168
put	-10.317
▁clinical	-10.317
ina	-10.3174
▁annoncé	-10.3177
▁Annex	-10.3179
▁conception	-10.3182
▁TPS	-10.3189
▁compensation	-10.319
▁pauvreté	-10.3198
▁operational	-10.3202
▁host	-10.3204
hy	-10.3206
▁agent	-10.3208
▁left	-10.321
▁differences	-10.3211
▁insist	-10.3212
▁Grand	-10.3212
▁exact	-10.3216
▁compétence	-10.3219
▁positif	-10.322
hold	-10.322
▁factor	-10.3225
roll	-10.3225
▁improving	-10.3225
▁recognize	-10.3226
▁devra	-10.3228
▁Ta	-10.3229
▁goals	-10.324
▁communes	-10.3243
rice	-10.3243
▁estimated	-10.3244
augmentation	-10.3249
lot	-10.3251
SU	-10.3251
▁effectively	-10.3255
▁réunions	-10.3258
▁difficultés	-10.3258
▁2000.	-10.326
▁réponses	-10.3262
fr	-10.3265
▁Data	-10.3268
▁commerciale	-10.327
▁pourcentage	-10.3273
▁admissibles	-10.3275
▁attitude	-10.3276
▁cour	-10.3279
▁leaders	-10.328
▁connaître	-10.3283
gan	-10.3283
HC	-10.3286
▁Control	-10.3291
▁semaines	-10.3291
émission	-10.3294
▁utilisation	-10.3294
3%	-10.3295
▁Sha	-10.3296
▁requested	-10.3296
▁Mission	-10.3298
▁déposé	-10.3299
▁fonctionnaires	-10.3307
▁puisque	-10.331
▁August	-10.3311
▁marketing	-10.3311
▁Law	-10.3316
▁Use	-10.3316
▁Women	-10.3318
voqu	-10.3324
▁trial	-10.3325
▁pourra	-10.3327
▁étrangères	-10.3331
▁complaint	-10.3333
▁announced	-10.3337
EX	-10.3338
▁ét	-10.3338
▁subsequent	-10.334
▁exceed	-10.334
▁répercussions	-10.3341
▁réaction	-10.3342
naires	-10.3344
▁fabrication	-10.3349
installation	-10.3352
▁habitat	-10.3352
▁fournisseurs	-10.3352
▁pièce	-10.3355
▁précis	-10.3359
▁traiter	-10.3361
▁fourniture	-10.3363
▁Network	-10.3363
▁rare	-10.3365
▁stable	-10.3365
▁Plus	-10.3365
▁technologique	-10.3367
▁introduced	-10.337
▁aspect	-10.3374
▁41	-10.3376
▁indique	-10.3379
▁retraite	-10.3387
▁reasonable	-10.3388
GR	-10.3392
uk	-10.3394
fo	-10.3406
tig	-10.341
▁allowed	-10.3412
▁approximately	-10.3412
39	-10.3414
▁essentielle	-10.3418
ibility	-10.3422
▁relève	-10.3429
▁observé	-10.343
▁visée	-10.3432
RP	-10.3435
41	-10.3439
▁impossible	-10.3442
▁publications	-10.3451
▁modifié	-10.3455
▁accompli	-10.3458
▁terrain	-10.346
▁Care	-10.346
▁derniers	-10.3462
MO	-10.3463
▁jouer	-10.3466
▁transparence	-10.3467
loc	-10.3469
autorité	-10.347
avance	-10.3471
▁front	-10.3473
▁réglementaire	-10.348
▁utilisateurs	-10.3481
▁agriculture	-10.3483
force	-10.3493
▁tandis	-10.3494
▁ha	-10.3496
ker	-10.3507
▁sept	-10.3508
▁Saint	-10.3508
temp	-10.3509
▁prévue	-10.3515
▁00	-10.3517
▁recognized	-10.352
▁industrielle	-10.3521
▁campaign	-10.3526
▁suggested	-10.3527
▁sociales	-10.3531
▁character	-10.3532
▁renforcement	-10.3533
Le	-10.3534
▁augmenté	-10.3534
▁douane	-10.3539
▁fee	-10.354
▁tissu	-10.3541
inflation	-10.3541
▁récente	-10.3545
▁humaine	-10.355
bol	-10.3551
éthique	-10.3551
alité	-10.3555
▁detailed	-10.3557
▁obligation	-10.3557
▁writing	-10.3558
▁poverty	-10.356
cu	-10.3562
▁Global	-10.3562
▁rise	-10.3563
▁duty	-10.3567
▁efficaces	-10.3567
▁begin	-10.3568
ich	-10.3572
▁moral	-10.358
▁decided	-10.3581
empl	-10.3584
▁spécifiques	-10.3589
prim	-10.3591
▁adoption	-10.3591
▁soon	-10.3595
▁versé	-10.3598
opération	-10.3598
▁poursuivre	-10.3599
▁informed	-10.36
vic	-10.3601
entraîne	-10.3604
ular	-10.3605
▁signed	-10.3607
fusion	-10.361
▁Process	-10.3616
▁Technology	-10.362
graph	-10.362
▁passe	-10.3625
▁thème	-10.3627
▁highlight	-10.3635
▁Heritage	-10.3637
▁quoi	-10.3638
écart	-10.3639
▁supplémentaire	-10.364
▁recommended	-10.3643
2%	-10.3643
▁venir	-10.3654
▁Her	-10.3655
▁sud	-10.3657
AI	-10.366
3.1	-10.3662
▁Présidente	-10.3664
ivité	-10.3671
▁firm	-10.3672
▁tobacco	-10.3678
▁diffusion	-10.3679
▁cher	-10.368
▁covered	-10.3681
▁El	-10.3683
▁souligner	-10.3686
▁adult	-10.3692
▁comprennent	-10.3695
81	-10.3695
▁fishing	-10.3699
▁Min	-10.37
national	-10.37
▁commence	-10.3701
▁beginning	-10.3707
▁employé	-10.3707
▁Unies	-10.3708
▁sensible	-10.3708
ica	-10.3714
▁drogues	-10.3716
▁War	-10.3717
▁via	-10.3717
observation	-10.3718
▁arrive	-10.3721
▁Market	-10.3723
▁navire	-10.3726
2)	-10.3728
▁Journal	-10.3735
▁effectiveness	-10.3738
▁biologique	-10.3739
▁specified	-10.374
▁fuel	-10.3742
▁totale	-10.3742
ué	-10.3743
▁limites	-10.3744
▁Trésor	-10.3747
vin	-10.3748
▁étrangers	-10.375
▁Decision	-10.3754
utiliser	-10.3758
ani	-10.3758
▁schedule	-10.376
nic	-10.3763
▁claims	-10.3763
lt	-10.3767
▁2001.	-10.3769
▁indirect	-10.3769
▁true	-10.3771
▁conserv	-10.3773
34	-10.3778
▁leading	-10.3782
▁indépendant	-10.3786
Environnement	-10.3791
▁consacré	-10.3791
▁contained	-10.3793
▁consultatif	-10.3797
▁obstacles	-10.3805
expansion	-10.3806
élé	-10.381
▁Central	-10.3819
▁marine	-10.3819
intérieur	-10.3823
▁stop	-10.3824
▁Ltd	-10.3825
▁enterprise	-10.3834
▁testing	-10.3841
▁series	-10.3842
▁obligatoire	-10.3843
TER	-10.3845
▁nucléaire	-10.3845
▁Foreign	-10.3852
▁inspection	-10.3854
avant	-10.3855
▁word	-10.3855
▁engagements	-10.3859
▁cotisation	-10.3861
cité	-10.3862
dessous	-10.3866
▁languages	-10.3866
▁loan	-10.3871
▁rejet	-10.3874
▁More	-10.3875
vig	-10.3876
making	-10.3879
▁Main	-10.3881
ung	-10.3885
▁Indian	-10.3889
-12	-10.389
▁Vo	-10.3897
▁check	-10.3898
▁mari	-10.39
▁considérée	-10.39
▁officials	-10.3904
▁emphasis	-10.3904
▁super	-10.3908
44	-10.3908
▁negative	-10.3908
▁pénal	-10.3912
standing	-10.3913
employed	-10.3918
▁Senate	-10.3921
▁37	-10.3933
ira	-10.3933
▁garde	-10.3933
LT	-10.3934
FR	-10.3934
▁variety	-10.3934
/1	-10.3935
▁Water	-10.3943
▁Ac	-10.3945
ode	-10.3946
▁assets	-10.3946
▁juridiques	-10.3947
▁souligné	-10.3949
▁1)	-10.3951
▁conséquence	-10.3952
.7	-10.3958
▁allocation	-10.3959
▁Change	-10.396
▁accrue	-10.3964
▁investi	-10.3965
▁old	-10.3968
▁amended	-10.3969
▁signature	-10.397
▁portion	-10.3973
▁urgent	-10.3976
matic	-10.398
▁parole	-10.3984
▁space	-10.3986
▁République	-10.3988
▁personnelle	-10.399
acy	-10.3994
ju	-10.4005
cation	-10.4007
65	-10.4007
éné	-10.4012
▁mechanisms	-10.4016
▁énergétique	-10.4016
▁implementing	-10.4021
stat	-10.4023
ash	-10.4025
▁mind	-10.4025
▁maison	-10.4025
appar	-10.4028
▁accepté	-10.403
▁farmers	-10.4036
▁behaviour	-10.4036
▁Lake	-10.4037
▁From	-10.4038
▁soutenu	-10.4039
ied	-10.404
▁chemical	-10.4042
▁decline	-10.4043
▁Post	-10.4047
▁presque	-10.4048
▁highly	-10.4052
ark	-10.4052
embl	-10.4053
▁Am	-10.4054
étique	-10.4056
▁Bi	-10.4057
gro	-10.4057
▁fondamentale	-10.406
▁confront	-10.406
▁send	-10.4065
SR	-10.4068
intermédiaire	-10.4071
▁historique	-10.4072
▁Administration	-10.408
▁Safety	-10.4084
▁clos	-10.4086
uve	-10.4091
▁specifically	-10.4095
▁medium	-10.4096
▁enforcement	-10.4097
▁thing	-10.4098
▁proceed	-10.4098
▁prochain	-10.4099
class	-10.4105
ja	-10.4113
▁gains	-10.4115
pol	-10.4117
MD	-10.4119
▁défi	-10.412
▁principale	-10.4123
▁Appendix	-10.4129
▁déterminé	-10.413
▁travaille	-10.4131
▁loin	-10.4137
▁union	-10.4138
chant	-10.4138
▁distance	-10.4139
▁contribuable	-10.4141
▁processing	-10.4142
▁contenant	-10.4146
▁rich	-10.4146
▁steps	-10.4147
çant	-10.4147
▁parliament	-10.4148
▁judiciaire	-10.4151
▁mécanisme	-10.4155
aging	-10.4158
▁Mu	-10.4159
▁locales	-10.4162
▁utilisées	-10.4164
▁2009	-10.4164
▁exportations	-10.4168
HST	-10.4174
▁laboratoire	-10.4176
▁run	-10.4177
connect	-10.4177
▁remercier	-10.4182
▁financing	-10.4182
▁fill	-10.4186
accumul	-10.4188
▁accepted	-10.4189
▁mouvement	-10.4193
volution	-10.4199
▁réel	-10.4201
▁Island	-10.4205
▁utilisée	-10.4211
▁congé	-10.4214
▁Sol	-10.4215
▁questionnaire	-10.4218
▁delegation	-10.4221
new	-10.4221
▁Over	-10.4221
▁Agriculture	-10.4222
▁disponible	-10.4222
worth	-10.4225
accueil	-10.4226
ple	-10.4226
▁circonstances	-10.4227
▁Account	-10.4227
▁payable	-10.4231
attaque	-10.4237
▁Framework	-10.4242
▁shared	-10.4242
▁protocole	-10.4246
▁coming	-10.425
▁lancé	-10.4251
ya	-10.4257
▁leader	-10.426
▁transparent	-10.4261
▁humains	-10.4262
▁ 	-10.4263
▁contient	-10.4266
études	-10.4268
▁retard	-10.4274
▁competitive	-10.4278
▁forum	-10.4279
▁Liberal	-10.4281
▁officiel	-10.4281
nch	-10.4284
cular	-10.4287
▁solide	-10.4288
▁explain	-10.4288
▁voulons	-10.429
▁database	-10.4291
▁circulation	-10.4293
▁syn	-10.4299
▁répondants	-10.4307
▁volonté	-10.4308
36	-10.4309
cha	-10.431
▁consulter	-10.432
▁44	-10.432
▁dispute	-10.4321
impression	-10.4323
▁perspectives	-10.4325
importation	-10.4325
ouverture	-10.4336
win	-10.4337
▁Honourable	-10.4338
▁Port	-10.4339
▁practical	-10.4342
▁govern	-10.4344
▁spending	-10.4345
ât	-10.4345
▁Royaume	-10.4345
▁Access	-10.435
▁crédits	-10.4354
expression	-10.4359
pat	-10.436
▁Treasury	-10.436
EI	-10.4363
NO	-10.4364
voc	-10.4364
▁Ni	-10.4364
▁Nova	-10.4366
-11	-10.4372
▁CD	-10.4374
▁ladies	-10.4381
▁appelé	-10.4382
van	-10.4383
▁procéder	-10.4384
gin	-10.4386
▁uniform	-10.4387
▁Numéro	-10.4388
▁weight	-10.4393
▁envers	-10.4394
▁déclare	-10.4396
▁outcomes	-10.4397
▁fournit	-10.4398
▁précédent	-10.4398
ault	-10.4402
▁Statistics	-10.4403
▁procédé	-10.4404
▁Pi	-10.4413
▁Quel	-10.4413
▁discipline	-10.4415
solv	-10.4418
▁nutrition	-10.442
▁East	-10.442
▁étroite	-10.4425
▁parfois	-10.4436
OMC	-10.444
adaptation	-10.4443
▁followed	-10.4444
▁EX	-10.4448
▁follows	-10.4451
4%	-10.4453
DU	-10.4453
rich	-10.4454
▁francophone	-10.4457
55	-10.4459
▁industriel	-10.4462
▁recevoir	-10.4462
annonce	-10.4463
itude	-10.4464
▁Name	-10.4465
▁degré	-10.4465
▁recommandé	-10.4468
1%	-10.4468
▁taxpayer	-10.4473
▁journalist	-10.4473
▁website	-10.4475
▁spécifique	-10.4476
▁promis	-10.448
▁Evaluation	-10.4481
▁cible	-10.4482
▁salaire	-10.4483
▁terrorist	-10.4488
▁(3)	-10.4489
▁fonctionne	-10.449
▁weeks	-10.4497
hydr	-10.4498
AA	-10.45
42	-10.4503
▁suffisamment	-10.4505
▁événements	-10.4511
7%	-10.4513
▁input	-10.4514
▁damage	-10.4514
6%	-10.4515
▁traditionnels	-10.452
▁feature	-10.4522
▁Fisheries	-10.4524
▁montre	-10.4526
▁élevés	-10.4527
▁régionaux	-10.4529
▁Scotia	-10.4532
ano	-10.4533
▁Ph	-10.4533
▁justifie	-10.4533
▁partenariats	-10.4535
▁granted	-10.4536
▁bal	-10.4536
▁saisi	-10.4536
▁obtained	-10.4537
▁traditionnelle	-10.4538
▁susceptibles	-10.454
▁38	-10.454
37	-10.4542
ifié	-10.4542
▁Mont	-10.4544
▁duties	-10.4548
ération	-10.455
FP	-10.4554
▁Most	-10.4554
48	-10.456
▁statistiques	-10.4564
▁nette	-10.4565
▁reconnaissance	-10.4569
▁intitulé	-10.4569
▁Partie	-10.4572
▁militaires	-10.4576
▁suffer	-10.4577
▁association	-10.4577
border	-10.4579
▁importe	-10.4581
▁Official	-10.4586
appliquent	-10.459
▁socio	-10.4597
ki	-10.4599
▁Products	-10.4605
▁computer	-10.4611
attention	-10.4615
▁decrease	-10.4616
▁broadcast	-10.4619
▁certainly	-10.4625
▁connexes	-10.4628
▁tient	-10.4629
▁establishing	-10.463
▁Notre	-10.4633
▁précédente	-10.4636
▁Société	-10.4636
duit	-10.4637
agent	-10.464
▁regret	-10.4643
▁List	-10.4644
▁Sal	-10.4644
▁probablement	-10.4647
▁stability	-10.4648
▁75	-10.465
▁IT	-10.4658
▁véhicules	-10.4658
▁Import	-10.4662
▁pilot	-10.4663
Ch	-10.4663
▁Property	-10.4663
▁harm	-10.4663
omp	-10.4668
▁efficiency	-10.4675
fic	-10.4676
▁details	-10.4677
▁autorisé	-10.4677
▁futur	-10.4681
▁corporate	-10.4682
aff	-10.4687
▁intérêt	-10.4696
▁vrai	-10.4698
▁semblable	-10.47
▁voter	-10.4701
usage	-10.4704
▁conc	-10.4704
▁signé	-10.4706
▁fabricant	-10.4713
▁taxation	-10.4714
oke	-10.4715
▁break	-10.4716
▁Parties	-10.4719
▁extend	-10.4723
▁x	-10.4724
▁Aucun	-10.4729
▁longtemps	-10.473
▁habit	-10.473
tér	-10.4734
avait	-10.4735
▁symbol	-10.4737
▁territoires	-10.4738
oir	-10.474
acc	-10.4744
alcool	-10.4747
édé	-10.4748
quant	-10.475
impact	-10.4753
▁aff	-10.4754
▁dealing	-10.4756
▁Assessment	-10.4757
▁Lib	-10.4764
arc	-10.4768
▁acid	-10.4769
por	-10.4776
▁Consul	-10.4779
▁please	-10.4779
▁records	-10.4781
▁2)	-10.4782
▁apporter	-10.4783
▁Authority	-10.4783
itation	-10.4785
▁drive	-10.4786
▁Forum	-10.4788
auto	-10.4788
-07	-10.4789
tré	-10.4793
▁African	-10.4798
▁near	-10.4802
▁certaine	-10.4804
▁nomination	-10.4804
tom	-10.4807
▁recettes	-10.4809
PM	-10.4809
▁agency	-10.4809
▁Asia	-10.481
▁300	-10.4821
▁bande	-10.4822
▁pursuant	-10.4823
▁designated	-10.4825
▁ri	-10.4827
▁sound	-10.4832
▁correction	-10.4835
avons	-10.4838
▁importations	-10.4842
▁différences	-10.4847
oma	-10.4849
▁incident	-10.4854
▁Terre	-10.4854
▁logement	-10.4859
▁reached	-10.4861
exclusion	-10.4862
▁poly	-10.4862
dy	-10.4864
▁promoting	-10.4865
▁otherwise	-10.4867
▁notification	-10.4867
▁creating	-10.4868
▁music	-10.4869
▁catégories	-10.4869
plan	-10.4874
▁Tri	-10.4875
**	-10.4875
glo	-10.4879
▁aller	-10.4879
▁Pol	-10.4881
▁constitute	-10.4881
▁interested	-10.4882
▁offered	-10.4886
▁seems	-10.4886
▁away	-10.4887
▁secondaire	-10.4888
▁août	-10.4888
▁1989	-10.4891
▁minimal	-10.4894
▁prefer	-10.49
▁voted	-10.4901
ove	-10.4905
œuvre	-10.4905
▁voté	-10.4911
▁fees	-10.4912
▁bureaux	-10.4913
▁volet	-10.4914
unité	-10.4914
light	-10.4919
▁preparation	-10.4921
▁somme	-10.4923
gn	-10.4924
EE	-10.493
▁Nouveau	-10.493
▁devenir	-10.4932
▁Ri	-10.4932
▁undertaken	-10.4934
mig	-10.4936
▁mener	-10.4936
▁Chief	-10.4938
▁déchets	-10.494
▁65	-10.4941
domin	-10.4946
▁Affaires	-10.4949
Ukraine	-10.4955
év	-10.4957
▁Da	-10.4958
▁42	-10.4961
▁cur	-10.4966
honorable	-10.4969
▁significantly	-10.4972
▁secret	-10.4973
▁percentage	-10.4974
▁poids	-10.4974
▁protest	-10.4976
▁associés	-10.4981
▁Western	-10.4982
entretien	-10.4983
▁tirer	-10.4987
▁protégé	-10.4988
▁delay	-10.499
TRA	-10.4994
▁avancé	-10.4995
▁camp	-10.4998
▁mental	-10.5007
▁raise	-10.5009
fra	-10.501
institution	-10.5011
▁dollar	-10.5011
▁transparency	-10.5012
excellence	-10.5012
kg	-10.5013
▁LES	-10.5015
▁Yukon	-10.5015
8%	-10.5018
▁approaches	-10.5019
▁recommandation	-10.502
2000	-10.5021
2001	-10.5022
ailleurs	-10.5024
▁facteur	-10.5024
▁Even	-10.5025
▁Supp	-10.5025
▁norme	-10.5026
▁spirit	-10.5027
▁brief	-10.5029
▁équitable	-10.503
▁Source	-10.5034
▁CANADA	-10.5035
▁path	-10.5038
ACT	-10.5039
wood	-10.504
▁NRC	-10.5043
▁Israel	-10.5043
▁dépasse	-10.5045
VE	-10.5046
▁evaluate	-10.5048
▁officers	-10.5051
▁39	-10.5054
▁sanctions	-10.5057
▁web	-10.506
immigration	-10.506
▁flu	-10.5066
▁fisheries	-10.5067
cadre	-10.5069
▁démontre	-10.507
▁blood	-10.5072
▁sell	-10.5076
▁maintenance	-10.5079
▁firms	-10.5079
▁Ann	-10.5082
▁attack	-10.5082
▁85	-10.5088
▁extremely	-10.5089
▁parvenir	-10.5092
▁examination	-10.5094
trait	-10.5094
▁ever	-10.5103
▁demonstrate	-10.5106
4.1	-10.5107
▁press	-10.5114
▁COM	-10.5116
▁findings	-10.5117
infrastructure	-10.5117
▁Nom	-10.5118
▁Hu	-10.512
mag	-10.512
▁apporté	-10.5127
▁veulent	-10.5129
▁immigrants	-10.513
▁gestionnaires	-10.513
1)	-10.5132
▁abuse	-10.5139
▁augmenter	-10.514
▁nothing	-10.5141
[	-10.5142
▁collect	-10.5143
GE	-10.5148
▁quota	-10.5151
▁nor	-10.5154
▁(2	-10.5156
▁vont	-10.5159
vie	-10.5159
▁gender	-10.5162
▁presence	-10.5166
orientation	-10.5168
▁tiens	-10.5168
▁48	-10.517
▁WTO	-10.5173
école	-10.5174
IQUE	-10.5179
▁recognition	-10.5181
▁generation	-10.5187
▁similaire	-10.519
ffi	-10.5194
▁alimentaires	-10.5196
▁Communications	-10.5196
▁gla	-10.5197
▁marques	-10.5198
obligation	-10.5198
▁Contact	-10.5202
▁universitaire	-10.521
▁bodies	-10.5211
▁governance	-10.5211
emp	-10.5211
▁thought	-10.5217
▁naturelles	-10.5218
▁aimed	-10.5225
employeur	-10.5226
gent	-10.5226
présent	-10.5231
▁attract	-10.5234
▁Sénat	-10.5236
▁nuclear	-10.5236
▁worked	-10.5237
tir	-10.5238
85	-10.5238
▁lecture	-10.5241
▁fire	-10.5241
2003	-10.5242
norm	-10.5245
uck	-10.5248
▁Results	-10.5256
▁Executive	-10.5265
jou	-10.5266
ifie	-10.5268
▁pourront	-10.527
TVH	-10.527
▁fondé	-10.5271
▁préalable	-10.5271
▁adopter	-10.5271
plication	-10.5272
▁éviter	-10.5275
espèce	-10.5278
▁différent	-10.5278
▁introduction	-10.5278
▁diversity	-10.5282
▁terre	-10.5282
▁administratif	-10.5283
cade	-10.5283
▁Revenue	-10.5284
▁reject	-10.5291
▁commencé	-10.5292
ographie	-10.5294
▁Bio	-10.5297
GI	-10.5301
▁parle	-10.5304
▁essais	-10.5304
▁variation	-10.5309
élection	-10.5312
▁VI	-10.5312
▁Furthermore	-10.5317
▁demandeur	-10.5317
▁Lorsqu	-10.5318
water	-10.532
STR	-10.5321
▁Such	-10.5321
38	-10.5321
ogen	-10.5324
▁presentation	-10.5325
▁fondamentaux	-10.5325
▁composition	-10.5326
▁Institution	-10.5329
existe	-10.5331
▁listed	-10.5334
▁invité	-10.5335
mal	-10.5335
▁dumping	-10.5343
▁43	-10.535
▁Export	-10.5351
▁reprise	-10.5353
▁intégrée	-10.5355
ott	-10.5359
▁chair	-10.5365
logue	-10.5367
▁extrêmement	-10.5369
▁visible	-10.537
▁involvement	-10.5371
▁reviewed	-10.5376
TH	-10.5377
▁définir	-10.5377
▁friend	-10.5383
▁presse	-10.5387
RT	-10.5387
▁propriétaire	-10.5387
▁vient	-10.5393
▁replace	-10.5393
èrent	-10.5394
▁Reference	-10.5395
/3	-10.5395
▁Employment	-10.5395
▁scale	-10.5397
▁surplus	-10.5399
2002	-10.5402
▁élaborer	-10.5402
▁Don	-10.5403
▁increasingly	-10.5405
▁branch	-10.5407
xi	-10.5408
ception	-10.5409
▁resulting	-10.541
ATE	-10.5411
▁Cost	-10.5412
▁fla	-10.5412
éno	-10.5413
▁reducing	-10.5413
(3)	-10.5414
▁manufacturer	-10.5415
▁urbain	-10.5416
PORT	-10.5417
▁largest	-10.5417
pan	-10.5432
▁confidence	-10.5435
▁évident	-10.5435
▁seven	-10.5436
▁hearing	-10.5437
▁accordé	-10.5441
▁outcome	-10.5441
incidence	-10.5445
▁conseiller	-10.5447
▁limitation	-10.5452
press	-10.5454
▁éventuel	-10.5455
▁Autres	-10.5456
▁fera	-10.5464
▁entry	-10.5467
▁perhaps	-10.5467
▁intégré	-10.548
mont	-10.5485
▁candidate	-10.5496
▁absence	-10.5498
Allemagne	-10.5499
▁devront	-10.5502
▁assuré	-10.5503
▁possibility	-10.5504
▁filed	-10.5506
▁FOR	-10.5506
UM	-10.5508
▁genetic	-10.5511
▁seem	-10.5513
▁transmis	-10.5513
▁numérique	-10.5518
▁officer	-10.5518
▁connection	-10.5518
▁possède	-10.5518
▁Green	-10.5519
▁Kosovo	-10.5522
▁weak	-10.5528
▁remplir	-10.5528
▁continent	-10.5534
▁ratio	-10.5535
▁brut	-10.5538
▁Val	-10.5538
▁pleased	-10.5539
3)	-10.554
▁difference	-10.5543
▁fraud	-10.5547
▁Germany	-10.5551
▁copy	-10.5554
▁Japan	-10.5561
aucun	-10.5581
▁petits	-10.5581
▁ouvert	-10.5583
ymp	-10.5587
▁Patent	-10.5589
▁contains	-10.559
▁fail	-10.5592
▁Figure	-10.5596
▁Messieurs	-10.5596
▁cigarette	-10.5596
▁porter	-10.5599
▁IV	-10.5599
range	-10.5605
ino	-10.5609
mique	-10.5612
▁suppose	-10.5614
▁Contracting	-10.5615
▁selection	-10.5617
▁closely	-10.5619
▁grow	-10.562
▁usually	-10.5631
▁relate	-10.5631
ARC	-10.5633
▁participé	-10.5636
▁petite	-10.5636
bid	-10.5639
élargissement	-10.564
pha	-10.564
▁universités	-10.564
▁involving	-10.564
▁administer	-10.5641
▁consequences	-10.5642
▁chemin	-10.5643
▁sondage	-10.5643
▁recommande	-10.5649
▁Site	-10.5655
fait	-10.5663
care	-10.5664
▁resolve	-10.5667
franc	-10.567
dem	-10.5672
▁Issue	-10.5672
lk	-10.5678
▁feuille	-10.568
▁blanc	-10.5681
incorpor	-10.5682
▁Park	-10.5684
▁nommé	-10.5687
▁Any	-10.5688
▁receiving	-10.5688
▁River	-10.569
▁signalé	-10.569
▁tiré	-10.5694
▁Conférence	-10.5694
mul	-10.5694
▁Home	-10.5696
▁1980	-10.5697
▁partout	-10.5698
▁decide	-10.5699
▁license	-10.57
▁évalué	-10.5701
▁Avant	-10.5703
▁Standing	-10.5706
hip	-10.5708
important	-10.571
▁prove	-10.5717
environ	-10.5721
▁imposé	-10.5728
hood	-10.5729
▁Nombre	-10.573
eng	-10.573
▁primarily	-10.5731
▁Traité	-10.5737
▁sauf	-10.5737
▁moitié	-10.5739
▁passage	-10.574
▁hors	-10.5744
▁pleinement	-10.5746
▁mou	-10.5746
▁managers	-10.5746
▁mechanism	-10.5751
▁gérer	-10.5752
rog	-10.5764
▁démarche	-10.5766
▁Politique	-10.5766
▁Turkey	-10.5771
▁02	-10.5777
▁recon	-10.5783
▁urban	-10.5793
CNRC	-10.5796
▁Em	-10.5799
vol	-10.58
▁failure	-10.5804
▁touché	-10.5807
▁agriculteurs	-10.5809
▁résoudre	-10.5814
▁Bur	-10.5815
▁auquel	-10.5819
▁sale	-10.5823
▁médicaux	-10.5825
▁hydro	-10.5826
▁Reform	-10.5828
▁destination	-10.5829
▁Canadiennes	-10.5832
▁funded	-10.5833
ût	-10.5835
▁auxquels	-10.5836
▁supérieure	-10.5838
▁visa	-10.5838
▁workshop	-10.5839
▁préliminaire	-10.584
▁géographique	-10.584
▁commencer	-10.584
▁candidates	-10.5842
▁envisage	-10.5843
▁collègue	-10.5844
▁04	-10.5845
▁Mesdames	-10.5845
Alberta	-10.5847
▁homo	-10.5848
2007	-10.585
▁claire	-10.5854
arriv	-10.5857
▁element	-10.5859
ivity	-10.5859
▁économies	-10.586
▁Survey	-10.5861
endra	-10.5861
▁innovative	-10.5863
téri	-10.5864
opposition	-10.5865
▁contest	-10.5872
▁Japon	-10.5873
▁situ	-10.5874
▁prohibit	-10.5876
▁secure	-10.5877
wer	-10.5878
▁deposit	-10.5878
ski	-10.5885
▁externe	-10.5891
▁repose	-10.5892
▁Page	-10.5893
▁judge	-10.5894
rier	-10.5894
▁consumption	-10.5895
▁Directorate	-10.5896
▁criminel	-10.5896
MB	-10.5897
▁limitée	-10.5898
▁biais	-10.5901
▁sénateurs	-10.5903
▁américaine	-10.5905
▁nouvel	-10.5906
▁Nunavut	-10.591
▁quickly	-10.591
▁Chapter	-10.5911
▁Annexe	-10.5911
▁bénéfice	-10.5914
bel	-10.5926
▁tonnes	-10.5927
émo	-10.5929
cell	-10.5932
▁Each	-10.5932
identité	-10.5938
▁Parmi	-10.5941
▁bourse	-10.5941
ctor	-10.5947
▁accroître	-10.5949
▁coordinate	-10.5955
▁cru	-10.5957
▁observed	-10.5961
▁jugé	-10.5964
▁55	-10.5964
▁constitution	-10.5972
pér	-10.5976
▁unless	-10.5981
▁refuge	-10.5995
▁poll	-10.5995
▁influe	-10.5999
▁petit	-10.5999
▁Presidency	-10.6003
IST	-10.6009
▁qualifié	-10.601
▁York	-10.601
▁poursuite	-10.6014
▁faites	-10.6014
▁réelle	-10.6016
▁colleagues	-10.6016
▁Iran	-10.6019
▁immediately	-10.6021
▁Sea	-10.6022
▁INC	-10.6026
▁selected	-10.6027
▁Afin	-10.6028
alisation	-10.603
examiner	-10.6035
▁pouvant	-10.6037
OD	-10.604
▁Chaque	-10.6044
habitants	-10.6045
▁guidance	-10.6047
dependent	-10.6048
aider	-10.6049
cap	-10.6059
▁quarter	-10.606
▁détermination	-10.6065
uvr	-10.6067
▁différence	-10.6067
▁certificat	-10.6068
▁garanti	-10.6068
now	-10.6068
▁relatively	-10.6073
▁Moreover	-10.6075
▁bout	-10.608
▁accountability	-10.608
▁certification	-10.6081
2005	-10.6085
▁mérite	-10.6085
entente	-10.609
dict	-10.6093
▁smoke	-10.6093
abri	-10.6095
zo	-10.6099
▁généraux	-10.61
▁prévision	-10.6111
▁BC	-10.6115
▁lumière	-10.6115
▁siècle	-10.612
▁ordre	-10.6123
▁Type	-10.6131
▁communiqué	-10.6133
▁invite	-10.6133
▁Charter	-10.6135
▁tribunal	-10.6135
▁faudrait	-10.6136
▁minority	-10.6137
habitat	-10.6138
▁School	-10.6139
▁Tech	-10.6147
▁indeed	-10.6147
▁heard	-10.615
▁adjustment	-10.615
▁devait	-10.6151
▁discours	-10.6152
▁publish	-10.6152
▁Tra	-10.6153
▁Day	-10.6153
Canada	-10.6159
Association	-10.6165
▁donnée	-10.6169
▁implications	-10.617
▁économie	-10.6173
▁corr	-10.6175
▁parc	-10.6181
▁échanges	-10.6185
tho	-10.6187
▁highest	-10.6187
mot	-10.6188
▁discuter	-10.6191
aille	-10.6192
▁buy	-10.6193
▁publicité	-10.6196
▁concluded	-10.6199
delà	-10.6201
▁linguistique	-10.6204
culture	-10.6205
▁determination	-10.6205
▁95	-10.6205
operative	-10.6209
▁Training	-10.6211
▁croissant	-10.6211
▁frontières	-10.6212
▁envoyé	-10.6216
HO	-10.6219
▁appuyer	-10.6224
ancien	-10.6229
▁recipient	-10.623
▁comply	-10.6235
graphique	-10.6236
évaluer	-10.6247
▁recommend	-10.6249
▁traite	-10.6251
▁appuie	-10.6251
▁speech	-10.6253
▁Autochtones	-10.6256
assi	-10.6257
▁rang	-10.6257
▁TO	-10.6258
▁gouvernementaux	-10.6261
▁Australia	-10.6266
▁scolaire	-10.6269
▁souligne	-10.6274
▁Northern	-10.6274
▁chimiques	-10.6276
▁everyone	-10.6284
▁exempt	-10.6285
▁Newfoundland	-10.6292
▁conduite	-10.6294
▁génération	-10.6302
▁aérien	-10.6307
▁confidential	-10.6308
▁Mor	-10.6311
▁remercie	-10.6313
▁avantage	-10.6314
▁invention	-10.6317
explo	-10.6318
▁Performance	-10.6319
▁district	-10.6319
▁instructions	-10.6324
▁saying	-10.6331
▁directe	-10.6332
▁Schedule	-10.6333
époque	-10.6333
▁giving	-10.6333
▁auront	-10.6339
▁soulevé	-10.6342
▁DG	-10.6342
COM	-10.6347
▁axée	-10.635
▁provisoire	-10.6366
▁facile	-10.6369
nier	-10.6373
▁caused	-10.6373
▁territory	-10.6376
▁Society	-10.638
harmonisation	-10.6381
▁Mac	-10.6387
illé	-10.6389
▁Arm	-10.639
▁senators	-10.639
▁compromis	-10.6392
▁topic	-10.6392
▁ressort	-10.6393
▁constitué	-10.6394
strat	-10.6401
/4	-10.6404
▁Royal	-10.6412
▁sensibilisation	-10.6412
▁Statistique	-10.6414
▁adverse	-10.6414
ridge	-10.6416
cient	-10.6427
dio	-10.6428
▁Turquie	-10.6428
amm	-10.643
person	-10.6436
ALE	-10.6436
compens	-10.6438
▁core	-10.644
▁accordée	-10.6441
fort	-10.6442
▁1988	-10.6443
▁indicators	-10.6444
▁Patrimoine	-10.6447
mètre	-10.6448
ajouter	-10.6452
char	-10.6453
Écosse	-10.6454
▁chômage	-10.6463
▁reconnaître	-10.6463
▁constaté	-10.6464
▁éco	-10.6466
DD	-10.6468
56	-10.647
▁gap	-10.647
▁temporaire	-10.6472
lip	-10.6473
▁Defence	-10.6474
RM	-10.6475
▁Sous	-10.6478
ignant	-10.6478
▁perception	-10.6482
▁intéressant	-10.6483
▁colon	-10.6486
▁recommendation	-10.6487
▁législatif	-10.6487
▁correspondant	-10.6491
▁institutional	-10.6493
law	-10.6497
▁repeat	-10.6501
encies	-10.6504
▁Medical	-10.6507
▁sexual	-10.6508
ouvrir	-10.6508
▁collecte	-10.6514
▁educational	-10.6516
▁participating	-10.6516
▁daily	-10.6516
▁Company	-10.6523
▁crop	-10.6524
▁amélioré	-10.6525
▁Assemblée	-10.6533
▁became	-10.6533
jo	-10.6535
▁track	-10.6536
II	-10.6536
▁located	-10.6537
▁fat	-10.6539
arian	-10.6539
2004	-10.6543
étal	-10.6544
attend	-10.6544
▁elect	-10.6554
▁PME	-10.6556
▁Advisory	-10.6563
▁femme	-10.6569
moi	-10.6572
secondary	-10.6574
▁acknowledge	-10.6574
▁burden	-10.6574
▁Personne	-10.6575
▁explicit	-10.6577
▁withdraw	-10.6577
ference	-10.6579
▁entier	-10.6579
▁Province	-10.6579
▁déposant	-10.6581
▁doubt	-10.6583
▁Brunswick	-10.6587
▁déficit	-10.6588
▁transportation	-10.6588
tract	-10.6588
ically	-10.6588
▁assujetti	-10.6592
▁heart	-10.6593
▁vivant	-10.6594
▁observer	-10.6595
▁obvious	-10.66
ève	-10.6605
▁Order	-10.6606
exécut	-10.6608
▁magn	-10.6609
▁Stratégie	-10.6613
experts	-10.6613
▁$3	-10.6614
▁Area	-10.6616
▁répartition	-10.662
▁initiale	-10.662
êt	-10.6622
▁dirigeants	-10.6622
uré	-10.6623
▁manifestation	-10.6625
IV	-10.663
Est	-10.6632
▁décès	-10.6633
▁sénateur	-10.6638
-08	-10.664
▁devez	-10.6643
▁maxim	-10.6645
igh	-10.6646
▁emergency	-10.6647
▁clean	-10.6648
tori	-10.665
▁transaction	-10.6651
▁describe	-10.6652
▁convenu	-10.6654
▁whom	-10.6655
gel	-10.6655
▁supplement	-10.6656
▁trouble	-10.6658
▁Deputy	-10.6659
hel	-10.6662
▁gouvernance	-10.6662
▁filing	-10.6664
événement	-10.6667
▁proper	-10.6668
▁développé	-10.6668
PH	-10.6669
▁thousand	-10.6673
▁Paris	-10.6674
▁appointment	-10.6677
▁Premier	-10.6683
▁56	-10.6683
▁registre	-10.6684
▁causé	-10.6686
atic	-10.6686
▁supplier	-10.669
▁card	-10.669
▁considerable	-10.6697
ville	-10.6701
bour	-10.6701
▁owner	-10.6706
▁continuing	-10.6708
▁volontaire	-10.6713
ieux	-10.6717
▁prioritaire	-10.6719
▁1987	-10.6723
▁contribué	-10.6725
▁manifeste	-10.6726
▁préparer	-10.6728
gard	-10.673
▁venu	-10.6732
▁détaillée	-10.6738
▁Russian	-10.6738
▁respondents	-10.674
▁Class	-10.674
▁India	-10.6743
▁conclure	-10.6746
▁See	-10.6747
ECT	-10.6748
activ	-10.6748
▁antérieure	-10.675
▁Summary	-10.675
▁sommet	-10.675
▁dispositif	-10.6753
▁CP	-10.6759
▁facility	-10.6761
▁pilote	-10.6761
▁reading	-10.6766
▁modalités	-10.6766
▁Compte	-10.6768
▁defence	-10.678
▁admissible	-10.6781
OM	-10.6789
▁informé	-10.679
▁detect	-10.6792
ô	-10.6793
alimentation	-10.6798
▁retain	-10.6803
▁AU	-10.6804
▁previously	-10.6806
▁changed	-10.6808
▁Income	-10.6809
▁began	-10.681
work	-10.6811
▁primaire	-10.6811
▁chart	-10.6813
▁circonscription	-10.6816
▁persist	-10.6817
▁formulé	-10.6817
▁Christ	-10.682
▁log	-10.6827
▁royal	-10.6829
▁length	-10.6831
▁try	-10.6831
▁looking	-10.6831
lier	-10.6835
type	-10.6835
▁qualification	-10.6839
▁retire	-10.684
▁Introduction	-10.6845
flu	-10.6847
opinion	-10.6853
▁collected	-10.6858
▁director	-10.6859
▁reaction	-10.6868
▁mutual	-10.6875
▁apparent	-10.6875
naissance	-10.6875
▁felt	-10.6876
▁Aux	-10.6876
▁satellite	-10.6887
exprimer	-10.6888
▁Sport	-10.6892
▁prime	-10.6895
▁Recommendation	-10.6897
▁satisfait	-10.6897
▁exploitation	-10.6897
▁Hong	-10.6902
▁estimé	-10.6902
▁Bal	-10.6902
Pro	-10.6906
▁écoles	-10.6907
▁coast	-10.6907
-09	-10.6912
▁Bay	-10.6913
east	-10.6914
▁fut	-10.6914
▁profession	-10.6915
▁Winnipeg	-10.6917
dium	-10.692
▁indicateurs	-10.6924
▁immédiatement	-10.6931
▁prepare	-10.6933
▁Transfer	-10.6936
▁Value	-10.6936
▁déb	-10.6938
▁utilise	-10.6942
▁mix	-10.6944
▁chargée	-10.6951
▁distinction	-10.6952
▁approfondi	-10.6955
gie	-10.6956
▁Ko	-10.6958
intégrer	-10.6959
▁physician	-10.6961
▁médicament	-10.6962
▁terminé	-10.6963
▁panel	-10.6965
9%	-10.6966
▁released	-10.6969
▁larger	-10.697
▁précisément	-10.6981
▁transit	-10.6986
▁protected	-10.699
▁copyright	-10.6999
")	-10.7
▁notion	-10.7003
ata	-10.7005
▁suffi	-10.7008
▁abandon	-10.7013
▁Notice	-10.7013
▁procure	-10.7018
▁Key	-10.702
Atlantique	-10.7026
▁retrouve	-10.7036
▁étrangère	-10.7036
▁cash	-10.7036
ensu	-10.7038
▁compose	-10.7039
péri	-10.7041
▁comparable	-10.7043
▁behind	-10.7047
▁révisé	-10.7048
▁toward	-10.7048
chet	-10.7058
▁RÉ	-10.7058
ONU	-10.7061
▁smoking	-10.7062
(5)	-10.7063
▁except	-10.7064
▁wait	-10.7066
▁Good	-10.7066
▁Four	-10.7068
▁mono	-10.7069
▁suspend	-10.7072
▁bénéficier	-10.7073
vu	-10.7077
▁fais	-10.7077
▁Partnership	-10.708
▁chacune	-10.7081
▁entrepreneurs	-10.7082
▁prospect	-10.7083
▁foot	-10.7084
▁journal	-10.7085
▁servi	-10.7088
▁Acc	-10.709
▁appelle	-10.7092
▁réussite	-10.7093
pond	-10.7099
▁eight	-10.7101
▁Commerce	-10.7102
▁planned	-10.7103
▁Risk	-10.7108
▁online	-10.711
▁immigration	-10.7118
▁négociation	-10.7118
▁argue	-10.7119
▁Time	-10.7121
▁Paper	-10.7125
▁soil	-10.7128
ordinateur	-10.713
▁domicile	-10.7131
hib	-10.7133
▁providers	-10.7136
▁plu	-10.7137
▁chaîne	-10.7137
▁mentale	-10.7138
▁déterminée	-10.714
▁monetary	-10.7143
▁explore	-10.7145
▁vice	-10.7146
▁Out	-10.7147
▁Relations	-10.7148
▁psycho	-10.7148
▁téléphone	-10.7153
AND	-10.7158
▁1985	-10.7159
▁mobile	-10.7161
▁Appl	-10.7162
▁siège	-10.7165
▁Year	-10.7167
▁appliquée	-10.717
▁profil	-10.7174
▁chlor	-10.7175
▁Audit	-10.7175
bro	-10.7176
▁unemployment	-10.7178
PF	-10.7181
▁healthy	-10.7183
bal	-10.7188
▁Case	-10.719
▁compromise	-10.7192
TO	-10.7192
than	-10.7192
çon	-10.7193
▁Lisbon	-10.72
▁logiciel	-10.7202
▁alone	-10.7205
▁clé	-10.7206
▁préparé	-10.7209
▁respective	-10.721
▁recovery	-10.7217
arn	-10.7219
▁devrions	-10.7231
▁voix	-10.7232
▁Lisbonne	-10.7235
▁largement	-10.7241
▁Sector	-10.7244
▁migration	-10.7244
▁Imp	-10.7245
▁David	-10.7248
product	-10.7251
▁advise	-10.7254
clin	-10.7255
▁progressive	-10.7259
▁climat	-10.7264
▁dirige	-10.7266
▁encourager	-10.7267
▁régi	-10.7277
▁actifs	-10.7278
▁reproduction	-10.728
▁engage	-10.728
▁operator	-10.7281
▁posé	-10.7283
WG	-10.7284
▁vessel	-10.7286
▁électorale	-10.7286
▁relever	-10.7287
▁remind	-10.7293
▁bulletin	-10.7294
▁undertaking	-10.7296
▁adéquate	-10.7301
▁indiquer	-10.7303
EUR	-10.7305
Neuve	-10.7308
▁revised	-10.731
▁started	-10.731
▁accession	-10.7311
▁emerge	-10.7313
▁compétitivité	-10.7316
▁régler	-10.7316
▁recruit	-10.7318
▁médicale	-10.732
▁audience	-10.7325
▁élu	-10.7328
▁label	-10.7328
▁Calgary	-10.7332
▁Also	-10.7333
rogation	-10.7336
▁huit	-10.7341
▁Robert	-10.7344
▁constituer	-10.7345
▁user	-10.7346
▁extensive	-10.7356
œ	-10.7361
▁habituellement	-10.7364
▁managed	-10.7364
écri	-10.7365
▁Avec	-10.7366
▁achievement	-10.7367
inscription	-10.7369
▁professionnel	-10.7372
▁rappel	-10.7373
▁trying	-10.7375
▁pain	-10.7375
▁Paul	-10.7378
ministre	-10.7378
▁deemed	-10.7378
▁exemption	-10.7381
▁nécessite	-10.7384
▁Jean	-10.7386
▁compréhension	-10.7388
▁gamme	-10.7388
▁pursue	-10.7388
étaient	-10.7394
▁Chinese	-10.7397
▁effectuer	-10.7401
▁Through	-10.7403
▁rational	-10.7405
▁sait	-10.7405
▁soi	-10.7405
lia	-10.7407
wide	-10.7409
▁Senator	-10.7412
▁Foundation	-10.7415
▁présentent	-10.7418
▁enjoy	-10.742
▁sharing	-10.7422
▁Please	-10.7429
▁essentiellement	-10.7429
▁print	-10.743
▁savons	-10.7431
▁Deux	-10.7432
▁400	-10.7432
▁instead	-10.7432
▁subi	-10.7436
▁Kingdom	-10.7439
▁PIB	-10.7439
OUR	-10.7444
▁Prince	-10.7456
▁Ministre	-10.7457
▁universities	-10.7458
▁placement	-10.7465
▁papier	-10.7465
▁deficit	-10.7466
▁Customs	-10.7469
▁scheme	-10.7469
▁favor	-10.7472
▁terrorisme	-10.7476
parti	-10.7479
▁departmental	-10.748
▁corruption	-10.7488
▁entièrement	-10.7492
▁define	-10.7492
▁lost	-10.7492
  	-10.7493
▁Meeting	-10.7495
▁libéral	-10.7497
▁vérifier	-10.7498
vari	-10.75
Brunswick	-10.7508
▁house	-10.7508
Asie	-10.7517
▁pattern	-10.7519
▁structural	-10.7528
▁Labrador	-10.7537
office	-10.754
▁pouvait	-10.7542
org	-10.7543
▁Étant	-10.7544
media	-10.7545
illi	-10.7548
▁affecté	-10.7551
▁accru	-10.7556
▁territories	-10.7559
▁rue	-10.7559
IVE	-10.756
▁placed	-10.7564
▁forecast	-10.7564
africain	-10.7567
▁trouvé	-10.7572
▁attribué	-10.7578
▁treaty	-10.7581
▁linked	-10.7581
government	-10.7588
bert	-10.7591
▁illegal	-10.7592
uer	-10.7598
▁opérationnel	-10.7601
▁diploma	-10.7605
▁rapid	-10.7607
▁sais	-10.7614
▁ouverte	-10.7615
▁trouvent	-10.7616
▁Secretary	-10.7617
train	-10.7617
▁technological	-10.7625
▁focused	-10.7627
▁Photo	-10.7627
▁concours	-10.7629
▁accepter	-10.7631
▁vidéo	-10.7631
oppose	-10.7633
▁interpretation	-10.7633
avocat	-10.7636
perfectionnement	-10.7639
▁malgré	-10.7646
▁representation	-10.7648
▁Prior	-10.7648
cult	-10.7652
▁diminution	-10.7653
▁GDP	-10.766
▁stade	-10.7663
étudier	-10.7664
pay	-10.7668
▁britannique	-10.7673
trans	-10.7674
aison	-10.7675
▁représentation	-10.7677
▁university	-10.768
▁signe	-10.7683
INE	-10.7688
▁reality	-10.7694
▁Strategic	-10.7697
▁female	-10.7698
▁indispensable	-10.7703
▁convaincu	-10.7707
▁neuf	-10.7716
▁voting	-10.7716
▁émis	-10.772
▁title	-10.7721
▁Annual	-10.7723
▁Korea	-10.7726
EST	-10.7727
tabli	-10.7727
informatique	-10.7728
▁tourisme	-10.773
▁Land	-10.773
▁village	-10.7733
▁récent	-10.7735
▁reconnaît	-10.7741
▁spent	-10.7747
▁characteristics	-10.7749
▁sentiment	-10.775
▁enjeux	-10.7751
▁identification	-10.7754
▁Contribution	-10.7757
PAC	-10.7763
▁tôt	-10.7765
▁receipt	-10.7765
▁treated	-10.7765
▁désormais	-10.7766
ATIONS	-10.7767
▁concrète	-10.7774
environnementaux	-10.7776
▁parliamentary	-10.7785
▁milliers	-10.7786
▁Afghanistan	-10.7787
empêche	-10.7787
▁peux	-10.7792
▁Youth	-10.78
▁idées	-10.7803
▁Ocean	-10.7804
▁diagnostic	-10.7805
▁achieving	-10.7809
▁sum	-10.7812
berg	-10.7814
influenza	-10.7816
▁inclure	-10.7817
▁Met	-10.782
tting	-10.7836
▁housing	-10.7836
▁mainly	-10.7839
▁slow	-10.784
▁augmente	-10.784
▁strength	-10.7848
▁veuillez	-10.7851
▁élèves	-10.7851
resse	-10.7852
face	-10.7855
▁determining	-10.7855
▁rappeler	-10.7857
like	-10.7857
ajustement	-10.786
pin	-10.786
▁Why	-10.7861
▁error	-10.7862
▁Two	-10.7867
▁TV	-10.7869
▁patrimoine	-10.7869
jour	-10.787
▁count	-10.787
▁destruction	-10.7871
▁store	-10.7872
▁Another	-10.7872
▁Pat	-10.7879
▁City	-10.7885
▁big	-10.7887
under	-10.7888
▁declaration	-10.7889
▁liberal	-10.7891
▁travaillent	-10.7894
▁changing	-10.7895
▁liée	-10.7901
équivalent	-10.7906
▁consentement	-10.7908
▁round	-10.791
▁sometimes	-10.7911
élément	-10.7913
stru	-10.7914
▁armes	-10.7916
▁room	-10.7919
▁BCE	-10.792
▁Pla	-10.7922
▁efficacement	-10.7925
▁Système	-10.7933
▁poser	-10.7935
▁reflète	-10.7936
▁limité	-10.7937
AU	-10.7937
gram	-10.7938
▁touchant	-10.7945
▁utilisant	-10.7948
▁privacy	-10.7949
équité	-10.7951
▁doctor	-10.7952
▁partiel	-10.7957
tude	-10.7959
▁city	-10.7964
▁significative	-10.7967
assembl	-10.7967
AIRE	-10.7969
examin	-10.797
▁Iraq	-10.7971
▁proceedings	-10.7973
▁comparaison	-10.7974
500	-10.7975
▁bienfaisance	-10.7976
▁shift	-10.7976
▁résumé	-10.7978
EPA	-10.7984
▁Qui	-10.7985
▁feed	-10.799
▁Great	-10.7992
▁cellules	-10.7993
accroître	-10.7993
▁prévoir	-10.7995
▁summary	-10.8007
▁chinois	-10.801
▁Bon	-10.8014
inspection	-10.8014
▁explique	-10.8016
▁Voici	-10.8017
▁taxable	-10.8018
▁categories	-10.802
▁prévenir	-10.8026
▁finding	-10.8027
mod	-10.8027
▁Communication	-10.8032
▁populaire	-10.8033
▁becoming	-10.8033
ajout	-10.8035
▁certainement	-10.8036
▁excessive	-10.8036
BR	-10.8037
▁regulate	-10.8039
▁2004-2005	-10.804
▁Today	-10.804
▁despite	-10.8041
▁servant	-10.8041
Inde	-10.805
▁emerging	-10.8057
▁décider	-10.806
tabilis	-10.806
▁ECB	-10.8061
▁Because	-10.8064
microbi	-10.8068
▁barriers	-10.8072
▁Lu	-10.8077
▁arbitr	-10.8077
▁plate	-10.8081
invest	-10.8082
oot	-10.8093
▁Natural	-10.8096
▁atteinte	-10.8097
▁Arab	-10.8099
▁appointed	-10.8099
▁mid	-10.8102
▁bénévole	-10.8106
ESS	-10.8107
ÉR	-10.811
PER	-10.8111
▁solid	-10.8114
aimerais	-10.8118
VER	-10.8119
▁tariff	-10.8123
▁predict	-10.8128
▁figurant	-10.8128
▁retail	-10.8128
EU	-10.8134
▁constater	-10.8138
▁visent	-10.8143
▁strengthening	-10.8143
▁category	-10.8148
controlled	-10.8149
▁modifiée	-10.8149
▁Ministry	-10.815
▁spoke	-10.8151
intéresse	-10.8151
▁currency	-10.8152
GH	-10.8152
▁individuelle	-10.8152
▁immediate	-10.816
gramme	-10.816
▁alcohol	-10.8163
▁precise	-10.8166
▁represented	-10.8166
assistance	-10.8167
▁revue	-10.8167
▁couple	-10.8176
▁organized	-10.8178
▁faudra	-10.8179
night	-10.8181
▁Ressources	-10.8183
▁holder	-10.8185
phy	-10.8186
▁intend	-10.8187
▁1986	-10.8188
estime	-10.8188
house	-10.8189
Alliance	-10.8195
▁difficulties	-10.8195
instruction	-10.8196
élimination	-10.8197
▁supervision	-10.8198
▁Industrie	-10.8198
▁Développement	-10.82
amine	-10.8201
bound	-10.8202
▁axé	-10.8204
▁pauvres	-10.8208
▁membership	-10.8208
▁certificate	-10.8211
▁DÉ	-10.8212
where	-10.8212
AGE	-10.8213
▁fichier	-10.8215
▁banque	-10.8216
NP	-10.8218
▁exporter	-10.822
▁témoin	-10.8224
▁complement	-10.8228
makers	-10.8229
body	-10.823
pass	-10.8231
▁rester	-10.8234
Con	-10.8238
satisf	-10.8239
▁flexibility	-10.8239
▁candidat	-10.824
▁German	-10.8241
iii	-10.8244
▁capture	-10.8246
other	-10.8247
▁française	-10.8249
▁volunteer	-10.8254
ressource	-10.8256
▁Guidelines	-10.8257
▁sponsor	-10.826
▁earn	-10.8261
▁install	-10.8262
▁properly	-10.8264
▁examined	-10.827
▁tente	-10.827
▁elected	-10.8272
▁Capital	-10.8274
▁Projet	-10.8275
▁coverage	-10.8278
▁Bloc	-10.828
▁told	-10.8283
clar	-10.8283
▁enfin	-10.8283
▁oblige	-10.8288
▁consultant	-10.8293
▁aircraft	-10.8298
▁measurement	-10.83
▁foster	-10.8301
▁procès	-10.8311
▁Entre	-10.8318
▁digital	-10.832
ordonnance	-10.8321
▁bâtiment	-10.8323
FF	-10.8324
▁contribue	-10.8325
▁Brazil	-10.8326
▁télévision	-10.8328
▁settlement	-10.8328
▁Current	-10.8329
avantage	-10.8335
▁formula	-10.8336
▁incentive	-10.8345
▁advertising	-10.835
olar	-10.8359
▁economies	-10.8363
Provincial	-10.8365
pharmaceutique	-10.8365
économique	-10.837
▁telephone	-10.8372
▁Now	-10.8373
▁choisir	-10.838
▁Ben	-10.8382
▁closed	-10.8384
▁comparison	-10.8385
▁spread	-10.8388
▁attribuable	-10.8388
▁background	-10.8392
▁complémentaire	-10.8393
▁vendu	-10.8399
▁profiter	-10.84
attendre	-10.8404
▁Plusieurs	-10.8404
▁budgetary	-10.8405
▁competitiveness	-10.8407
▁century	-10.8408
▁namely	-10.841
tach	-10.8411
▁partagé	-10.8413
▁corps	-10.8424
▁qualified	-10.8426
▁détaillé	-10.8428
▁probably	-10.8428
▁Investment	-10.843
chloro	-10.8435
abilit	-10.8437
▁lieux	-10.8441
▁DFO	-10.8442
Bas	-10.8448
▁dynamique	-10.8451
▁jeu	-10.8451
▁autorisée	-10.8452
▁defend	-10.8458
count	-10.8458
▁household	-10.846
▁software	-10.8462
▁launched	-10.8462
▁Innovation	-10.8465
▁feu	-10.8477
▁retrait	-10.8481
▁summer	-10.8481
▁interpret	-10.8482
▁fréquence	-10.8482
▁adultes	-10.8486
▁auteurs	-10.8487
rand	-10.8487
▁marge	-10.8492
▁limiter	-10.8495
▁Mexico	-10.8498
▁authorized	-10.8499
▁km	-10.8499
▁voluntary	-10.85
▁Pakistan	-10.8502
▁Quand	-10.8504
▁auraient	-10.8505
▁Last	-10.8506
▁humain	-10.8507
lais	-10.8508
▁montré	-10.8509
ASS	-10.851
▁Benefit	-10.8511
▁catastrophe	-10.8513
▁préciser	-10.8514
diction	-10.8517
▁magazine	-10.8518
▁containing	-10.8518
▁télécommunicat	-10.8521
▁Once	-10.8527
infection	-10.8528
aries	-10.8529
▁heureux	-10.8532
▁financer	-10.8533
▁fear	-10.8533
▁kill	-10.8533
expliqu	-10.8534
▁ministériel	-10.8535
rated	-10.8535
▁injury	-10.8537
................	-10.854
Internet	-10.8542
1999	-10.8544
▁150	-10.8551
-31	-10.8552
▁manufacturing	-10.8552
▁fiducie	-10.8553
▁extended	-10.8555
uvre	-10.8555
▁journée	-10.8556
▁outlined	-10.8558
round	-10.8562
image	-10.8566
▁cohésion	-10.8568
▁soumettre	-10.8571
▁sert	-10.8575
atelier	-10.8586
▁fur	-10.8588
appareil	-10.8589
▁infraction	-10.859
ificat	-10.8595
▁conclude	-10.8598
▁segment	-10.8598
mettre	-10.86
Isra	-10.86
▁disclosure	-10.8606
▁Point	-10.8607
ozone	-10.8609
président	-10.861
▁marqué	-10.8611
▁enlargement	-10.8613
▁supplies	-10.8615
▁hazard	-10.8616
▁puisqu	-10.8616
▁heritage	-10.8617
▁conserver	-10.8617
ONT	-10.8619
▁Unit	-10.8623
érant	-10.8626
interdiction	-10.8626
▁relevé	-10.8627
▁foundation	-10.8627
▁president	-10.863
▁scrutin	-10.8633
▁offence	-10.8633
▁Grâce	-10.8634
▁laisser	-10.8636
▁Charte	-10.8638
▁sang	-10.8639
▁actes	-10.8641
illon	-10.8645
TRE	-10.8645
▁décennie	-10.8647
▁career	-10.8647
▁resulted	-10.8648
▁considérer	-10.8649
élaborer	-10.8649
back	-10.865
▁soul	-10.8651
▁demonstrated	-10.8653
▁Consultation	-10.8661
▁equivalent	-10.8661
▁Energy	-10.8663
▁aérienne	-10.8664
▁disaster	-10.8664
▁Thus	-10.8664
▁étudié	-10.8671
▁student	-10.8671
▁2005-2006	-10.8672
▁Product	-10.8673
▁Pourquoi	-10.8676
Contact	-10.8678
▁photograph	-10.8678
▁Consumer	-10.8685
▁Press	-10.8691
▁prescribed	-10.8691
▁wage	-10.8693
▁(613)	-10.8699
▁sexuelle	-10.8701
▁élargi	-10.8701
▁Quelle	-10.871
▁maintained	-10.871
▁stay	-10.871
▁wrong	-10.8711
▁performed	-10.8714
ITÉ	-10.8715
▁Given	-10.8717
SION	-10.8723
▁Nation	-10.8728
▁seeking	-10.8732
exemple	-10.8733
▁imported	-10.8733
entrevue	-10.8735
▁everything	-10.8735
▁season	-10.8736
▁insuffisant	-10.8737
▁object	-10.8737
nger	-10.8737
▁révélé	-10.8739
▁UK	-10.8739
▁carrière	-10.8741
▁majeure	-10.8744
▁Gestion	-10.8744
▁occurred	-10.8747
▁completely	-10.875
▁accurate	-10.8752
▁moteur	-10.8755
▁découlant	-10.876
▁macro	-10.876
hop	-10.8764
▁programming	-10.8765
▁extension	-10.8766
pot	-10.877
éliminer	-10.8773
▁introduce	-10.8774
economic	-10.8778
▁perdu	-10.8781
▁gather	-10.8787
▁absolu	-10.8788
▁Ru	-10.879
▁Procedure	-10.8797
▁viable	-10.8797
▁régulièrement	-10.8798
ERS	-10.8804
▁versement	-10.8807
▁Indeed	-10.881
▁Vice	-10.8813
▁combined	-10.8815
▁Off	-10.8821
▁statistics	-10.8825
encontre	-10.8826
▁choose	-10.8827
▁monnaie	-10.8828
▁Peter	-10.883
▁neighbour	-10.8832
▁découle	-10.8834
▁revendication	-10.8837
▁interdit	-10.8837
▁ratification	-10.8839
▁écologique	-10.8843
introduction	-10.8849
là	-10.885
EF	-10.8851
exception	-10.8854
▁allowance	-10.886
▁profile	-10.8864
▁observ	-10.8866
UD	-10.8868
▁fit	-10.887
▁gave	-10.8873
▁opportun	-10.8875
▁réception	-10.8883
▁advisor	-10.8888
exigence	-10.8894
▁viol	-10.8901
▁Appr	-10.8902
effectif	-10.8905
▁ultérieur	-10.8906
▁tourism	-10.8906
▁MPO	-10.8907
▁eliminate	-10.8908
▁indiquent	-10.8909
raw	-10.891
▁mauvaise	-10.891
▁âgé	-10.8912
affectation	-10.8912
▁mère	-10.8926
Franc	-10.8928
mir	-10.8929
▁réellement	-10.8932
aise	-10.8936
▁bord	-10.8937
▁terrorism	-10.8938
▁Head	-10.8938
▁Panel	-10.8941
uter	-10.8944
▁Statement	-10.8945
▁excess	-10.8946
▁equality	-10.8953
▁Résultat	-10.8964
offrir	-10.8967
édition	-10.8972
▁Région	-10.8976
▁effectivement	-10.8978
▁video	-10.8979
UC	-10.8981
▁sustain	-10.8984
▁substitut	-10.8988
▁précisé	-10.899
▁sensitive	-10.8991
▁getting	-10.8992
▁tension	-10.8994
emprunt	-10.9002
▁résidence	-10.9008
▁talking	-10.9008
▁dépense	-10.9009
▁formulation	-10.9013
▁entraîner	-10.9014
▁contributed	-10.902
▁Top	-10.9024
▁hear	-10.9026
▁moderne	-10.9034
ifiée	-10.9039
▁voice	-10.9041
DO	-10.9042
▁Culture	-10.9045
▁fasse	-10.9047
▁fixed	-10.9048
▁Media	-10.9049
▁êtes	-10.9058
▁manufacture	-10.906
▁Classification	-10.9062
▁désigne	-10.9065
▁porté	-10.9066
▁flexible	-10.9067
▁liaison	-10.9068
▁lutter	-10.9068
▁seuil	-10.9071
▁Phase	-10.9072
envoyer	-10.908
▁Aujourd	-10.9081
▁détenu	-10.9082
▁tenant	-10.9084
▁intérieure	-10.9086
▁couvert	-10.9086
MR	-10.9091
cultural	-10.9092
▁Portugal	-10.9094
▁Both	-10.9095
▁bénéficie	-10.9097
▁colleague	-10.9097
▁fournisseur	-10.9098
▁Fish	-10.9106
électricité	-10.9113
▁remaining	-10.9118
▁passenger	-10.9118
▁preliminary	-10.912
▁abroad	-10.912
▁appliqué	-10.9123
▁radiodiffusion	-10.9126
Orient	-10.9128
▁semblent	-10.9128
▁automobile	-10.9134
ouvre	-10.9136
▁Your	-10.914
▁productivité	-10.9142
▁confirmed	-10.9145
éviter	-10.9153
▁Madrid	-10.9154
▁auxquelles	-10.9155
▁Children	-10.9157
▁electoral	-10.9158
▁congratulate	-10.9161
▁accorder	-10.9166
▁familiale	-10.9166
attirer	-10.9167
tag	-10.9168
▁Insurance	-10.917
▁découvert	-10.917
▁revision	-10.917
▁safeguard	-10.9171
▁Voir	-10.9179
▁listen	-10.9179
▁calculé	-10.9181
▁renvoi	-10.9186
5,000	-10.9187
▁identifié	-10.9189
▁continuera	-10.9195
▁individuel	-10.9196
▁Funding	-10.9196
▁enhanced	-10.9198
▁strongly	-10.9203
▁saison	-10.9203
▁entered	-10.9209
____________	-10.9212
▁holding	-10.9213
▁urge	-10.9215
▁moindre	-10.9216
▁opérationnelle	-10.9217
▁religion	-10.9219
▁fast	-10.9219
pré	-10.9219
graduate	-10.922
▁solidarité	-10.9225
▁illness	-10.9227
▁absolument	-10.9229
▁relief	-10.9229
▁display	-10.9233
script	-10.9234
▁parlé	-10.9234
▁tribunaux	-10.9234
mount	-10.9235
▁meaning	-10.9236
éli	-10.9237
rig	-10.9244
▁vendre	-10.9245
ford	-10.9246
identification	-10.9247
arrière	-10.9248
▁lourd	-10.9248
▁expectations	-10.9249
▁Industrial	-10.9251
▁select	-10.9255
▁Tableau	-10.9255
▁moving	-10.9256
▁delivered	-10.9256
▁identity	-10.9257
▁goes	-10.9257
▁simul	-10.9258
▁wind	-10.9258
▁Further	-10.9259
▁rappelle	-10.9261
illage	-10.9262
▁affirme	-10.9264
but	-10.9265
▁traffic	-10.9267
operation	-10.9268
instrument	-10.9277
▁His	-10.9277
▁maintaining	-10.928
▁Task	-10.9288
▁déterminant	-10.9292
QUE	-10.9292
▁Award	-10.9292
▁Record	-10.9293
▁hum	-10.9294
▁médecine	-10.9297
logical	-10.9301
▁rejeté	-10.9301
▁facing	-10.9302
▁estimations	-10.9308
attribution	-10.9314
▁television	-10.9315
▁arise	-10.9321
assemblée	-10.933
▁échéant	-10.9332
▁largely	-10.9336
▁remplacement	-10.9342
ancienne	-10.9352
▁800	-10.9355
▁expert	-10.9356
OI	-10.9358
crit	-10.9362
▁définit	-10.9363
▁announce	-10.9365
▁précision	-10.9366
▁Leader	-10.937
institut	-10.9371
▁normale	-10.9373
▁déposée	-10.9374
rose	-10.9374
▁renforcé	-10.9375
▁vivent	-10.9376
INT	-10.9379
▁milieux	-10.9384
▁proche	-10.9386
▁Those	-10.9388
▁appuyé	-10.939
▁conscient	-10.9391
▁retenue	-10.9394
▁reveal	-10.9396
ANCE	-10.9399
▁counter	-10.9401
IONS	-10.9402
cision	-10.9408
entrepreneur	-10.9411
▁réputé	-10.9411
ella	-10.9419
immeuble	-10.9423
▁bancaire	-10.9426
▁Grant	-10.9427
▁communicate	-10.943
▁recognise	-10.9434
▁remise	-10.9435
Edmonton	-10.9436
▁Demande	-10.9441
▁tarif	-10.9446
▁conscience	-10.9447
▁assessed	-10.9452
▁constructive	-10.9455
▁secrétaire	-10.9456
▁easy	-10.9463
▁failed	-10.9465
▁block	-10.9466
▁Revenu	-10.9467
▁medicine	-10.9467
▁bad	-10.9477
▁prennent	-10.9478
▁favorise	-10.9478
▁SUR	-10.9479
▁Version	-10.9485
▁confirmé	-10.9491
▁fortement	-10.9491
IES	-10.9492
▁autochtone	-10.9496
certain	-10.9499
▁screening	-10.9499
▁Joint	-10.9503
«	-10.9504
▁Autre	-10.9505
▁served	-10.9506
▁recorded	-10.9511
▁negotiate	-10.9512
électrique	-10.9514
NU	-10.9517
▁tabled	-10.9526
▁maximale	-10.9526
▁contrôlé	-10.9527
▁foi	-10.9528
▁experienced	-10.9531
▁adjoint	-10.9532
▁Command	-10.9534
▁availability	-10.9536
▁Labour	-10.9542
▁Crown	-10.9551
▁Amendement	-10.9557
▁représenté	-10.956
hom	-10.9561
▁livraison	-10.9561
▁compatible	-10.9562
▁Staff	-10.9562
▁facilement	-10.9562
▁contraint	-10.9565
▁devient	-10.9565
▁Haut	-10.9567
▁âgées	-10.9575
▁spécialistes	-10.9576
▁Alors	-10.9576
aéroport	-10.9578
▁Pacific	-10.9583
IO	-10.9584
▁sentence	-10.9585
provincial	-10.9587
ENCE	-10.9588
▁starting	-10.959
▁Conclusion	-10.9592
▁offrent	-10.9594
articul	-10.96
▁index	-10.96
▁perçu	-10.9601
în	-10.9602
▁différend	-10.9606
▁exhibit	-10.9608
CF	-10.9611
▁IPC	-10.9612
▁Déclaration	-10.9616
île	-10.9622
estimation	-10.9623
▁négatif	-10.9623
▁probable	-10.964
▁réparti	-10.9645
émerge	-10.9645
gon	-10.9646
▁encouraged	-10.9646
▁voulu	-10.9652
▁Privacy	-10.9654
▁vary	-10.9655
▁severe	-10.9659
▁employeurs	-10.966
▁Specific	-10.966
armée	-10.9661
▁numerous	-10.9664
▁allocated	-10.9666
including	-10.9667
espoir	-10.9667
▁portent	-10.9669
▁adjust	-10.9674
▁formé	-10.9681
▁rurales	-10.9683
▁convert	-10.9684
▁phénomène	-10.9684
▁combination	-10.9688
▁Jan	-10.969
GO	-10.969
▁autour	-10.9693
▁consacre	-10.97
▁Cabinet	-10.9702
▁fondamental	-10.9705
▁SCT	-10.9705
▁mentionne	-10.9706
▁productivity	-10.9706
affiche	-10.9709
▁Author	-10.9711
▁2002-2003	-10.9713
▁billet	-10.9713
importe	-10.9714
▁update	-10.9717
path	-10.9719
▁pétrole	-10.972
▁yeux	-10.9721
illus	-10.9725
▁capitaux	-10.9726
envoi	-10.9727
▁Analysis	-10.9729
▁penser	-10.973
ji	-10.9731
▁satisfaire	-10.9734
aujourd	-10.9737
▁workplace	-10.9737
▁Pendant	-10.974
▁croire	-10.9745
ASFC	-10.9746
(1)(	-10.9746
entremise	-10.9746
▁Paragraph	-10.975
▁abordé	-10.9751
▁évidence	-10.9753
▁veux	-10.9753
▁fréquent	-10.9761
▁neuro	-10.9763
▁Copyright	-10.9764
▁academic	-10.9764
tergovernmental	-10.9767
▁Team	-10.9771
▁Anti	-10.9774
▁quotidienne	-10.9776
▁register	-10.9778
▁2003-2004	-10.978
▁Défense	-10.978
▁compétente	-10.9786
▁Veuillez	-10.9792
▁entrepris	-10.9793
▁Quant	-10.9793
agence	-10.9793
▁remarque	-10.9797
scribe	-10.9799
▁fier	-10.9806
▁built	-10.9807
▁Radio	-10.9808
▁Production	-10.9809
2008	-10.9809
▁equity	-10.9819
▁targeted	-10.9819
▁provenance	-10.9824
▁cities	-10.983
▁historical	-10.983
▁PAR	-10.9832
phon	-10.9835
▁anything	-10.9836
▁concurrentiel	-10.984
▁courage	-10.9841
▁donor	-10.9842
▁impôts	-10.9844
▁carrier	-10.9851
▁Free	-10.9853
▁suffisante	-10.9854
▁importer	-10.9855
AUX	-10.9863
▁tête	-10.9867
oeuvre	-10.9867
▁About	-10.9867
▁Limited	-10.9868
▁Senior	-10.9871
▁constitutionnel	-10.9873
▁passed	-10.9882
▁trafic	-10.9883
▁Response	-10.9883
▁température	-10.9884
▁2011	-10.9889
▁figurent	-10.989
▁invited	-10.9892
▁sérieuse	-10.9894
▁Lors	-10.9894
▁experiment	-10.9897
▁Montreal	-10.9903
adopter	-10.9907
engager	-10.9909
▁popular	-10.9912
étape	-10.9912
HI	-10.9914
▁calendrier	-10.9915
▁ignore	-10.9921
▁revêt	-10.9923
▁translation	-10.9924
▁survie	-10.9924
▁prescription	-10.9925
▁vaccine	-10.9932
▁advanced	-10.9934
▁remember	-10.9935
▁undertake	-10.994
Ex	-10.9944
▁humanitaire	-10.9945
Australie	-10.9945
▁2.2	-10.9947
▁afford	-10.995
▁Child	-10.995
▁indépendante	-10.9953
▁Ol	-10.9958
▁Ceci	-10.9963
▁déplacement	-10.9963
▁Hospital	-10.9975
▁SMEs	-10.998
aquaculture	-10.9981
considérablement	-10.9988
▁discover	-10.999
▁bilateral	-10.9991
gouvernementale	-10.9991
▁commis	-10.9992
▁imposed	-10.9993
▁2006-2007	-10.9994
agissant	-10.9994
▁alter	-10.9997
▁channel	-10.9998
END	-11.0004
▁ethnic	-11.0005
▁Halifax	-11.0007
▁chapter	-11.0011
▁Intellectual	-11.0014
▁older	-11.0016
▁contribuent	-11.0018
▁recall	-11.002
Etat	-11.0025
▁northern	-11.0027
▁placé	-11.003
▁exigé	-11.0033
▁Évaluation	-11.0034
inquiétude	-11.004
▁Every	-11.004
▁Concern	-11.0042
▁implique	-11.0064
Direct	-11.007
▁continuent	-11.0076
▁concrete	-11.0078
▁dirigé	-11.0081
▁explained	-11.0084
association	-11.0085
▁employ	-11.0094
▁prétend	-11.0096
▁prescrit	-11.0101
pour	-11.0106
hat	-11.0107
▁Multi	-11.0108
▁Recommandation	-11.011
▁mother	-11.0116
▁Quality	-11.0119
▁attentes	-11.0119
▁marginal	-11.0122
▁Following	-11.0125
shore	-11.0128
▁profond	-11.013
▁permettront	-11.013
▁contractante	-11.0136
▁Ligne	-11.0139
▁existantes	-11.0142
▁Additional	-11.0147
▁PART	-11.0149
▁renouvelable	-11.0156
▁sérieux	-11.0158
comme	-11.0158
▁continuous	-11.0163
clo	-11.0164
▁suspect	-11.0167
▁ready	-11.0168
▁Certaines	-11.0173
▁convergence	-11.0175
▁courante	-11.0176
▁basée	-11.0176
▁drawn	-11.0178
▁250	-11.0181
▁Hol	-11.0183
▁participent	-11.0183
HER	-11.0185
▁Final	-11.0187
▁administré	-11.0188
jud	-11.0188
jug	-11.0197
atteindre	-11.0207
▁contradict	-11.021
▁witness	-11.0211
▁litige	-11.0218
▁recrutement	-11.0219
▁montrent	-11.0223
▁solidarity	-11.0226
▁CBSA	-11.0234
▁massive	-11.0238
ancy	-11.0238
▁procurement	-11.0239
▁completion	-11.024
▁Malgré	-11.0243
chev	-11.0244
référ	-11.0245
▁50%	-11.0248
physi	-11.025
▁démontré	-11.0253
▁totalement	-11.0253
▁donnent	-11.0257
cast	-11.0258
▁transferred	-11.0259
▁possession	-11.0264
▁Martin	-11.0264
▁déroule	-11.027
▁remplacé	-11.0272
▁College	-11.0272
▁chain	-11.0275
agne	-11.0276
▁utilisent	-11.0279
▁Directeur	-11.0281
▁déployé	-11.0281
▁qualify	-11.0287
▁cultiv	-11.0288
▁Summit	-11.0296
▁gouverneur	-11.03
▁Manager	-11.03
▁Mexique	-11.031
▁textile	-11.0312
▁finally	-11.0313
▁musique	-11.0317
▁horizontal	-11.0318
▁résulte	-11.032
▁investigate	-11.0321
▁séparé	-11.0322
▁Building	-11.0324
▁Representative	-11.0327
▁endorse	-11.0327
▁Réseau	-11.033
▁travaillé	-11.0333
▁féliciter	-11.0336
cru	-11.0339
▁temporary	-11.0342
▁résistance	-11.0345
lateral	-11.0345
appli	-11.0345
free	-11.0347
▁ownership	-11.035
▁Corr	-11.0355
▁reçoivent	-11.0357
▁trip	-11.0362
▁permettrait	-11.0367
▁Based	-11.0372
▁anciens	-11.0378
appelant	-11.038
▁teneur	-11.0381
▁broader	-11.0386
▁russe	-11.0386
indice	-11.0389
▁crée	-11.0392
▁difficulté	-11.0394
▁appareils	-11.0394
indemnité	-11.0399
▁montrer	-11.0401
▁Cooperation	-11.0403
▁connais	-11.0405
▁Thank	-11.0407
▁Term	-11.0407
▁hundred	-11.0408
▁répondu	-11.0409
▁Francophone	-11.0414
quality	-11.0415
▁Legal	-11.0416
▁ourselves	-11.0423
▁Corporate	-11.0425
▁renouvellement	-11.0429
▁contrast	-11.0434
▁individus	-11.0436
▁protocol	-11.0436
keeping	-11.0437
▁statistical	-11.0437
▁engaged	-11.0437
▁suffisant	-11.0437
▁temperature	-11.0441
▁empêcher	-11.0443
▁lacunes	-11.0444
▁introduit	-11.0446
FO	-11.0452
▁launch	-11.0465
océan	-11.0466
▁huge	-11.0467
attente	-11.0468
▁sheet	-11.0476
▁confusion	-11.0479
▁calculated	-11.0481
échelon	-11.0482
▁disposer	-11.0484
▁wonder	-11.0485
clam	-11.0488
▁Avis	-11.0488
▁réflexion	-11.0489
▁1970	-11.0489
▁Ireland	-11.0491
▁Washington	-11.0492
▁satisfied	-11.0494
1998	-11.0496
▁Position	-11.0499
▁typ	-11.0501
▁Disease	-11.0502
▁1.1	-11.0503
▁modified	-11.0503
▁Finland	-11.0504
contr	-11.0505
▁franchi	-11.0506
▁consommateur	-11.051
▁CRA	-11.0513
well	-11.0515
▁suspension	-11.0516
▁requête	-11.0518
▁défaut	-11.0522
▁néanmoins	-11.0526
▁RCMP	-11.0531
▁arrest	-11.0532
▁apportées	-11.054
war	-11.0552
▁managing	-11.0552
▁carrying	-11.0554
hypothèse	-11.056
essence	-11.056
view	-11.0563
▁dividend	-11.057
umb	-11.0573
▁compound	-11.0576
ampleur	-11.0578
▁savings	-11.0579
automne	-11.0579
▁fellow	-11.0581
▁violent	-11.0584
▁racism	-11.0585
XX	-11.0585
▁speed	-11.0589
▁PDF	-11.059
▁respectively	-11.0592
▁match	-11.0595
▁Study	-11.0598
▁professeur	-11.06
▁bomb	-11.0603
TPSGC	-11.0607
OH	-11.0613
change	-11.0615
▁milliard	-11.0616
▁comptable	-11.0619
▁emphasize	-11.0621
▁pêcheurs	-11.0622
▁birth	-11.0641
▁trimestre	-11.0644
jur	-11.0644
100	-11.0645
▁dealt	-11.0646
▁respectivement	-11.0646
▁allemand	-11.0648
▁activement	-11.065
▁ethnique	-11.065
▁GRC	-11.065
▁vivre	-11.0653
▁Pension	-11.0654
Italie	-11.0656
▁honourable	-11.0656
▁contamination	-11.0658
▁disponibilité	-11.0668
▁Renseignements	-11.0674
▁valuable	-11.0675
▁coopérative	-11.0675
aurait	-11.0676
▁artistes	-11.0678
▁cohesion	-11.0678
▁tabagisme	-11.0681
▁perfect	-11.0682
▁accompagné	-11.0684
▁tarifaire	-11.0684
▁clarifie	-11.0691
férence	-11.0699
▁replaced	-11.0701
▁majeur	-11.0706
▁storage	-11.0706
omic	-11.0707
▁Despite	-11.0717
▁Planning	-11.0719
▁institutionnel	-11.072
hiver	-11.0721
blo	-11.0725
▁débit	-11.0726
▁someone	-11.0727
▁clientèle	-11.0728
▁Design	-11.073
▁ministérielle	-11.0736
▁électeurs	-11.0736
▁Néanmoins	-11.0739
▁défend	-11.0743
▁kept	-11.0743
Comm	-11.0751
livr	-11.0752
▁soir	-11.0755
indépendance	-11.0762
▁coordonné	-11.0763
gestion	-11.0767
▁spéciaux	-11.0767
▁automatique	-11.0782
▁greatest	-11.0786
OMS	-11.0786
▁tomorrow	-11.0792
▁remplacer	-11.0795
▁puissance	-11.0797
HQ	-11.0798
▁intéressés	-11.0799
▁chronique	-11.0802
intégrité	-11.0803
▁thereby	-11.0809
President	-11.081
û	-11.081
Initiative	-11.0813
▁updated	-11.0813
▁3.2	-11.0814
▁calculation	-11.0814
▁corn	-11.0815
▁envisagé	-11.0816
▁mène	-11.0827
list	-11.0827
avaient	-11.0833
appuyer	-11.0839
▁félicite	-11.084
▁hypo	-11.0847
▁Bulletin	-11.0849
▁tentative	-11.0851
▁skill	-11.0852
(6)	-11.0853
▁périodique	-11.0854
vac	-11.0856
▁sought	-11.0861
▁légale	-11.0863
▁couverture	-11.0865
▁consomm	-11.0866
CEE	-11.0872
▁ciblé	-11.0875
▁Spain	-11.0879
▁susceptible	-11.0886
accise	-11.089
charge	-11.089
▁Corée	-11.089
innocuité	-11.0899
accéder	-11.0899
▁destroy	-11.0902
▁vend	-11.0903
▁600	-11.0912
▁Travel	-11.0915
université	-11.0919
▁radical	-11.092
▁matériaux	-11.0921
▁Up	-11.0924
▁reconstruction	-11.0927
▁permission	-11.0928
▁remarquer	-11.0931
▁rail	-11.0933
▁modernisation	-11.0934
▁Facebook	-11.0937
admissibilité	-11.0938
▁Honorables	-11.0939
utilisateur	-11.0944
octroi	-11.0947
▁Assistant	-11.0948
▁Deuxièmement	-11.0949
▁Third	-11.0952
▁exposed	-11.0954
▁Italy	-11.0955
▁scientists	-11.0959
▁salle	-11.096
adapter	-11.096
▁Brésil	-11.0963
appropriation	-11.0964
▁Will	-11.0965
▁dépistage	-11.0974
▁affairs	-11.0976
ulated	-11.0985
▁Prairie	-11.0987
food	-11.0988
▁indien	-11.0989
▁Studies	-11.0992
▁indigenous	-11.0993
▁contra	-11.0994
▁évidemment	-11.0995
▁differ	-11.0997
▁arrangement	-11.1002
▁vais	-11.1012
▁judicial	-11.1014
▁négative	-11.1016
RQ	-11.1017
▁Street	-11.1027
▁Valeur	-11.1029
▁expliquer	-11.103
▁kilo	-11.1031
▁north	-11.1033
▁Auditor	-11.1036
▁saw	-11.1038
▁widely	-11.1039
lder	-11.1042
▁révèle	-11.1043
▁Palestinian	-11.105
riez	-11.1054
verbal	-11.1056
▁distributed	-11.106
Irlande	-11.1065
Euro	-11.1065
▁Statut	-11.1066
▁servent	-11.1067
▁initiated	-11.107
Espagne	-11.1071
▁engine	-11.1075
▁Régime	-11.1076
▁côte	-11.1077
▁Twitter	-11.1079
▁valoir	-11.1082
admission	-11.1082
▁Voilà	-11.1082
▁indésirable	-11.1085
▁clarify	-11.1086
ITY	-11.109
level	-11.1091
▁Cuba	-11.1093
ILL	-11.1093
▁réformiste	-11.1099
incertitude	-11.1101
▁Population	-11.1104
with	-11.1104
▁accomplish	-11.1109
▁George	-11.1114
▁vérificateur	-11.1114
▁discharge	-11.1116
acteur	-11.1119
bureaucrat	-11.1119
▁literature	-11.1122
▁acteurs	-11.1123
▁esp	-11.1125
▁préserver	-11.1126
2.5	-11.1127
effectue	-11.1132
▁rank	-11.1136
▁constitutional	-11.1137
▁laboratory	-11.1138
▁transporteur	-11.1144
élève	-11.1146
accompagne	-11.1154
▁Life	-11.1156
▁Fact	-11.1159
tax	-11.1161
▁assigned	-11.1161
▁géré	-11.1165
▁Election	-11.1171
▁cohérent	-11.1172
▁surveiller	-11.1175
▁fibre	-11.1178
▁nurse	-11.118
▁Kong	-11.1183
▁White	-11.1184
▁map	-11.1189
▁treat	-11.119
▁variété	-11.1191
▁diminué	-11.1194
▁parallèle	-11.1197
▁Latin	-11.1198
▁10%	-11.1202
▁doté	-11.1204
▁québécois	-11.1205
▁religious	-11.1205
▁arrivé	-11.1208
▁honour	-11.1216
▁biological	-11.1223
▁garder	-11.1224
▁normally	-11.1224
▁exercé	-11.1225
▁Moyen	-11.1229
▁frontière	-11.1235
▁appellant	-11.124
▁incombe	-11.1243
▁Impact	-11.125
▁Period	-11.1252
▁reçoit	-11.1257
easing	-11.1257
▁eye	-11.1268
▁dynamic	-11.127
▁passagers	-11.1272
inscrire	-11.1273
▁Develop	-11.1274
▁définitive	-11.1275
▁align	-11.1275
▁déduction	-11.1276
▁mondialisation	-11.1283
sexuel	-11.1283
▁2020	-11.1284
▁Recherche	-11.129
▁SERVICE	-11.1292
▁divulgation	-11.1294
▁Status	-11.1294
▁Micro	-11.1302
▁Marine	-11.1303
last	-11.1306
wan	-11.1306
▁Farm	-11.1307
IAL	-11.1307
▁soumission	-11.1308
▁Gouvernement	-11.1312
excédent	-11.1314
▁competent	-11.1317
▁south	-11.1324
▁understood	-11.1329
▁talent	-11.1334
▁Kyoto	-11.1335
disciplinaire	-11.1336
▁Practice	-11.1337
accroissement	-11.1339
▁reinforce	-11.1339
▁Middle	-11.1343
▁territoriaux	-11.1348
expiration	-11.1349
▁picture	-11.1352
▁generate	-11.1352
▁piece	-11.1353
évi	-11.1354
▁Edward	-11.1355
ÉT	-11.1362
▁délégué	-11.1366
▁removed	-11.137
▁drogue	-11.1374
▁drinking	-11.1375
▁humanitarian	-11.1383
▁supervise	-11.1386
▁Provide	-11.1391
▁Mark	-11.1392
▁disposal	-11.1394
▁tire	-11.1396
▁rédigé	-11.1406
effectuer	-11.1409
▁jugement	-11.1409
▁citoyen	-11.1413
▁Small	-11.1419
▁else	-11.1422
informer	-11.1422
▁trading	-11.1424
▁arriver	-11.1429
▁Dépenses	-11.1431
▁quantitative	-11.1433
▁Objective	-11.1437
prov	-11.1438
▁Family	-11.1441
occupant	-11.1441
▁necessarily	-11.1445
firm	-11.1449
officier	-11.145
▁box	-11.1451
▁Transportation	-11.1454
www	-11.1458
▁independence	-11.1458
▁devaient	-11.1458
▁Internal	-11.1462
efforce	-11.1468
▁Oui	-11.1468
effective	-11.1473
▁Communi	-11.1475
▁conviction	-11.1477
▁Communities	-11.1478
sector	-11.148
▁fulfill	-11.1486
▁ruling	-11.1499
▁NATO	-11.1499
▁Net	-11.1503
▁familiar	-11.1506
▁défendre	-11.1506
▁Auto	-11.1506
apprendre	-11.1514
▁PWGSC	-11.1518
▁Gazette	-11.1522
▁potable	-11.1528
ELLE	-11.1534
▁résolu	-11.1536
▁mortalité	-11.1541
▁promoteur	-11.1541
▁sitting	-11.1542
▁Luxembourg	-11.1544
▁scène	-11.1546
▁elsewhere	-11.1546
▁Governor	-11.1547
▁residence	-11.1549
angle	-11.1552
▁succeed	-11.1554
▁ACP	-11.1559
Ottawa	-11.1561
▁vingt	-11.1563
TOR	-11.1569
issi	-11.1569
▁obstacle	-11.157
▁transféré	-11.1572
▁USA	-11.1574
▁libéraux	-11.1575
▁Contents	-11.1578
▁handicapées	-11.1585
▁opposed	-11.1588
étiquette	-11.1588
▁Activities	-11.1592
▁assignment	-11.1592
OTAN	-11.1595
service	-11.1601
▁Center	-11.1601
▁integrity	-11.1604
▁liability	-11.1605
▁rÃ	-11.1605
▁sanitaire	-11.1606
▁fournissent	-11.1606
▁POUR	-11.1612
▁véhicule	-11.1615
natal	-11.162
▁régulière	-11.1625
▁appreciate	-11.1628
▁mettant	-11.1629
▁contrary	-11.1631
▁write	-11.1635
▁Immigration	-11.1641
▁solve	-11.1643
▁sustainability	-11.1646
▁Prevention	-11.1648
▁grade	-11.1648
▁Citizen	-11.1651
étiquetage	-11.1652
▁Brussels	-11.1658
▁expliqué	-11.1661
avec	-11.1662
▁Archives	-11.1665
▁outstanding	-11.1666
agisse	-11.1675
▁Technical	-11.1684
▁geographical	-11.1688
cription	-11.1688
▁bassin	-11.1689
▁matin	-11.1689
▁acquired	-11.1691
▁Sustainable	-11.1692
borne	-11.1693
▁fresh	-11.1697
▁Long	-11.1699
▁permitted	-11.1704
▁essay	-11.1705
▁collaborative	-11.1713
▁domain	-11.1714
▁équilibré	-11.1719
▁CRTC	-11.172
▁Employer	-11.1721
▁carburant	-11.1721
▁nearly	-11.1722
▁Knowledge	-11.1722
▁organic	-11.1729
▁Assistance	-11.173
▁prudent	-11.1732
▁competence	-11.1739
envisager	-11.1742
▁Romania	-11.1742
▁joué	-11.1747
▁collaborer	-11.1748
▁Fondation	-11.175
éventuelle	-11.175
▁output	-11.1752
▁absolutely	-11.1752
▁2012	-11.1753
▁connaît	-11.1754
▁prenant	-11.177
oubli	-11.1771
influence	-11.1774
▁encouraging	-11.1776
▁fondement	-11.1779
▁légitime	-11.1779
▁critère	-11.1782
scale	-11.1782
▁honor	-11.1784
▁requérant	-11.1785
▁resistance	-11.1785
▁dangereux	-11.1788
▁generated	-11.1789
▁expense	-11.1793
▁couvre	-11.1795
▁sanction	-11.1796
omique	-11.1801
▁préoccupation	-11.1809
habilitation	-11.1809
▁vulnerable	-11.1809
phosph	-11.1811
▁Effective	-11.1816
▁diffuse	-11.1817
▁handicap	-11.1818
▁restreint	-11.1821
ologist	-11.1824
Amsterdam	-11.1827
▁premium	-11.1827
▁conversion	-11.1827
jacent	-11.1828
▁fiable	-11.1831
▁easily	-11.1832
▁executive	-11.1833
▁classé	-11.1833
▁intéressées	-11.1835
disciplinary	-11.1839
▁Fonction	-11.1842
▁incorporated	-11.1843
▁story	-11.1847
▁preparing	-11.1847
▁Implementation	-11.1852
▁marche	-11.1853
▁lancer	-11.1858
▁mandatory	-11.1861
▁Subject	-11.1861
▁mutuelle	-11.1864
market	-11.1865
HU	-11.1866
▁Cadre	-11.1867
▁explanation	-11.1878
▁investisseurs	-11.188
6.1	-11.1882
▁PRI	-11.1883
importateur	-11.1887
▁Level	-11.1889
▁désignation	-11.189
▁derived	-11.189
▁suivent	-11.189
ARD	-11.1891
▁partenaire	-11.1892
▁illustrate	-11.1896
▁satisfaisant	-11.1896
▁libéralisation	-11.1903
▁London	-11.1904
valent	-11.191
▁mauvais	-11.1914
▁fishery	-11.1924
▁Participants	-11.1927
▁témoigne	-11.1928
▁adéquat	-11.1928
▁éventail	-11.1936
▁Reserve	-11.1946
▁civilian	-11.195
ography	-11.1952
▁concession	-11.1958
▁serre	-11.1958
▁Museum	-11.1959
▁ingredient	-11.1962
▁yield	-11.1962
Effect	-11.1967
▁module	-11.1968
▁amples	-11.1971
▁rivière	-11.1975
ARI	-11.1977
▁printemps	-11.1978
how	-11.1978
fish	-11.1984
▁counsel	-11.1987
▁statistique	-11.1988
▁rencontré	-11.199
▁1982	-11.1995
aménagement	-11.1998
▁rebate	-11.1999
▁suicide	-11.2002
indique	-11.2007
▁Bruxelles	-11.2008
▁dangerous	-11.2009
▁morning	-11.2011
autonomie	-11.2013
▁agences	-11.2014
▁mettent	-11.2017
▁Eastern	-11.2017
▁dépendance	-11.2019
▁Nevertheless	-11.2025
▁exemplaires	-11.2027
bird	-11.2031
▁réservé	-11.2037
▁realize	-11.2042
▁YES	-11.2045
stein	-11.2053
▁adolescents	-11.2054
▁disposé	-11.2061
arrivée	-11.2063
▁airport	-11.2063
text	-11.2063
▁Cultural	-11.2067
obtention	-11.2069
▁Spanish	-11.2074
called	-11.2075
▁navigation	-11.2083
engage	-11.2084
instant	-11.2087
▁démographique	-11.2089
paragraph	-11.2092
▁rédaction	-11.2092
▁Jeux	-11.2099
▁combustible	-11.2099
▁spring	-11.21
▁Among	-11.2106
▁anyone	-11.2109
IPO	-11.211
▁Outre	-11.2112
▁Civil	-11.2117
▁Location	-11.2117
▁médical	-11.2125
▁traduction	-11.2131
▁ecosystem	-11.2133
▁1984	-11.2134
▁lucratif	-11.2151
▁practitioner	-11.2154
augmenter	-11.2156
▁Droit	-11.2157
▁rapidly	-11.2161
américain	-11.2162
▁disabilities	-11.217
▁margin	-11.2178
échéance	-11.2182
ombin	-11.2184
▁prestataire	-11.2187
ingrédient	-11.2191
individu	-11.2201
▁genuine	-11.2209
▁renewal	-11.2211
health	-11.2215
▁systematic	-11.2215
▁chronic	-11.2217
actic	-11.2228
▁systématique	-11.2228
▁justification	-11.2233
SIS	-11.2237
UV	-11.2237
▁approuve	-11.224
Enquête	-11.2243
▁concurrent	-11.2244
▁Administrative	-11.2248
▁priv	-11.2251
aviation	-11.2253
asile	-11.2255
effort	-11.2257
▁fiscaux	-11.2259
▁devise	-11.2262
▁apparaît	-11.2268
▁Utilis	-11.2269
▁flag	-11.2271
▁normalement	-11.2278
▁remove	-11.228
▁deadline	-11.2284
▁20%	-11.2287
▁Michael	-11.2291
▁Conformément	-11.2295
▁multilateral	-11.2295
▁incurred	-11.2295
▁organisationnel	-11.2296
▁Who	-11.2297
ipp	-11.2297
▁Medicine	-11.2301
▁Related	-11.2302
▁Delivery	-11.2306
▁jury	-11.2308
▁sovereign	-11.231
▁pharmaco	-11.2311
▁universel	-11.2313
▁gratuit	-11.2323
electric	-11.2323
▁inventory	-11.2323
▁apporte	-11.2328
avion	-11.2335
▁syndicat	-11.2346
▁disability	-11.2349
▁Police	-11.2349
▁unanimous	-11.2351
▁Index	-11.2353
ORD	-11.2355
▁avions	-11.2359
▁duquel	-11.236
▁changé	-11.2361
▁style	-11.2362
éclair	-11.2367
▁minoritaire	-11.2369
▁suscite	-11.2375
▁chute	-11.2377
▁citizen	-11.2377
▁newspaper	-11.238
▁Continu	-11.2382
aéronef	-11.2383
▁quatrième	-11.2387
osse	-11.2392
▁protein	-11.2398
Organisme	-11.24
▁viande	-11.2401
▁productive	-11.2402
▁consolidation	-11.2402
▁Victoria	-11.2402
speaking	-11.2408
▁infant	-11.2415
BER	-11.2416
known	-11.2416
acheter	-11.2418
emplacement	-11.242
▁pouvaient	-11.2431
▁Federation	-11.2432
▁Yet	-11.2432
▁Scientific	-11.2435
MIN	-11.244
▁putting	-11.2442
▁aînés	-11.2444
▁worldwide	-11.2445
▁NON	-11.2452
▁Pêches	-11.2454
▁remettre	-11.2455
▁consulté	-11.2456
acquérir	-11.2457
▁Fédération	-11.2462
▁déposer	-11.2462
▁blé	-11.2465
APEC	-11.2468
▁diminuer	-11.2468
▁race	-11.2468
étendue	-11.2471
▁Before	-11.2477
▁Proposal	-11.2481
échec	-11.2487
▁river	-11.2495
▁viennent	-11.2495
▁indiquant	-11.2496
▁clinic	-11.2497
▁Vari	-11.2501
igue	-11.2503
limit	-11.2507
▁unfortunate	-11.2511
▁warm	-11.2514
▁vitesse	-11.2519
▁Info	-11.252
ouvrage	-11.2526
▁merit	-11.2528
▁authorization	-11.253
territorial	-11.2535
▁somewhat	-11.2539
▁mémoire	-11.2541
occurrence	-11.2541
▁floor	-11.2543
▁root	-11.2546
▁virtue	-11.2547
▁décide	-11.255
▁Décision	-11.2555
▁trace	-11.2555
▁decades	-11.2558
▁street	-11.2562
▁chasse	-11.2562
▁Rome	-11.2563
▁Well	-11.2563
▁traduit	-11.2565
▁comparative	-11.2568
▁pétition	-11.2568
▁ferroviaire	-11.257
▁arrêté	-11.2572
joint	-11.2576
▁spouse	-11.2579
▁Strasbourg	-11.2588
▁shape	-11.2588
▁souci	-11.259
▁laissé	-11.2591
ROM	-11.2596
▁neither	-11.2596
▁welfare	-11.2597
▁frequently	-11.2604
▁réjouis	-11.2609
▁recover	-11.2614
▁illustre	-11.2616
▁torture	-11.262
entreprendre	-11.262
▁trademark	-11.2623
▁flux	-11.2624
▁exportateurs	-11.2624
profit	-11.2633
▁hôpitaux	-11.2633
III	-11.2637
▁mortality	-11.2637
▁Method	-11.2642
▁privilege	-11.2643
▁Greece	-11.2644
▁hoc	-11.2644
___	-11.2644
language	-11.2645
▁visiteurs	-11.2647
▁council	-11.2647
oxide	-11.2653
▁harvest	-11.2655
▁Monitoring	-11.2658
▁énorme	-11.2662
▁Several	-11.2667
▁directrice	-11.2673
▁imposable	-11.2677
▁classified	-11.2679
▁easier	-11.2689
▁objection	-11.269
▁restriction	-11.2695
▁proud	-11.2704
direct	-11.2714
▁Surveillance	-11.2715
▁réfléchi	-11.2715
▁maintenu	-11.2715
▁judgment	-11.2723
▁requiring	-11.2727
thérapie	-11.2731
▁néglige	-11.2731
▁Commentaires	-11.2735
▁flight	-11.2738
▁voiture	-11.2738
▁prononcé	-11.2739
▁surprise	-11.2741
▁manuel	-11.2747
▁décideurs	-11.2747
▁Expert	-11.2757
▁Unfortunately	-11.2759
▁summit	-11.2763
épargne	-11.2772
▁bref	-11.2775
▁disclose	-11.2779
▁tiennent	-11.2784
field	-11.2788
▁prompt	-11.2789
▁Criminal	-11.2793
▁2013	-11.2794
▁Gaza	-11.2797
▁compétent	-11.2799
ôle	-11.2799
▁affirmé	-11.2801
▁railway	-11.2802
▁Balkans	-11.2802
▁minorities	-11.2806
▁biotechnologie	-11.2808
▁carefully	-11.281
.1.1	-11.2819
▁ajoute	-11.2825
habitude	-11.2828
▁retenu	-11.2831
▁distribué	-11.2835
▁Example	-11.2841
▁Licence	-11.2842
▁depending	-11.2846
▁artists	-11.2848
▁bilingual	-11.2849
▁multilatéral	-11.2852
▁bilatéral	-11.2853
▁descriptif	-11.286
indicateur	-11.2864
▁refund	-11.2864
étendre	-11.2865
▁contributing	-11.2867
▁virtual	-11.287
TURE	-11.287
▁comparativement	-11.2874
▁criminalité	-11.2876
▁KGM	-11.2876
▁steel	-11.2877
▁Search	-11.2879
▁threshold	-11.288
▁Black	-11.2887
▁Malheureusement	-11.2888
▁poursuivi	-11.2888
▁nourri	-11.2889
▁Employee	-11.2891
▁scénario	-11.2896
▁Premièrement	-11.2901
▁inacceptable	-11.2902
▁penalty	-11.2904
depth	-11.2908
▁radiation	-11.2909
▁fraction	-11.2914
▁combiné	-11.2924
▁terrestre	-11.2928
▁petition	-11.2931
▁visual	-11.2932
▁sommaire	-11.2933
▁clarification	-11.2937
▁appris	-11.2938
Mediterranean	-11.294
sponsabilisation	-11.294
▁suprême	-11.2944
ographic	-11.2949
▁bibliothèque	-11.2951
▁Jusqu	-11.2952
▁heavy	-11.2954
cata	-11.296
▁wealth	-11.297
▁reprend	-11.2972
▁cabinet	-11.2974
GRTKF	-11.2976
▁rouge	-11.2979
▁suitable	-11.2979
ifiant	-11.2981
▁Request	-11.2981
▁parvenu	-11.2989
▁entraîné	-11.2989
▁bilan	-11.299
▁preserve	-11.299
▁transmettre	-11.2999
▁handle	-11.3002
▁paramètres	-11.3003
▁ultimately	-11.3007
exploration	-11.3008
▁Océans	-11.3011
▁Print	-11.3015
▁Secteur	-11.3016
▁faisait	-11.3017
▁auparavant	-11.3018
attache	-11.302
building	-11.3021
_________	-11.3022
▁symptom	-11.3025
▁Première	-11.3033
▁fardeau	-11.3033
▁occupé	-11.3035
▁potentielle	-11.3035
▁ethical	-11.3038
▁faisons	-11.304
▁retirement	-11.304
psych	-11.304
pharmaceutical	-11.3043
▁subsidies	-11.3043
▁underlying	-11.3044
▁englobe	-11.3046
▁Again	-11.3047
▁Northwest	-11.305
▁2007-2008	-11.3051
ART	-11.3061
▁Cancer	-11.3061
▁suppression	-11.3062
▁Appeal	-11.3065
FORM	-11.3065
▁Grèce	-11.3066
Irak	-11.3068
▁Model	-11.3069
bou	-11.3069
▁weapons	-11.3074
▁universal	-11.3076
immobilisation	-11.3078
▁binding	-11.308
▁Register	-11.3082
▁rechange	-11.3082
▁telecommunicat	-11.3086
▁Tourism	-11.3086
▁Personal	-11.3092
▁2000-2001	-11.3098
▁yesterday	-11.3113
▁Netherlands	-11.3114
▁Improve	-11.3119
▁Kenya	-11.3124
▁entity	-11.3129
▁unacceptable	-11.3133
▁Motion	-11.3136
▁warrant	-11.3137
▁optimal	-11.3139
board	-11.314
▁Trois	-11.3141
▁salary	-11.3146
▁strike	-11.3148
▁intégral	-11.3148
▁Resource	-11.3152
accusation	-11.3155
écoute	-11.3155
▁Chamber	-11.316
General	-11.3163
▁eligibility	-11.3164
▁aperçu	-11.3165
▁autonome	-11.317
specific	-11.3171
▁quelqu	-11.3171
▁voyageurs	-11.3174
▁libération	-11.318
▁dedicated	-11.3186
▁délivré	-11.3189
▁Austria	-11.3195
▁Future	-11.32
▁institute	-11.32
▁suggéré	-11.3201
://	-11.3205
ifiable	-11.3205
▁conduit	-11.3205
▁Consider	-11.3205
▁suggère	-11.3209
integr	-11.3209
▁OUI	-11.321
▁ça	-11.3213
▁warning	-11.3215
▁régissant	-11.3217
issue	-11.3224
▁Agri	-11.3225
system	-11.3226
7.1	-11.3228
▁salmon	-11.323
▁game	-11.323
▁associ	-11.3245
▁concentrate	-11.3246
▁combinaison	-11.3255
▁critic	-11.3273
▁détermine	-11.3283
▁mesuré	-11.3287
▁truly	-11.3287
▁pertinence	-11.3288
section	-11.3289
▁investors	-11.329
▁teaching	-11.3291
▁jeunesse	-11.3291
▁mobilité	-11.3297
▁résultant	-11.3302
▁electricity	-11.3304
▁Consequently	-11.3305
▁candidature	-11.3307
▁célébr	-11.3308
▁diffusé	-11.3308
▁préférence	-11.3308
▁Schengen	-11.3313
▁lancement	-11.3316
▁delegate	-11.3319
▁sûreté	-11.3321
▁Return	-11.3321
▁affirm	-11.3323
space	-11.3324
approuv	-11.333
▁espagnol	-11.3331
▁portefeuille	-11.3331
▁NHP	-11.3334
OCDE	-11.3337
▁tube	-11.3339
▁labelling	-11.3351
▁plaignant	-11.336
▁Establish	-11.3361
▁Open	-11.3366
▁regardless	-11.3367
▁quasi	-11.3369
▁COMP	-11.3371
▁folklore	-11.3381
▁maîtrise	-11.3385
▁aboriginal	-11.3385
1,2	-11.3387
▁legitimate	-11.3388
▁offrant	-11.3392
▁diet	-11.3395
▁Progress	-11.3396
▁plaisir	-11.34
ij	-11.3402
INI	-11.3402
▁programmation	-11.341
▁séjour	-11.3411
expédition	-11.3413
▁justifié	-11.3418
▁cœur	-11.3424
▁impliqué	-11.3425
▁côtière	-11.3426
▁Subsection	-11.3427
▁confidentiel	-11.3428
exige	-11.3429
logic	-11.343
ION	-11.343
▁workforce	-11.3436
▁distinguish	-11.3436
▁discuté	-11.3436
▁advocate	-11.3438
▁Measures	-11.3443
▁isolé	-11.3445
honneur	-11.345
▁régulier	-11.3453
▁Syria	-11.3454
▁phrase	-11.3455
▁Electronic	-11.3456
▁referendum	-11.3467
▁absorb	-11.3476
▁1981	-11.3476
▁repair	-11.3484
▁contaminants	-11.3487
opportunité	-11.3488
▁remote	-11.3489
▁2001-2002	-11.3491
Description	-11.3492
▁Sweden	-11.3494
▁veille	-11.3503
▁syndic	-11.3507
▁uncertainty	-11.351
▁couvrir	-11.3511
▁Réponse	-11.3515
▁incorporate	-11.352
▁statu	-11.352
▁Three	-11.3523
▁methodology	-11.3527
▁valable	-11.3532
▁Declaration	-11.3535
▁combien	-11.354
▁malheureusement	-11.3543
observateur	-11.3544
▁MEPs	-11.3544
▁Substance	-11.3548
▁slightly	-11.3548
▁Title	-11.3563
▁feedback	-11.3565
▁incluant	-11.3566
▁Place	-11.3567
▁concret	-11.3569
▁James	-11.3569
▁mélange	-11.3575
▁alliance	-11.3578
▁admis	-11.3584
▁diplomatique	-11.3584
▁commit	-11.3586
▁arising	-11.3588
▁significance	-11.3589
▁explication	-11.359
▁Text	-11.359
▁Geneva	-11.3603
▁Arctic	-11.3608
▁Coast	-11.3609
▁Promotion	-11.361
▁licensing	-11.3611
▁gestionnaire	-11.3618
▁chambre	-11.3627
▁Richard	-11.3633
▁Limit	-11.3636
Prince	-11.3637
found	-11.3642
▁Student	-11.3644
▁contrepartie	-11.3654
▁Justification	-11.3656
identi	-11.3657
▁participe	-11.366
NET	-11.3662
▁Discussion	-11.3663
▁Field	-11.3663
jan	-11.3665
▁Durée	-11.3672
Canadian	-11.3675
▁forêts	-11.3675
bactérie	-11.3679
agissait	-11.3683
UST	-11.3689
oxyde	-11.3699
▁scenario	-11.37
▁quotidien	-11.3711
▁Dès	-11.3712
utilité	-11.3716
doubl	-11.3716
▁Organ	-11.3719
▁courriel	-11.3725
▁William	-11.3727
▁mensuel	-11.3727
▁renferme	-11.373
▁black	-11.3735
▁renewable	-11.3737
▁WHO	-11.3754
OSCE	-11.3754
▁Games	-11.3757
▁handling	-11.3762
▁coalition	-11.3762
▁rythme	-11.3768
▁removal	-11.3771
▁affiché	-11.3774
▁supervisor	-11.3776
▁routine	-11.3793
▁détenteur	-11.3795
▁Suède	-11.3796
▁score	-11.3796
▁Résumé	-11.3797
QUI	-11.3801
hôpital	-11.3802
▁identique	-11.3802
▁ultra	-11.3806
▁enormous	-11.3807
▁conjointement	-11.3808
▁survenu	-11.3812
atteinte	-11.3815
▁dépit	-11.3817
▁Professional	-11.3818
▁mobility	-11.3824
puis	-11.3827
▁watch	-11.3828
emballage	-11.3829
▁ateliers	-11.3832
▁retiré	-11.3837
▁préjudice	-11.3838
▁belief	-11.3839
▁Estimates	-11.3841
▁securities	-11.3851
▁infirmières	-11.3856
▁étudie	-11.3858
▁perturb	-11.3862
▁exactement	-11.3864
▁téléphonique	-11.3866
▁entière	-11.3875
▁mondiaux	-11.3876
▁condemn	-11.3877
▁disorder	-11.3881
▁mixte	-11.3884
▁couleur	-11.3884
▁combler	-11.3887
▁asylum	-11.3888
▁catch	-11.3892
▁coordonner	-11.3893
▁intensif	-11.3895
▁divided	-11.3897
▁Genève	-11.3903
accro	-11.3915
▁mistake	-11.3915
▁merely	-11.3917
▁Credit	-11.3922
Règle	-11.3933
▁Without	-11.3933
▁teachers	-11.3935
observe	-11.3936
▁gagner	-11.3941
▁mentor	-11.3943
▁vague	-11.3954
Arrangement	-11.3955
▁multinational	-11.3955
▁Associate	-11.3958
▁Corp	-11.3974
▁bloc	-11.3975
▁worse	-11.3977
▁décisionnel	-11.398
volu	-11.3983
▁géo	-11.3986
▁dominant	-11.3992
▁illégale	-11.3999
accélérer	-11.4
▁Local	-11.4001
envergure	-11.4002
▁occidental	-11.4008
▁Infrastructure	-11.4013
▁happy	-11.4014
▁prospérité	-11.4016
▁NGOs	-11.4016
▁Sommet	-11.4017
▁push	-11.4017
▁rubrique	-11.4019
▁greenhouse	-11.4024
▁proactive	-11.4027
▁plénière	-11.4031
▁soulève	-11.4037
▁Individual	-11.4043
▁bilingue	-11.4045
▁vieillissement	-11.4045
ADRC	-11.4045
▁historic	-11.4049
▁évoqué	-11.4049
▁précédemment	-11.405
▁référendum	-11.4051
▁dérivé	-11.4053
▁terminer	-11.4055
▁Olympic	-11.4058
▁Visit	-11.4063
▁conciliation	-11.4063
▁gift	-11.4071
▁touristique	-11.4071
▁provoque	-11.4076
▁southern	-11.4077
▁éloigné	-11.4078
MER	-11.4089
accusé	-11.4093
▁administrateurs	-11.4099
▁salue	-11.41
▁Territories	-11.41
hési	-11.4103
craft	-11.4104
▁neutral	-11.4109
▁centaines	-11.411
▁structurels	-11.4112
▁Bush	-11.4116
▁fulfil	-11.4117
▁Measurement	-11.4117
▁Aussi	-11.412
horizon	-11.4122
▁arabe	-11.4125
▁réparation	-11.4128
▁qualitative	-11.4132
▁woman	-11.4141
▁Previous	-11.4144
▁collectif	-11.4145
obby	-11.4148
▁Monetary	-11.4152
▁overview	-11.4153
▁saumon	-11.4154
▁stimuler	-11.4155
▁Festival	-11.4157
▁counterpart	-11.4159
▁dramatic	-11.4163
▁capabilities	-11.4166
▁minute	-11.4168
▁enseignants	-11.4173
▁Like	-11.4173
▁CCRA	-11.4178
▁frequency	-11.4183
▁parfaitement	-11.4189
▁alleged	-11.4193
▁volatil	-11.4196
▁plafond	-11.4199
▁produisent	-11.4204
Adresse	-11.4204
▁tourist	-11.421
▁fragment	-11.4222
exploiter	-11.4227
▁partisan	-11.4239
▁spectrum	-11.4243
▁connaissent	-11.4248
▁borrow	-11.4251
expertise	-11.4254
▁approve	-11.4258
▁réglé	-11.4262
▁décharge	-11.4271
démocrate	-11.4274
▁ocean	-11.4275
encourager	-11.4283
▁Maritime	-11.4289
▁lecteur	-11.429
▁treaties	-11.4293
où	-11.4294
▁winter	-11.4297
▁combine	-11.4298
▁serving	-11.4301
▁Major	-11.4309
▁relevance	-11.4316
▁breast	-11.4316
▁quelconque	-11.432
▁enabling	-11.4322
▁Belarus	-11.4324
▁Invest	-11.4331
▁surrounding	-11.4339
▁Overall	-11.4341
2,5	-11.4343
▁artistique	-11.4348
▁Tobacco	-11.4358
▁caution	-11.4361
▁disadvantage	-11.4362
sky	-11.4363
interprète	-11.4366
▁OECD	-11.4376
extrême	-11.4383
▁earnings	-11.4384
▁assumption	-11.439
▁colonne	-11.4393
agno	-11.4401
▁Conditions	-11.4404
▁supprimer	-11.4407
▁détection	-11.4409
▁Roumanie	-11.4412
▁inutile	-11.4412
▁encouragé	-11.4416
▁thorough	-11.4421
▁juridiction	-11.4422
▁Commercial	-11.4426
▁revient	-11.4427
▁sauvage	-11.4434
▁ethics	-11.4434
▁spécialisés	-11.445
▁weather	-11.4455
▁Louis	-11.4468
▁opposite	-11.4469
▁menacé	-11.447
Laurent	-11.4472
▁riding	-11.4477
▁accompanied	-11.4478
▁Update	-11.4484
▁significatif	-11.4486
▁accommodation	-11.4487
▁réglementé	-11.4489
▁tree	-11.4491
▁Increase	-11.4492
▁divulg	-11.4497
▁Option	-11.4508
▁donnant	-11.4511
▁aliment	-11.4517
▁soldats	-11.4519
▁modifiant	-11.4522
▁integrate	-11.453
▁joindre	-11.4532
▁compete	-11.4534
▁remarquable	-11.4537
introduire	-11.4542
▁Wood	-11.4545
▁fabriqué	-11.4546
▁screen	-11.4546
▁exécutif	-11.4557
▁Italian	-11.456
ambassade	-11.4561
▁allégations	-11.4567
public	-11.4569
▁Tariff	-11.4578
▁presidency	-11.458
▁recourir	-11.458
▁summarize	-11.4583
▁activist	-11.4586
▁faillite	-11.4594
▁scandal	-11.4601
▁rassemble	-11.4602
▁péril	-11.4603
▁zero	-11.461
▁tangible	-11.4617
1,000	-11.4621
▁Conservation	-11.4621
▁Fraser	-11.4626
▁parental	-11.4626
▁vendeur	-11.4635
Édouard	-11.4639
▁paraît	-11.4642
▁Bulgaria	-11.4643
▁courrier	-11.4646
▁Téléphone	-11.465
▁leçons	-11.4652
▁analyze	-11.4653
▁Instead	-11.4655
▁occupational	-11.466
▁revanche	-11.4663
▁Harbour	-11.4666
▁délivrance	-11.4668
▁Trust	-11.4671
▁External	-11.4672
▁calendar	-11.4677
▁toxiques	-11.4678
▁lawyer	-11.468
▁aigu	-11.468
▁District	-11.4681
▁green	-11.4686
▁driving	-11.4687
▁récolte	-11.469
0.0	-11.469
▁negotiating	-11.4692
▁myself	-11.47
▁Participation	-11.4712
▁residential	-11.4715
▁IDRC	-11.4717
▁symptômes	-11.4722
▁Clear	-11.4724
▁collaborate	-11.473
▁http	-11.4734
▁Learning	-11.4734
▁deserve	-11.4735
▁cohérence	-11.4735
▁column	-11.4735
Industrie	-11.4742
▁contingent	-11.475
▁Supreme	-11.4751
▁paquet	-11.4755
▁motivation	-11.4757
▁poussé	-11.4758
▁sécuritaire	-11.4762
▁Rural	-11.4764
▁white	-11.4764
▁préoccupe	-11.4765
dynami	-11.4769
▁richesse	-11.4782
▁diabète	-11.4784
▁festival	-11.4801
métrique	-11.4805
▁Volume	-11.4808
échantillonnage	-11.4809
▁coordonnateur	-11.481
▁contaminé	-11.4815
▁Background	-11.4829
▁Michel	-11.483
▁restructuration	-11.483
▁possibly	-11.4834
▁incapable	-11.4844
▁exhaustive	-11.4844
inventaire	-11.485
▁rising	-11.4851
▁ménages	-11.4851
▁cohort	-11.4855
Québec	-11.4857
anglais	-11.486
▁Young	-11.4865
▁fleet	-11.4865
▁declared	-11.4865
▁brochure	-11.4877
▁bateaux	-11.4879
▁perdre	-11.4888
électro	-11.4892
▁alloué	-11.4899
▁espérons	-11.4899
▁avancer	-11.4908
▁journaux	-11.4908
▁properties	-11.491
▁societies	-11.4912
▁conservateur	-11.4915
▁compensate	-11.4917
▁disagree	-11.4919
▁milk	-11.4924
▁analysé	-11.4927
épreuve	-11.4928
▁séminaire	-11.4929
▁atmosphérique	-11.493
▁simplification	-11.4935
▁Quoi	-11.4936
architecture	-11.4937
▁construire	-11.4943
▁Planned	-11.4946
(7)	-11.495
▁himself	-11.4955
▁Smith	-11.4961
▁appartenant	-11.4962
▁translate	-11.4963
▁leaving	-11.4968
▁exécuté	-11.4969
160;	-11.4971
▁platform	-11.4971
▁utilis	-11.4983
étroit	-11.4984
▁solely	-11.4986
▁outbreak	-11.4989
▁chimique	-11.499
▁contiennent	-11.4992
administrateur	-11.4993
▁paie	-11.4994
▁Votre	-11.5002
▁chaleur	-11.5002
▁Inspection	-11.5005
▁capita	-11.5009
▁phone	-11.5017
▁profondeur	-11.5017
▁citoyenneté	-11.5023
▁viabilité	-11.5026
▁raising	-11.5029
▁latine	-11.5043
▁Round	-11.5045
▁révél	-11.5045
▁racial	-11.5047
▁enhancing	-11.5048
▁running	-11.505
▁antérieur	-11.5054
▁négocier	-11.5054
▁Equipment	-11.506
▁palestinien	-11.5064
▁Métis	-11.5065
▁vétérinaire	-11.5068
▁tiendra	-11.5069
▁club	-11.5073
▁Nisga	-11.5076
▁mining	-11.5076
▁postsecondaire	-11.5079
▁middle	-11.5079
▁rémunéré	-11.5083
▁nominal	-11.5085
▁pilier	-11.5088
apprécie	-11.5089
▁Certain	-11.5095
Agency	-11.5103
▁récepteur	-11.5105
unanimité	-11.5109
▁Structure	-11.5109
▁privilège	-11.512
IDE	-11.5126
▁dégage	-11.5127
▁Outcome	-11.5132
exclu	-11.5136
▁accueilli	-11.5138
▁tackle	-11.5139
▁susmentionné	-11.5141
▁Registration	-11.5145
▁inadequate	-11.5146
▁convinced	-11.515
▁insufficient	-11.5151
▁superficie	-11.5152
▁Should	-11.5156
▁Military	-11.5158
droit	-11.516
▁1999-2000	-11.5166
▁Power	-11.5167
▁criticism	-11.5179
▁oiseaux	-11.518
▁typically	-11.5182
▁Alternative	-11.5188
▁demonstration	-11.5192
▁seminar	-11.5194
▁interrogé	-11.5222
▁Voices	-11.5223
▁Distribution	-11.5228
▁flexibilité	-11.5234
▁Competition	-11.5235
▁ronde	-11.5236
▁évolue	-11.5236
▁forget	-11.5246
▁foyer	-11.5246
▁Overview	-11.5251
▁______________	-11.5254
▁deviennent	-11.5254
▁engineering	-11.5257
▁ADM	-11.5261
▁diplômé	-11.5262
▁consolidate	-11.5266
▁negotiation	-11.5268
▁Permettez	-11.5269
▁PROGRAM	-11.5275
▁constamment	-11.5277
▁Titre	-11.5278
▁Examen	-11.5281
▁evident	-11.5284
▁restore	-11.5285
▁atlantique	-11.5286
▁punish	-11.5288
▁comptabilité	-11.5294
▁acquire	-11.5301
▁facilité	-11.5316
▁Basic	-11.532
▁prévoient	-11.5321
aptitude	-11.5322
▁théorie	-11.5322
▁charity	-11.5324
▁grossesse	-11.5326
▁inquiry	-11.5334
metric	-11.5334
▁beneficial	-11.5336
▁substantive	-11.5341
▁Draft	-11.5343
friendly	-11.5347
▁circuit	-11.5351
▁Merci	-11.5359
▁comprenant	-11.5359
▁perceived	-11.5365
▁flood	-11.5366
▁pensons	-11.5367
▁credibility	-11.5377
▁Advance	-11.5377
▁Priorities	-11.5378
▁résume	-11.5383
▁Manufacturing	-11.5385
▁enceinte	-11.5391
▁inclut	-11.5393
▁décrire	-11.5402
▁crainte	-11.5403
▁entities	-11.5406
▁Georgia	-11.5406
incendie	-11.5408
▁blogueur	-11.5411
▁NAFTA	-11.5412
▁religieuse	-11.5413
▁compléter	-11.5419
▁colour	-11.5428
inspire	-11.5428
▁Chapitre	-11.5433
▁immédiate	-11.5441
intéressé	-11.5443
▁intelligent	-11.5446
▁Present	-11.5455
▁autorise	-11.5466
▁puissant	-11.5469
▁diplôme	-11.5473
Article	-11.5477
▁caisse	-11.548
▁acheté	-11.548
▁Chemical	-11.5481
▁Exhibit	-11.5481
▁étudiant	-11.5492
▁extraordinaire	-11.5503
▁indicating	-11.5503
▁gauche	-11.5513
▁recouvrement	-11.5514
▁linguistic	-11.5523
▁bientôt	-11.5523
▁CRDI	-11.5526
▁citizenship	-11.553
▁ambitious	-11.5532
▁Library	-11.5538
élargir	-11.5545
▁terrible	-11.5546
▁salubrité	-11.5554
▁denied	-11.5555
▁Regulatory	-11.5555
intervalle	-11.5558
▁random	-11.5559
▁faiblesse	-11.5561
▁politicians	-11.5562
▁crédibilité	-11.5563
▁bottom	-11.5568
▁Berlin	-11.5571
▁probabilité	-11.5575
▁demographic	-11.5576
▁consequence	-11.5576
▁Pologne	-11.5577
▁Clinical	-11.5581
▁magasin	-11.5587
instaurer	-11.5592
▁Spending	-11.5592
ordinate	-11.5596
▁établissant	-11.5618
▁expressément	-11.5622
▁obligé	-11.5642
▁éclairé	-11.5646
▁prolongé	-11.5654
extraction	-11.566
INFORMATION	-11.5662
▁trafficking	-11.5663
▁condamné	-11.5667
▁froid	-11.567
oriented	-11.5673
acceptation	-11.5675
▁sensibiliser	-11.5682
▁RRSP	-11.5685
exploitant	-11.5686
▁overcome	-11.5689
▁porc	-11.5689
▁reconnais	-11.569
▁combustion	-11.5691
▁corriger	-11.5692
▁unfair	-11.5698
▁Territoires	-11.5703
▁anniversaire	-11.5706
enfance	-11.571
autoriser	-11.5711
indemnisation	-11.5725
▁distingue	-11.5734
▁construit	-11.5737
▁provoqué	-11.574
▁Cross	-11.5749
▁ecological	-11.5753
▁absent	-11.5754
▁terminal	-11.5756
▁benchmark	-11.5761
IFICATION	-11.578
▁Sommaire	-11.5781
▁minimize	-11.5785
▁passeport	-11.5786
▁discretion	-11.5801
▁counselling	-11.5805
▁Climate	-11.5806
▁Calcul	-11.5807
▁athlètes	-11.5811
▁intégrante	-11.5813
▁Ethics	-11.582
▁dissemination	-11.582
▁proviennent	-11.5826
▁plomb	-11.583
▁Exchange	-11.5833
▁publier	-11.5836
▁Challenge	-11.5839
agrément	-11.5844
▁pillar	-11.5844
▁creative	-11.5846
▁extreme	-11.5846
▁meaningful	-11.5849
▁pharmacie	-11.5854
essayer	-11.5861
▁prosperity	-11.5863
▁breach	-11.5864
▁salarié	-11.5866
▁widespread	-11.587
▁collège	-11.5872
▁vérifié	-11.5876
▁INTER	-11.588
copie	-11.588
▁Emergency	-11.5883
▁Analyse	-11.5885
third	-11.5891
▁Agricultural	-11.5902
▁Countries	-11.5905
▁venture	-11.5911
▁Client	-11.5922
▁parameters	-11.5923
▁respiratoire	-11.5924
▁infringement	-11.5925
▁vouloir	-11.5936
▁Compliance	-11.5938
▁portfolio	-11.5941
▁TOTAL	-11.5943
▁Japanese	-11.5953
▁diffère	-11.5966
▁specify	-11.5968
million	-11.5971
▁Municipal	-11.5976
hépatite	-11.598
▁préoccupé	-11.598
▁intense	-11.5983
▁comportant	-11.5984
▁wrote	-11.5984
▁Irish	-11.5986
▁Opportunities	-11.5986
▁Next	-11.5993
▁conjunction	-11.5996
▁recensement	-11.6003
▁génie	-11.6004
▁acute	-11.6005
▁souplesse	-11.6007
▁Memorandum	-11.601
▁Telephone	-11.6011
▁survival	-11.6013
▁problématique	-11.6014
▁sauvegarde	-11.6014
accessibilité	-11.6015
▁nutrient	-11.602
▁Perhaps	-11.6022
▁Environ	-11.6033
▁cancel	-11.6035
▁rigoureuse	-11.6039
▁Release	-11.6039
▁oublier	-11.6046
▁penalties	-11.6048
▁spatiale	-11.6053
apparition	-11.6059
▁Resolution	-11.6067
original	-11.6068
▁subsidy	-11.607
▁italien	-11.6073
▁promesse	-11.6075
▁LTD	-11.6076
▁Nigeria	-11.6077
▁Computer	-11.6079
▁eastern	-11.6089
▁douce	-11.6097
▁étendu	-11.6103
▁Session	-11.611
▁appartient	-11.6125
élevage	-11.6128
▁offset	-11.6134
registre	-11.6137
▁prevalence	-11.614
enzyme	-11.614
▁concevoir	-11.6144
▁entitlement	-11.6148
▁débouché	-11.6149
▁délibérations	-11.6155
▁ordinary	-11.6159
▁wheat	-11.6159
▁encounter	-11.6161
▁Freedom	-11.6169
▁MDN	-11.617
▁biotechnology	-11.6182
▁réclame	-11.6191
▁investigator	-11.6192
▁particules	-11.6194
▁allegation	-11.6197
▁revend	-11.6197
▁Growth	-11.6202
exprime	-11.6207
▁Regina	-11.6211
▁libellé	-11.6218
▁reimburse	-11.6228
▁Electoral	-11.6234
▁walk	-11.624
▁Treatment	-11.6242
▁parallel	-11.6244
▁supprimé	-11.6245
▁integral	-11.6256
▁fabric	-11.6259
This	-11.626
▁contraignant	-11.6262
▁Bangladesh	-11.6269
▁museum	-11.6269
▁chief	-11.6271
▁harmonisé	-11.6271
▁bacteria	-11.6287
▁diabetes	-11.6288
▁féminin	-11.6304
▁renewed	-11.6304
▁hyper	-11.6314
▁quartier	-11.6316
▁nourriture	-11.6324
▁Claim	-11.6331
▁stimulate	-11.6337
▁Frank	-11.635
▁eventually	-11.6355
00.00	-11.6356
▁méthodologie	-11.6358
▁Destination	-11.6358
excellent	-11.6361
▁Mobil	-11.6362
▁Sécurité	-11.6385
▁réaliste	-11.6387
▁attribue	-11.639
turn	-11.6402
▁narrow	-11.6404
▁vitamin	-11.6405
allocation	-11.6405
▁Courriel	-11.6405
▁truth	-11.6408
▁sampling	-11.6414
▁introducing	-11.6419
▁cluster	-11.6426
▁Américains	-11.6434
▁Présidence	-11.6437
▁anglophone	-11.6437
▁Pharma	-11.6445
▁McGill	-11.6446
gouvernement	-11.6449
▁restructuring	-11.645
Administration	-11.6458
▁toxicomanie	-11.646
▁Canadien	-11.6475
▁MHz	-11.6475
orienter	-11.6475
▁durabilité	-11.648
▁Beaucoup	-11.6482
▁Expenditure	-11.6483
assure	-11.6484
▁Instructions	-11.6487
▁fausse	-11.6491
▁Instrument	-11.6504
▁college	-11.6506
▁ravi	-11.6507
▁Country	-11.6508
▁studied	-11.6513
▁adhere	-11.6528
▁cinquième	-11.6535
atmosphère	-11.6542
▁collabore	-11.6546
▁Image	-11.6554
▁Governing	-11.6559
▁exhaust	-11.6569
▁retombées	-11.6575
▁Private	-11.6578
▁impartial	-11.6582
▁Vietnam	-11.6585
▁variant	-11.6592
▁Principal	-11.6596
affirme	-11.66
améliore	-11.6602
▁Serbia	-11.6603
▁accelerate	-11.6615
▁bâti	-11.6619
incapacité	-11.6624
▁ANNEXE	-11.6628
▁marchande	-11.6636
▁routier	-11.6639
▁fluctuation	-11.6643
▁sévère	-11.6643
▁Political	-11.6653
▁conduire	-11.6654
▁Film	-11.6655
▁palier	-11.6658
▁certes	-11.6658
▁Peace	-11.6663
▁combattants	-11.6663
▁procède	-11.6665
énoncé	-11.6676
▁Indicator	-11.6681
▁hunt	-11.6682
▁medication	-11.6684
▁cyber	-11.6684
audiovisuel	-11.6685
▁accommodate	-11.6699
▁stories	-11.6701
▁nursing	-11.6701
▁Material	-11.6702
▁japonais	-11.6712
▁tweet	-11.6712
Équipe	-11.6712
▁assorti	-11.6713
▁polluants	-11.6714
▁troops	-11.6716
▁fréquemment	-11.672
▁stipule	-11.6734
▁Conservative	-11.6737
▁proximité	-11.6737
▁Historic	-11.6737
which	-11.674
▁métaux	-11.6743
▁examining	-11.6746
▁expensive	-11.6749
▁restaurant	-11.6752
▁agréé	-11.6759
▁ought	-11.6762
imbabwe	-11.6764
(8)	-11.6778
▁permettez	-11.6785
▁surmonter	-11.6792
▁injuries	-11.6793
▁pregnancy	-11.68
▁celebrate	-11.6814
▁délinquant	-11.6814
▁evolve	-11.6817
▁Données	-11.6817
Breton	-11.6833
▁INTERNATIONAL	-11.6837
▁supplied	-11.6837
▁domestique	-11.6838
▁twice	-11.684
opéra	-11.6841
▁trousse	-11.6844
▁undermine	-11.6845
▁accuracy	-11.6846
Food	-11.6849
▁facilite	-11.6857
▁analogue	-11.6861
▁Perspective	-11.6865
▁murder	-11.6865
▁Laboratory	-11.6868
▁Help	-11.6873
▁Definition	-11.6883
▁intérimaire	-11.6883
▁Target	-11.6884
2,000	-11.6885
▁Stephen	-11.689
▁agri	-11.689
atténuer	-11.69
escence	-11.6903
▁infirmiers	-11.6905
▁refine	-11.6911
▁marriage	-11.6918
épidémie	-11.692
absorption	-11.6921
▁thérapeutiques	-11.6921
▁spectre	-11.6927
▁Democrats	-11.6931
MISSION	-11.6939
▁Indiens	-11.6941
inspecteur	-11.6942
artisan	-11.6947
▁soumet	-11.6952
▁analyst	-11.6953
▁Identification	-11.6961
▁synthèse	-11.6963
▁appreciation	-11.6966
▁satisfactory	-11.6974
Employeur	-11.6991
▁phoque	-11.6996
▁indicator	-11.6998
▁PRÉ	-11.7005
▁négocié	-11.7014
▁prudence	-11.7014
▁1-800-	-11.7019
▁décret	-11.7021
▁stabilisation	-11.7025
▁Excellence	-11.7026
▁Réunion	-11.7038
▁dispense	-11.7038
▁prépare	-11.704
▁constraints	-11.7058
▁Bulgarie	-11.7061
▁silence	-11.7063
▁créance	-11.7066
▁twenty	-11.7068
▁salariale	-11.7071
▁Church	-11.7075
▁Indicate	-11.7096
▁réputation	-11.7097
▁Czech	-11.71
efficience	-11.7103
velopp	-11.7104
▁reconnaissant	-11.7104
▁immigrant	-11.7113
▁Border	-11.7116
▁reproductive	-11.7119
inclure	-11.7121
▁Venezuela	-11.7125
▁varié	-11.7128
▁illicite	-11.713
appréciation	-11.7131
▁derrière	-11.7131
▁battle	-11.7132
▁protège	-11.7134
▁Muslim	-11.7145
▁Francophonie	-11.7148
▁Modern	-11.7148
▁Integrated	-11.7154
abandon	-11.7158
▁wild	-11.7166
exactitude	-11.717
▁tranche	-11.7173
▁Switzerland	-11.7179
embauche	-11.7184
▁corporel	-11.7186
▁expérimental	-11.7195
▁précaution	-11.7201
▁écosystèmes	-11.7205
▁structuré	-11.7208
▁souple	-11.7213
▁efficacy	-11.7217
thèse	-11.7221
▁coefficient	-11.7222
▁plenary	-11.7222
▁Journée	-11.7229
▁chèque	-11.7233
▁Operating	-11.7233
▁Between	-11.7244
▁reiterate	-11.7245
▁Caribbean	-11.7248
▁pacifique	-11.725
▁mobilise	-11.725
▁censé	-11.7253
▁remédier	-11.7254
▁Britain	-11.7259
▁conversation	-11.7282
▁Commonwealth	-11.7299
▁Greek	-11.73
▁isolated	-11.7302
▁Music	-11.7304
▁Exemple	-11.7306
▁anniversary	-11.7312
▁Jordan	-11.7321
▁equitable	-11.7327
▁satisfy	-11.733
▁clarity	-11.7333
▁aquatic	-11.7339
▁prévalence	-11.734
▁Turkish	-11.7343
▁headquarters	-11.7346
arbitrage	-11.7347
▁shareholder	-11.7351
▁Enterprise	-11.7354
▁Excise	-11.7358
▁Workshop	-11.7358
▁Philippines	-11.7363
▁fashion	-11.7376
hereinafter	-11.7385
▁atmosphere	-11.7387
▁déduire	-11.7396
▁Produits	-11.7402
▁blue	-11.7403
▁précoce	-11.7406
▁measuring	-11.7412
▁dépassé	-11.7417
▁conviennent	-11.7418
▁contenir	-11.7427
▁diagnosis	-11.7429
▁vérité	-11.7429
▁Guerre	-11.7435
Arctique	-11.7438
▁reconnaissent	-11.7438
▁aggregate	-11.7439
▁Cyprus	-11.7451
▁Guidance	-11.7462
▁syndrome	-11.7466
▁registrant	-11.7468
▁accompany	-11.7477
▁ethno	-11.7478
▁affiliate	-11.7478
▁prevail	-11.7485
invite	-11.7488
assimil	-11.749
▁disparition	-11.7495
▁Minutes	-11.7497
▁achevé	-11.7499
▁Belgique	-11.75
▁supplément	-11.7503
▁causing	-11.7506
▁cooperate	-11.7513
▁Contexte	-11.7513
▁biomass	-11.7515
▁souveraineté	-11.7521
▁ressortissants	-11.753
▁Collection	-11.7531
▁boundaries	-11.7531
▁portuaire	-11.7532
▁prononcer	-11.7542
▁sincère	-11.7548
▁archive	-11.7551
glyc	-11.7555
▁straight	-11.7556
claim	-11.7563
▁Travaux	-11.7563
▁sollicite	-11.7564
▁geographic	-11.7565
▁Professor	-11.7568
Autriche	-11.757
▁Croatia	-11.7571
▁Définition	-11.7571
▁convey	-11.7571
▁Général	-11.7577
▁catalogue	-11.7577
▁vegetable	-11.7586
▁unanime	-11.7603
▁dismiss	-11.7606
▁ARTICLE	-11.7606
▁cerner	-11.7609
exportateur	-11.7614
▁inventor	-11.7623
▁caractérisé	-11.7628
▁évalue	-11.764
▁complément	-11.7644
▁complété	-11.7646
▁affilié	-11.7654
▁fabrique	-11.7655
▁editor	-11.7657
▁dépensé	-11.7659
contamin	-11.7665
▁elderly	-11.7671
▁empower	-11.7672
▁__________	-11.7673
▁Toxic	-11.7674
▁Barroso	-11.7675
inquiète	-11.7679
▁sequence	-11.7683
▁Saskatoon	-11.7686
▁pertaining	-11.7689
Bretagne	-11.7692
▁grief	-11.7692
▁cumulative	-11.7695
▁témoignage	-11.7695
▁avéré	-11.7699
▁dignité	-11.77
▁Crédit	-11.7719
audience	-11.7723
▁vraisemblable	-11.7726
▁excise	-11.7731
▁Yugoslav	-11.7736
▁Travail	-11.774
▁Complete	-11.7743
▁divergence	-11.7759
▁divisé	-11.7765
▁Belgium	-11.777
▁brièvement	-11.7781
▁gagné	-11.7784
▁liabilities	-11.7786
▁diesel	-11.7789
▁Construction	-11.779
indication	-11.7793
▁trente	-11.78
▁facilitating	-11.7801
Annexe	-11.7815
▁automatically	-11.7815
▁entrave	-11.7817
▁Swiss	-11.7826
▁Scott	-11.7828
▁distort	-11.7834
▁recueil	-11.784
▁météorologique	-11.7843
▁douze	-11.7848
▁Message	-11.7853
▁présumé	-11.7854
▁anticipé	-11.7855
▁educate	-11.7857
▁dirai	-11.7861
▁evaluating	-11.7862
▁organisms	-11.7863
▁Appel	-11.7864
▁novatrice	-11.7872
▁scolarité	-11.7873
▁blind	-11.7883
▁plasma	-11.7886
▁pénurie	-11.7887
▁struggle	-11.7887
▁Denmark	-11.7889
▁fossil	-11.7891
▁Indonesia	-11.7894
▁éliminé	-11.7894
▁____	-11.7896
▁Bosnia	-11.7897
infraction	-11.7899
▁délicat	-11.7903
▁disappear	-11.7905
▁heureuse	-11.7905
▁intervene	-11.791
▁wildlife	-11.7919
▁zéro	-11.7919
intensité	-11.792
chrétien	-11.7938
▁Mandat	-11.7942
▁déficience	-11.7949
▁irlandais	-11.7955
▁endeavour	-11.7959
▁dignity	-11.7968
▁harbour	-11.7971
▁Structural	-11.7979
▁vivo	-11.798
▁Commitment	-11.7981
▁Purpose	-11.7984
▁incompatible	-11.7992
accident	-11.7992
▁vécu	-11.7992
▁pipeline	-11.7998
▁robust	-11.7998
▁résidant	-11.8005
▁pleasure	-11.8019
▁Accueil	-11.8019
▁Réserve	-11.8021
▁preceding	-11.8024
▁contributor	-11.8025
▁biodiversité	-11.8027
▁refléter	-11.8027
éprouve	-11.8031
▁Danemark	-11.8032
▁camion	-11.8038
▁SYST	-11.8038
▁primordial	-11.804
▁flotte	-11.8046
▁Counsel	-11.8049
Agriculture	-11.8051
▁israélien	-11.8051
▁Lawrence	-11.8054
gregat	-11.8062
▁advertise	-11.8069
▁ppm	-11.8079
▁curriculum	-11.808
▁hepatitis	-11.8081
▁convenable	-11.8082
▁Nutrition	-11.8085
▁cérémonie	-11.8085
▁Success	-11.8086
▁possibilities	-11.8091
▁Detailed	-11.8094
▁Approach	-11.8096
▁Thursday	-11.8101
Resident	-11.8117
▁Modification	-11.8119
▁orientale	-11.8119
▁sediment	-11.8121
entreposage	-11.8124
allégement	-11.8127
appuyant	-11.8133
▁Recipient	-11.8144
▁détruit	-11.8146
▁Compensation	-11.8148
communication	-11.8153
▁interprété	-11.8156
▁blessé	-11.8163
▁Origin	-11.8164
▁accused	-11.8165
▁Syrie	-11.817
employment	-11.8177
nouveau	-11.8177
▁ambigu	-11.8183
▁recyclage	-11.8186
▁secrétariat	-11.8198
affecte	-11.8206
▁furnish	-11.8209
document	-11.8212
méditerranéen	-11.8214
▁administrator	-11.8214
▁Congrès	-11.8216
▁Ombudsman	-11.8217
▁beneficiary	-11.8222
invalidité	-11.8224
▁Département	-11.8229
▁packaging	-11.8245
▁contaminated	-11.8245
▁développe	-11.8248
▁Livre	-11.8253
▁initiate	-11.8264
▁distributor	-11.8265
allégation	-11.8276
▁analytical	-11.8276
▁COMMUN	-11.8278
essentiel	-11.8279
▁pierre	-11.8287
▁cheque	-11.8287
▁diligence	-11.8289
î	-11.8289
▁sharp	-11.8293
▁gravité	-11.8296
▁clôture	-11.8297
▁unlikely	-11.8302
▁coordinator	-11.8306
▁OTTAWA	-11.8307
abolition	-11.8316
▁trauma	-11.8319
▁Secrétaire	-11.8325
▁tolérance	-11.833
▁identical	-11.8335
▁charbon	-11.8344
▁plaque	-11.8346
▁patron	-11.8351
▁fragile	-11.8355
▁olympique	-11.8355
▁Indigenous	-11.8368
▁Thomas	-11.837
▁incluent	-11.8377
▁simplifier	-11.8383
▁bénéfique	-11.8385
▁clarté	-11.8393
▁Friday	-11.84
▁millénaire	-11.8405
▁antidumping	-11.841
▁Swedish	-11.8413
▁grippe	-11.8415
▁holiday	-11.842
administrer	-11.8423
▁Objet	-11.8428
▁suscité	-11.8428
▁Hydro	-11.8435
▁frequent	-11.844
▁succ	-11.8441
▁sauvetage	-11.8443
▁escompté	-11.8445
▁privilégié	-11.8445
▁Democratic	-11.8453
Entente	-11.846
▁octroyé	-11.846
▁nevertheless	-11.8465
octobre	-11.8472
▁douanière	-11.8475
▁mobilisation	-11.8475
Circ	-11.8479
▁Earth	-11.8493
▁PLAN	-11.8495
▁[...]	-11.8495
▁prévoyant	-11.8495
▁Coordinator	-11.8496
▁Troisièmement	-11.8496
intégr	-11.8498
▁false	-11.85
▁stipulate	-11.8513
▁relance	-11.8517
▁Taiwan	-11.8518
▁commodity	-11.8518
▁Strength	-11.8523
▁readily	-11.8525
▁Engagement	-11.8527
européen	-11.8531
▁retenir	-11.8533
▁médiation	-11.8545
▁elimination	-11.8552
▁éducatif	-11.8552
univers	-11.8554
▁Beijing	-11.8555
École	-11.8559
▁détaillants	-11.8564
▁trompe	-11.8567
▁tuberculose	-11.8574
▁mercure	-11.8575
▁bénéficié	-11.8586
▁biggest	-11.8586
enveloppe	-11.8588
▁tchèque	-11.8596
▁élabore	-11.8611
▁jurisprudence	-11.8611
▁therapeutic	-11.8613
▁militant	-11.8613
▁qualifie	-11.8614
▁Self	-11.8615
▁concitoyens	-11.8616
▁hommage	-11.8621
▁Habitat	-11.8625
▁logistique	-11.8626
▁possess	-11.8627
UNESCO	-11.8628
▁aspirations	-11.8633
insuffisance	-11.8641
▁démonstration	-11.8641
▁séquence	-11.8643
hygiène	-11.865
▁architect	-11.8652
▁soupçon	-11.8655
▁sacrifice	-11.8657
▁Telecommunicati	-11.8657
▁Inscrivez	-11.8658
▁square	-11.8658
conseil	-11.8665
échappe	-11.8665
▁Bosnie	-11.8667
▁prejudice	-11.8672
▁propice	-11.8676
▁coherent	-11.8681
▁souffrance	-11.8684
▁Singapore	-11.8689
▁TRANS	-11.8689
▁reputation	-11.8698
▁disturb	-11.8708
▁précieux	-11.872
▁separation	-11.8729
▁croyons	-11.873
▁Joseph	-11.8735
▁GROUP	-11.8742
▁Respondent	-11.8751
▁ambitieux	-11.8751
▁rigid	-11.8763
Labrador	-11.8764
▁2008-2009	-11.8777
▁encompass	-11.8782
▁intervenu	-11.8782
Territorial	-11.8783
(2005)	-11.8788
enjeu	-11.8789
▁responsive	-11.879
▁History	-11.8801
▁incorrect	-11.8816
▁caractérise	-11.8825
▁sanguin	-11.8844
▁Chacun	-11.8845
▁multiplie	-11.8848
▁Wildlife	-11.8851
▁competitor	-11.8851
▁opérateurs	-11.8853
▁likelihood	-11.8863
▁confère	-11.8866
▁Daniel	-11.8867
▁excédentaire	-11.887
▁légumes	-11.8873
▁éditeurs	-11.8877
▁beneficiaries	-11.8879
▁restauration	-11.8884
▁inhérent	-11.8887
▁voulait	-11.8896
▁heavily	-11.8898
▁spectacle	-11.8898
▁complications	-11.8901
▁Petit	-11.8911
▁familial	-11.8911
▁Broadcasting	-11.8912
▁epidemic	-11.8915
ù	-12.1993
À	-12.9255
